#version: 0.2
t h
i n
r e
a n
o n
a l
e r
U N
UN K
UNK ></w>
< UNK></w>
o u
in g</w>
th e</w>
a r
r u
o r
e n
t o</w>
a t
a t</w>
ru m
i l
i t
i c
e r</w>
o n</w>
s t
i s</w>
an d</w>
rum p</w>
e d</w>
i n</w>
v e</w>
h a
s t</w>
o f</w>
on al
T h
o r</w>
l e
T rump</w>
o u</w>
e s</w>
re al
a m
o m
a n</w>
a c
onal d
l i
y ou</w>
n o
@ real
r o
b e
n e
l o
g o
th e
s i
p e
f or</w>
l y</w>
r i
l e</w>
w h
D onald
t i
s e</w>
Donald Trump</w>
a l</w>
@real DonaldTrump</w>
s h
g re
d e
i t</w>
w a
o l
e l
il l</w>
en t</w>
k e</w>
ou r</w>
e n</w>
b e</w>
g h
ar e</w>
d i
o p
th at</w>
a d
v er
ha ve</w>
n t
p re
s a
l d</w>
e s
t s</w>
gre at</w>
u r
at i
g e
w ill</w>
s e
c ou
m a
b u
er e</w>
o t
a b
m e</w>
d a
it h</w>
ou t</w>
c h
l a
go ing</w>
er ic
si d
w ith</w>
on e</w>
an t</w>
w or
u n
u c
gh t</w>
pe op
v er</w>
c om
w e</w>
al l</w>
m e
r a
Th e</w>
t a
t rump</w>
c on
peop le</w>
o w
ou ld</w>
a s
i r
in g
A m
er s</w>
i s
u st</w>
r y</w>
b am
an k</w>
a s</w>
a g
k no
at e</w>
on t</w>
Am eric
k s</w>
no t</w>
wa s</w>
s ,</w>
in t
y ,</w>
the y</w>
th is</w>
cou nt
rum p
ic e</w>
j o
d s</w>
il l
A n
p p
v i
a u
k ing</w>
sid ent</w>
s o</w>
da y</w>
O bam
f or
m y</w>
ge t</w>
i g
t o
h e</w>
W e</w>
k e
n t</w>
o w</w>
t t
2 0
ver y</w>
e x
ar y</w>
f u
d o
c e</w>
Th e
d o</w>
p ro
T rump
N e
b y</w>
on s</w>
d ont</w>
w e
m o
m an
count ry</w>
R e
o d</w>
y e
r e</w>
li ke</w>
h i
u s
W h
ati on</w>
An d</w>
f a
t e
y our</w>
w ould</w>
a d</w>
y s</w>
C h
onal d</w>
ha s</w>
m or
i ght</w>
th ing</w>
th er</w>
b o
t h</w>
ab out</w>
s u
p u
20 1
it y</w>
w s</w>
at s</w>
v e
i m
in k</w>
p ol
p a
ac k</w>
ro m</w>
f f
an d
j ust</w>
kno w</w>
en t
Th ank</w>
y ou
s s</w>
f rom</w>
wh at</w>
bu t</w>
it s</w>
G re
Y ou</w>
e c
i d
i d</w>
w ant</w>
s p
on e
il li
u s</w>
ar d</w>
s pe
d onald
m ent</w>
el l</w>
e v
lo o
h e
t er
donald trump</w>
e le
wh o</w>
uc h</w>
al ly</w>
Obam a</w>
p l
P re
@real donaldtrump</w>
g i
ti me</w>
an ks</w>
m b
w ere</w>
i r</w>
th ink</w>
an s</w>
a r</w>
b i
ma ke</w>
B u
p o
pre sident</w>
p pre
p er
a in</w>
t r
en d
f o
c an</w>
D e
mor e</w>
D onald</w>
g e</w>
201 6</w>
go od</w>
I m</w>
ar t
s om
v ot
c i
au se</w>
g u
b r
u p</w>
ppre nt
ti on</w>
b ack</w>
man y</w>
es s</w>
ne w</w>
@ M
at e
ar s</w>
n ing</w>
on g</w>
fu l</w>
ne ver</w>
f i
ill ary</w>
@ B
le a
be c
c re
h is</w>
p or
ac k
ru n</w>
the m</w>
al l
ne ed</w>
m uch</w>
ing s</w>
ati on
M a
wa y</w>
ad e</w>
Americ a</w>
i f</w>
Bu t</w>
b le</w>
d er</w>
th ank</w>
l l</w>
no w</w>
y ing</w>
c e
bec ause</w>
S t
g o</w>
bi g</w>
The y</w>
lo ve</w>
be en</w>
t al
m in
Pre sident</w>
b l
t ru
t er</w>
i es</w>
g r
t ur
se e</w>
ar t</w>
a m</w>
sh ould</w>
ou n
e re
l int
th an</w>
sa id</w>
Gre at</w>
d y</w>
t ed</w>
q u
ou s</w>
vi e
ver y
am e</w>
c h</w>
s in
o ther</w>
d er
real ly</w>
o o
n o</w>
c or
A pprent
st r
wh en</w>
H illary</w>
ri ght</w>
c ant</w>
the ir</w>
H e</w>
an y
con t
J o
y re</w>
com e</w>
Th anks</w>
st or
f ri
g h</w>
o ver</w>
R E
be st</w>
S o</w>
en d</w>
it ic
ac e</w>
t on
re d</w>
e t
d ,</w>
0 0</w>
k ed</w>
l u
jo b
m an</w>
in a</w>
at es</w>
w ,</w>
m one
w at
I ts</w>
d nt</w>
ou gh</w>
sa y</w>
I t</w>
go t</w>
ow n</w>
i c</w>
an n
ev en</w>
m p
it e</w>
le ad
C lint
bo dy</w>
t ,</w>
loo k</w>
c a
c o
f in
es ,</w>
L e
illi on</w>
v ing</w>
h ow</w>
be li
int er
e very
e ,</w>
C on
s o
u l
it ed</w>
vot e</w>
e ve</w>
e ver</w>
i a</w>
on ly</w>
ir st</w>
ha d</w>
U n
la st</w>
mone y</w>
el l
d ing</w>
bu il
ha pp
# Trump
w in</w>
ta ke</w>
b le
bl ic
pu blic
@ C
Ne ws</w>
we e
ye ars</w>
som e
p r
am eric
E R
s :</w>
I f</w>
w in
s m
at ed</w>
mb er</w>
s on</w>
tt er</w>
a z
ic h</w>
en ds</w>
lo t</w>
at t
e p</w>
jo b</w>
c t</w>
hi m</w>
wor k</w>
wor ld</w>
it t
a f
h er</w>
pol itic
inter vie
sh e</w>
s c
@ F
m s</w>
f e
t ot
in e</w>
th ere</w>
s si
b ad</w>
su pp
@ S
e l</w>
com p
Americ an</w>
bu sin
sh ow</w>
ati ons</w>
kno w,</w>
N o
to day</w>
ation al</w>
f ac
s er
job s</w>
ag ain</w>
a ,</w>
do ing</w>
ab le</w>
M A
er ,</w>
ur e</w>
ch an
Clint on</w>
Apprent ice</w>
m ust</w>
be tter</w>
the yre</w>
U S
de al</w>
w i
an y</w>
an k
b or
N B
i st
c tion</w>
al s</w>
por t
G o
le g
de b
in to</w>
h on
c r
sh i
mo st</w>
tt ing</w>
e st
supp or
a in
A g
Ne w</w>
you re</w>
b er
di d</w>
h o
beli eve</w>
a y</w>
it i
ol d</w>
fri ends</w>
p la
wa ys</w>
s ed</w>
e d
th ats</w>
I C
lea se</w>
st o
c u
ou r
st e
stor y</w>
th ings</w>
ar ack
ro w
ag o</w>
s ing</w>
ti m
w ard</w>
f irst</w>
ton ight</w>
pe n</w>
w an
m ade</w>
cou ld</w>
h el
o ff
Re public
be ing</w>
@ D
c an
RE A
me di
s el
ro o
M r</w>
u p
ig n</w>
p ri
e t</w>
n ight</w>
Ch ina</w>
n u
v es</w>
#Trump 2016</w>
wh ere</w>
h es</w>
M y</w>
@ J
the se</w>
am az
com m
R o
d one</w>
T H
T o
c t
si on</w>
s uc
Ag ain</w>
Th is</w>
e con
th ou
ir e</w>
w ell</w>
gi ve</w>
ing ,</w>
on ,</w>
es s
n i
T R
c am
L i
d own</w>
@ A
en ti
f f</w>
u r</w>
@ m
an ,</w>
v ed</w>
en er
t re
happ en
en ce</w>
amaz ing</w>
t w
c are</w>
f e</w>
re al</w>
es nt</w>
M ar
som e</w>
ou se</w>
si g
wh ich</w>
gh t
A M
en ts</w>
W ere</w>
r ic
J ust</w>
NB C</w>
pro ble
@B arack
ha p
t ell</w>
a pp
re s</w>
a gre
fo x
h ard</w>
di dnt</w>
lo w
A N
I n
w on
for ward</w>
d onald</w>
cou r
do esnt</w>
pl ace</w>
ag ain
ele br
n ice</w>
ru n
st er</w>
ol l
@ fox
fa il
ne ws</w>
u t
re ad
busin ess</w>
G REA
o re
econ om
u m
d re
al ways</w>
intervie w</w>
I ve</w>
il it
the n</w>
e st</w>
e ds</w>
op e</w>
m on
o x
@ T
@ Trump
th anks</w>
e very</w>
o k</w>
suc c
ke ep</w>
ac t
GREA T</w>
om e</w>
tru e</w>
, 0
ig r
cam pa
americ a</w>
Americ a
id ,</w>
o bam
wh y</w>
m igr
a p
ci al</w>
U S</w>
mo cr
ro w</w>
ver n
s ol
lo w</w>
c lu
t rump
I S
1 0
le t</w>
ne x
com ing</w>
illi ons</w>
s s
Wh at</w>
y :</w>
I N
I N</w>
1 :</w>
a re
sa id,</w>
W ill</w>
A l
nex t</w>
c ur
n ed</w>
@ n
Un ited</w>
@ j
ye ar</w>
ri ble</w>
pu t</w>
w r
Gre at
ne eds</w>
gu y</w>
in cre
AM ER
ow er</w>
i l</w>
o se</w>
AMER IC
il e</w>
shi p</w>
TR U
m illion</w>
I n</w>
on g
m ar
Obam a
k ,</w>
c all
go l
ow ,</w>
as on</w>
f am
af ter</w>
tal k</w>
oun d</w>
@F ox
st er
,0 00</w>
wat ch
for e</w>
au ti
@fox and
di sa
a ke</w>
ne y</w>
ta x</w>
medi a</w>
f ol
l ong</w>
G O
C ar
O ur</w>
K E</w>
re spe
re pre
int ere
re cor
ent ,</w>
Wh y</w>
@foxand friends</w>
@Barack Obama</w>
v ic
@ P
i z
im migr
I s
O T
k es</w>
t om
I r
tim es</w>
an ds</w>
b ig
sto p</w>
L oo
c ot
a k</w>
w om
C are</w>
u e</w>
le ss</w>
u st
k ill
s y
tot al</w>
O n
again st</w>
a ve</w>
A r
d e</w>
st ing</w>
il y</w>
be fore</w>
wat ch</w>
h ere</w>
# Ma
ag e</w>
# C
tr ade</w>
m is
re n
campa ign</w>
an ta
an other</w>
or k</w>
read y</w>
G A
n ational</w>
W a
me ,</w>
#Ma ke
n er</w>
l dnt</w>
B e
da ys</w>
tw o</w>
cont )</w>
( cont)</w>
at ing</w>
no thing</w>
wa it</w>
Great Again</w>
ic e
wor king</w>
l and</w>
#Make America
m ilit
R us
ge tting</w>
t ra
loo king</w>
AMERIC A</w>
w ar
M e
der ful</w>
TRU M
ex ic
Th ats</w>
M exic
an ce</w>
i m</w>
De mocr
H ouse</w>
v en</w>
hap pen</w>
#MakeAmerica GreatAgain</w>
suppor t</w>
i on</w>
wan ts</w>
e p
tom or
I ll</w>
hon or</w>
Wh en</w>
ele ction</w>
h ope</w>
pro te
br ing</w>
an g
auti ful</w>
some thing</w>
il leg
L o
me mber</w>
u se</w>
@ b
sh ing
im port
al so</w>
J e
won derful</w>
per son</w>
R om
@Fox News</w>
roo ked</w>
f t</w>
O N
l y,</w>
hel p</w>
di s
u ally</w>
Y ou
St ates</w>
pre sid
or s</w>
@ K
i ver
B i
p t</w>
gh ts</w>
th ose</w>
S he</w>
so on</w>
c k</w>
obam a</w>
di d
g in
P e
d uc
hi gh
N o</w>
Rus si
tur e</w>
G ol
de f
N N</w>
di sc
cour se</w>
gol f</w>
le ,</w>
S en
st ic</w>
s en
deb ate</w>
p art
buil d</w>
de st
to o</w>
ge st</w>
c lo
E n
ec h</w>
Obama Care</w>
itt le</w>
ter r
c row
tot ally</w>
it ,</w>
gr at
I S</w>
run ning</w>
Jo h
can did
p lease</w>
tomor row</w>
ta x
ele b
i e
s ure</w>
ar d
sel f</w>
str ong</w>
A f
pol l
ou d</w>
s ur
you ,</w>
A L
S cot
be autiful</w>
go ti
st and</w>
sm art</w>
c la
d oll
V er
l or
chan ge</w>
Ne w
th r
p h
ma king</w>
mb ers</w>
u d
am p
w ont</w>
A GA
fa r</w>
milit ary</w>
V ia</w>
grat ul
spe ech</w>
B us
disc us
re ,</w>
recor d</w>
tal king</w>
US A</w>
as ed</w>
da y,</w>
ha mp
t or
is h</w>
c ol
ate st</w>
a pprent
fu l
C om
y n
jo y</w>
pa y</w>
t on</w>
ic k
ann oun
y ed</w>
in t</w>
c ted</w>
MA KE</w>
l ittle</w>
H ow</w>
end ing</w>
@ H
AGA IN</w>
N or
go vern
ru z</w>
o b
st art</w>
g y</w>
pol l</w>
in e
o ff</w>
li fe</w>
S e
m illions</w>
o ,</w>
ri st
@ R
l l
se en</w>
ow a</w>
t e</w>
I nt
politic i
sa ying</w>
me an,</w>
anta stic</w>
TRUM P</w>
do es</w>
uc k</w>
di ff
wi th
O R
me et
N Y
s on
c er
t y</w>
en e
D ont</w>
h ig
vi a</w>
c ri
F or
The yre</w>
P o
ou th</w>
proble m</w>
mor ning</w>
Republic an</w>
econom y</w>
s uch</w>
re e</w>
elebr ity</w>
@ L
R u
@ E
f r
a v
GO P</w>
doll ars</w>
us ed</w>
pr oud</w>
Rom ney</w>
Apprent ice
any thing</w>
ne goti
@ k
c ti
o th
Ir an</w>
E N
p as
bo ok</w>
N ational</w>
a w
pol ic
Americ ans</w>
Republic ans</w>
d ic
2 :</w>
Bi g</w>
re por
in d</w>
ssi ve</w>
li ve</w>
k er</w>
c ame</w>
N ow</w>
i str
gratul ations</w>
W at
Obam as</w>
H e
cont in
al th
di ble</w>
agre e</w>
M i
to p</w>
ic ago</w>
or der</w>
enti al</w>
illeg al</w>
3 :</w>
Ver y</w>
b ab
min istr
f un
lo st</w>
a st
@ d
bor der</w>
ou ldnt</w>
Y ork</w>
# trump
wh o
T ru
m i
a st</w>
repre ne
ma j
ch ar
import ant</w>
g g
m end
ye ster
hi story</w>
er ship</w>
ati ve</w>
@ Apprentice
call ed</w>
un der
eleb Apprentice</w>
ex c
lo b
st art
it ing</w>
A ll</w>
g ave</w>
m ,</w>
T i
id d
gre atest</w>
Y O
Ma ke</w>
Wa shing
i de
en s</w>
one st</w>
W or
spe cial</w>
en ing</w>
an s
1 9
buil ding</w>
P ol
ou t
pre ss</w>
al i
every one</w>
h or
wh ats</w>
to ge
succ ess</w>
h ot
w ent</w>
or al</w>
Th ink</w>
disa ster</w>
mend ous</w>
E S
st s</w>
I owa</w>
f antastic</w>
terr or
wee k</w>
com pe
C rooked</w>
se ,</w>
it ies</w>
M o
A d
c ar
T a
watch ing</w>
ch o
A R
he ar</w>
A T
st ate</w>
le s</w>
ic k</w>
@Apprentice NBC</w>
immigr ation</w>
t ough</w>
r at
1 0</w>
Mexic o</w>
Th at</w>
qu est
G e
at ,</w>
respe ct</w>
S ec
ell ,</w>
end or
act ually</w>
v en
ter rible</w>
v ank
incre dible</w>
nu mbers</w>
fo c
E R</w>
V e
er :</w>
c all</w>
sol u
sin ce</w>
s ands</w>
Trump ,</w>
w ed</w>
en n
th in
happ y</w>
s es</w>
fo re
apprent ice</w>
st ill</w>
ri es</w>
every body</w>
a k
it e
r y,</w>
h u
cont ro
No t</w>
sh o
H es</w>
@ The
sh es</w>
@ I
s h</w>
diff ere
0 0
N E
ma g
C ruz</w>
re ad</w>
an t
lead ers</w>
for m
h ,</w>
M c
F o
Democr ats</w>
se ason</w>
f ight</w>
s ame</w>
K e
st up
wor st</w>
o ver
ar ound</w>
y ers</w>
V ot
a way</w>
I ra
w all</w>
p s</w>
p m</w>
de als</w>
D o
h ell</w>
tre mendous</w>
b ad
tru th</w>
ac h</w>
sa ys</w>
Pe op
Ch icago</w>
ma ssive</w>
nu mber</w>
IS IS</w>
every thing</w>
Go od</w>
w on</w>
l ine</w>
c ent</w>
con f
Wh ite</w>
off ice</w>
the y
mp lo
l ar
kno ws</w>
d ers</w>
idd le</w>
Nor th</w>
se e
k en</w>
h er
c es</w>
m r</w>
sh ow
@M itt
un der</w>
it y
Peop le</w>
b illion</w>
S u
St ate</w>
Pre sid
ou ght</w>
el se</w>
thr ough</w>
F ake</w>
m ents</w>
ac t</w>
F lor
ou nt
in es</w>
le ft</w>
i se</w>
fri end</w>
st ate
Trump :</w>
an ia</w>
t old</w>
pl an</w>
or t</w>
B o
ic al</w>
ation ,</w>
la r</w>
@ G
c ed</w>
po ssi
thou sands</w>
un e</w>
Con gratulations</w>
se cur
yester day</w>
wom en</w>
fam ily</w>
sid e</w>
govern ment</w>
K ore
you r
lo s
S ta
compe t
fa v
Bus h</w>
reprene ur
wa y,</w>
in clu
ta king</w>
poll s</w>
h ar
I L
vi sion</w>
ministr ation</w>
ic i
b ot
B ec
d ed</w>
count ries</w>
fail ing</w>
F irst</w>
ou gh
a :</w>
ac e
OT US</w>
S outh</w>
M on
b y
@ c
@ W
sy ste
toge ther</w>
hig h</w>
ser v
YO U</w>
rat ings</w>
comp an
big gest</w>
y be</w>
r ad
dest ro
u gh
ur ing</w>
st ru
ad v
4 :</w>
c y</w>
i st</w>
crow d</w>
i ous</w>
Ch rist
in ve
D o</w>
IN G</w>
F or</w>
ke t</w>
g as</w>
n ation</w>
P art
succ ess
meet ing</w>
@C NN</w>
lead er</w>
$ 1
l uck</w>
e ar
po s
ate ly</w>
id a</w>
sp on
h illary</w>
A C
tur n</w>
P lease</w>
thou ght</w>
s k
r y
G A</w>
wh ile</w>
tax es</w>
v il
Th ere</w>
On e</w>
li sh
TH E</w>
t ri
le ar
ye ar
re member</w>
b a
att ack</w>
M is
happen ed</w>
W ith</w>
A s</w>
spe a
be come</w>
politic al</w>
st and
l an
win ning</w>
l and
@ Re
S y
lead ership</w>
Le ts</w>
with out</w>
@n y
tr ying</w>
ful ly</w>
it u
wr ong</w>
proble ms</w>
wor k
sig n</w>
L E
any one</w>
S te
er s,</w>
re spon
ac are</w>
a y
e as
intervie wed</w>
politici ans</w>
h it</w>
D oral</w>
re t
i ve</w>
@ p
bab ly</w>
d um
t ing</w>
b ir
maj or</w>
discus sing</w>
for m</w>
Washing ton</w>
ti ve</w>
su l
de ci
@Mitt Romney</w>
be at</w>
B e</w>
Con gre
le ar</w>
T o</w>
fa st</w>
Russi a</w>
S ch
B ill</w>
an ts</w>
tru ly</w>
T e
a th
G et</w>
ic e,</w>
sa d</w>
n s</w>
H app
te ly</w>
7 :</w>
to ok</w>
st ates</w>
ener gy</w>
You re</w>
pr om
al ,</w>
wor se</w>
uc k
he ad</w>
app ro
N O
com es</w>
sa w</w>
or e</w>
te le
syste m</w>
L I
ye t</w>
peop le,</w>
e :</w>
ch il
re fu
secur ity</w>
oth ers</w>
: 00</w>
sa ve</w>
sh ire</w>
0 %</w>
il ity</w>
Car ol
Joh n</w>
al most</w>
fi x</w>
vic tor
ec t</w>
w /</w>
C ount
candid ate</w>
wan ted</w>
N ow,</w>
B er
c k
m at
g er</w>
al low
iti on</w>
compan ies</w>
@ s
ha ving</w>
ist s</w>
Gol f</w>
gr ou
b ro
ge ts</w>
at or</w>
Scot land</w>
Sy ri
st u
C u
A S
Me di
u m</w>
1 1
ac ys</w>
E x
ex p
de n</w>
E nt
ra is
pro bably</w>
pl ac
C elebrity</w>
De b
sh onest</w>
@ N
ou s
W e
T ower</w>
En joy</w>
o il</w>
Is ra
ill y
fa ir</w>
un ited</w>
Loo king</w>
w el
#C elebApprentice</w>
m y
m ent
se t</w>
Fo x</w>
op p
I d</w>
Flor ida</w>
you ve</w>
fac t</w>
8 :</w>
Li ke</w>
Ira q</w>
su b
el ly</w>
hamp ion</w>
O n</w>
n ame</w>
li st
ma y</w>
sp ent</w>
ong er</w>
c lint
wor l
la w</w>
l y
P ro
in d
O N</w>
al ready</w>
stup id</w>
o :</w>
Bec ause</w>
success ful</w>
p le
b c</w>
t we
5 0</w>
ti l</w>
li es</w>
beli ev
p ar
he ard</w>
bad ly</w>
E very
wor ds</w>
ar y
a il
Kore a</w>
d uring</w>
li c</w>
P ri
hot el</w>
o pen</w>
Happ y</w>
fi ght
W ow,</w>
5 :</w>
fu ture</w>
r an
some one</w>
Wat ch</w>
ti es</w>
re le
k ay</w>
fin d</w>
g es</w>
comp le
1 2
d on
no body</w>
v in
americ an</w>
st a
h ome</w>
ann ity</w>
ne w
under stand</w>
per i
re ason</w>
pu b
clo se</w>
l am
he alth
b ra
happen ing</w>
er ry</w>
spe ak</w>
bot h</w>
er man</w>
differe nt</w>
is ,</w>
po lo
gh t,</w>
start ed</w>
sa y,</w>
6 :</w>
ener al</w>
n ce</w>
I T
mo ve</w>
er s
O U
prote ct</w>
chan ce</w>
P E
fac t
inclu ding</w>
b ack
count ry,</w>
W ell,</w>
ad s</w>
No ,</w>
fore ign</w>
is m</w>
Je b</w>
lo c
@ se
bo o
th day</w>
vi si
ce ment</w>
c ess</w>
De al</w>
@real Donald
vi d
Trump s</w>
de c
st ed</w>
fail ed</w>
ter ans</w>
Go vern
gi ven</w>
t wee
h ouse</w>
fi c</w>
h al
H amp
ti ons</w>
Un iver
ec k</w>
p ower</w>
le ad</w>
se con
comm un
s ch
ad ing</w>
m ess</w>
bu y</w>
s ent</w>
di shonest</w>
V E</w>
c ra
d ou
New s
un til</w>
a h
m en</w>
foc us</w>
who le</w>
C ol
loo ks</w>
f ic
ac h
ma kes</w>
en ough</w>
e ma
@ me
tr illion</w>
p an
k i
@ gre
lob al</w>
W i
a go
me an</w>
g ra
f ra
Ent repreneur
kno w
Ke ep</w>
a polo
ne ss</w>
solu tely</w>
pla y</w>
ta ken</w>
can not</w>
n am
n ,</w>
econom ic</w>
Ar t</w>
er ing</w>
3 0</w>
in ing</w>
u ne
C ant</w>
w ish</w>
S un
ve l</w>
bi o</w>
al th</w>
I s</w>
deb t</w>
hor rible</w>
il s</w>
busin ess
m ary</w>
cor re
p ic
contin ue</w>
m ing</w>
es ome</w>
Jo in</w>
s nt</w>
T r
T ed</w>
ve ,</w>
en ,</w>
on ce</w>
w ouldnt</w>
P M</w>
possi ble</w>
sh ed</w>
inve st
in sp
el s</w>
fam il
st ay</w>
wee k
c ent
roo m</w>
we ve</w>
ric an
p er</w>
Sen ate</w>
Y our</w>
z e</w>
clint on</w>
M ic
Carol ina</w>
m ist
@ the
h ur
h at
ri s
b re
p ra
fa ke</w>
an i
contro l</w>
Int er
@ V
pub lic</w>
sig ned</w>
lo se</w>
O B
ro ss</w>
gi ving</w>
fight ing</w>
Ge or
re public
ow er
is nt</w>
be gin
Tru e</w>
# MA
allow ed</w>
en tion</w>
D i
sp ending</w>
g row
M any</w>
fe el</w>
mon th
Lo ve</w>
Part y</w>
Wor ld</w>
ha m
ca re
#trump 2016</w>
lea ving</w>
pro duc
o f
min d</w>
de sp
@ Jo
p art</w>
F ri
kill ed</w>
st ,</w>
secon d</w>
g ame</w>
Medi a</w>
ce ,</w>
sm all</w>
c o</w>
fol ks</w>
la ugh
Ta x</w>
T ur
D ay</w>
ma ybe</w>
uc lear</w>
d it</w>
f re
cla ss</w>
A F
on es</w>
bu d
u es</w>
polic y</w>
s ing
Ti me</w>
t ers</w>
si ve</w>
C o
ad m
at h</w>
m om
repor t</w>
ab solutely</w>
i on
1 6</w>
thin king</w>
kill ing</w>
re sul
g yn
it y,</w>
sen se</w>
ri d</w>
g an
your self</w>
an h
h ate</w>
Hamp shire</w>
#MA GA</w>
any body</w>
ni e</w>
l ed</w>
a se</w>
Joh n
r ace</w>
in s</w>
G o</w>
tele vision</w>
in v
E S</w>
pl an
as k</w>
at ur
S h
t ell
we ak</w>
y er</w>
Entrepreneur s:</w>
@I vank
ne g
c iti
a ir
cer ta
M el
ca p
you n
w it
De ms</w>
n uclear</w>
g lobal</w>
D a
G od</w>
re l
f an</w>
@Ivank a
lo sing</w>
some body</w>
won der</w>
ans w
ti c</w>
k ind</w>
gyn k
v is
gu l
th er,</w>
health care</w>
C an</w>
2 0</w>
k new</w>
the res</w>
TH AN
@me gynk
de al
on al</w>
i ke
fact or</w>
th re
t a</w>
po int</w>
F A
sp o
cu t</w>
wa r</w>
ate ,</w>
th ree</w>
Th ank
pe al</w>
Se e</w>
9 :</w>
in ste
ar ing</w>
y ment</w>
me mb
hal f</w>
presid ential</w>
ne s
man u
@ny times</w>
si ons</w>
gr ats</w>
C an
in ner</w>
en i
g one</w>
Mis s</w>
v al
any more</w>
ge ,</w>
Y e
Po st</w>
P al
jo in</w>
e b
N Y</w>
Isra el</w>
e f
at ors</w>
f our</w>
H o
ren g
le ts</w>
watch ed</w>
h un
A L</w>
h and
chil dre
Re member</w>
NB C
victor y</w>
j ud
en se</w>
p hon
u lar</w>
f al
elebr ity
in st
f ree</w>
O ff
sh ing</w>
T u
P ar
H ar
gre at
The se</w>
l in
si mp
r ac
politic s</w>
B r
one ,</w>
om e
j e
lea ve</w>
z y</w>
intere sting</w>
cre ate</w>
per cent</w>
no w,</w>
buil t</w>
d ro
S I
is su
Loo k</w>
@megynk elly</w>
e ther</w>
Ch in
M it
C NN</w>
t ro
mplo yment</w>
c au
st e</w>
ut e</w>
d ge</w>
EN T</w>
for get</w>
spea king</w>
b s</w>
lea st</w>
ac tion</w>
job s,</w>
Obam acare</w>
aw esome</w>
ex pe
y s,</w>
s ha
f l
ore illy
1 1</w>
def ic
Ch ar
r ich</w>
ca se</w>
F O
o s</w>
tur ned</w>
S o
bor ders</w>
b an</w>
la w
T im
year s,</w>
G ra
om in
en joy</w>
z ing</w>
er ous</w>
so ,</w>
fi red</w>
ter ri
part y</w>
de li
sing le</w>
ir gin
as ked</w>
ous ly</w>
B ar
us ing</w>
ic es</w>
re ce
ch e
al ong</w>
@ jo
v el
sur pri
n a</w>
m iddle</w>
are nt</w>
O hi
te am</w>
sa fe</w>
op port
gg ed</w>
O r
R ight</w>
@ oreilly
g ed</w>
Wh o</w>
S o,</w>
Congre ss</w>
ra ise</w>
d :</w>
ppre ci
fav or
opport un
famil ies</w>
p le</w>
re as
@se anh
wom an</w>
month s</w>
one st
win d</w>
gu ys</w>
@ g
n ber
t ough
ic s</w>
eas y</w>
Clint ons</w>
go tt
me ans</w>
fin ally</w>
vot ing</w>
@ An
comp any</w>
wel come</w>
win ner</w>
re nt</w>
an a</w>
Sun day</w>
G u
s ent
N C</w>
C lu
ce pt</w>
L O
at es,</w>
m er</w>
R O
ust ice</w>
citi z
u al</w>
intere sts</w>
ere nce</w>
E D</w>
youn g</w>
th at,</w>
@seanh annity</w>
cor ru
wee ks</w>
re port
at ri
F B
s end</w>
b al
Gol f
work ers</w>
lead ing</w>
a ir</w>
im medi
oo l</w>
apolo gi
Ru bio</w>
deci sion</w>
st reng
I m
mis s</w>
l onger</w>
W al
Syri a</w>
r ally</w>
fu n</w>
Count ry</w>
l v
b ur
ab lish
R es
re gul
cre dit</w>
hel p
f ar
cho ice</w>
@Ivanka Trump</w>
th er
d y
all ,</w>
Sta r</w>
t une</w>
cou ldnt</w>
C O
presid ent,</w>
i ons</w>
li ves</w>
G eneral</w>
In di
Deb ate</w>
E le
al low</w>
a ppreci
T I
Sec ret
am a</w>
@oreilly factor</w>
ve ment</w>
Af ter</w>
o red</w>
ra in
w al
ad a</w>
S and
do m</w>
a ge
ill s</w>
W E</w>
m es
en for
F r
pla ying</w>
z er
vot es</w>
vie w</w>
AL L</w>
@ r
ec u
ar i
J ap
e mb
P u
s al
M in
T ex
t ry</w>
ev ening</w>
fi ve</w>
ago ,</w>
S pe
am p</w>
col le
Com m
fa ir
C our
c ha
announ ced</w>
ad ministration</w>
Vot e
v al</w>
o d
iz e</w>
bir thday</w>
3 0
fu ll</w>
show s</w>
cu ts</w>
@ O
@Re al
visi t</w>
H ot
m ent,</w>
Ber nie</w>
E M
1 2</w>
p ur
lo ved</w>
sy lv
li e</w>
d ru
P er
ver y,</w>
@ w
e ff
T O</w>
state ment</w>
P en
c li
pre dic
fol low</w>
enn sylv
L in
Ad ministration</w>
M iddle</w>
lo ves</w>
@ t
str ong
our s</w>
A B
bud get</w>
Inter national</w>
S how</w>
R iver
pa ying</w>
in compet
co st</w>
de ,</w>
20 0
childre n</w>
war ming</w>
c elebrity</w>
P P
Secret ary</w>
corre ct</w>
Ne ver</w>
tur ing</w>
V irgin
Sec ur
r is</w>
Ohi o</w>
pro per
rele ased</w>
b s
lo ts</w>
in ,</w>
f il
intere st</w>
B est</w>
# F
rad ical</w>
fin an
fi ed</w>
b ar
NY C</w>
d ol
stand ing</w>
Pol itic
ide a</w>
de ser
S T
v ir
A ma
) ,</w>
th ,</w>
polic ies</w>
insp ir
THAN K</w>
D A
pp ed</w>
pa st</w>
ablish ment</w>
wh ite</w>
Ve gas</w>
begin ning</w>
ac ross</w>
ve lo
vot ed</w>
th ing,</w>
ev ent</w>
en g
am es</w>
@ Ch
sm art
c as
S tr
ed uc
ch eck</w>
big ger</w>
ar l
high est</w>
Tu es
R ic
Mel ania</w>
st ra
or ,</w>
g an</w>
believ able</w>
O kay</w>
am s</w>
# Vote
n or
V OT
On ly</w>
ut es</w>
mat ter</w>
A N</w>
$ 5
FB I</w>
ter m</w>
me et</w>
they ve</w>
C ent
s our
ct or</w>
b illions</w>
wa ste</w>
t u
endor se
pre mi
$ 1</w>
tur b
phon y</w>
C hampion</w>
@ Ro
wh ether</w>
no t
neg ative</w>
1 3
g s</w>
ep is
b all</w>
az ine</w>
ven tion</w>
T V</w>
10 0%</w>
wa snt</w>
Christ i
in form
con cer
lam ic</w>
pa id</w>
is pan
fe w</w>
thou ghts</w>
sa ge</w>
ou l
a ke
m ention</w>
g la
Univer se</w>
une mployment</w>
r an</w>
Govern or</w>
end ment</w>
sp end</w>
ma x
ma s</w>
h tt
grou p</w>
cti ons</w>
po st</w>
r ate</w>
go es</w>
v ate</w>
incre ase</w>
favor ite</w>
se cre
all y,</w>
we ight</w>
H A
s ort</w>
fol low
fac turing</w>
happen s</w>
i ght
a head</w>
ti me,</w>
ou ch</w>
quest ion</w>
inste ad</w>
are ,</w>
ar k
cou ple</w>
ch ina</w>
memb er,</w>
li g
ri gged</w>
st ar
H ill
ta kes</w>
on a
le x
S ome
los ers</w>
wor d</w>
de fe
de mocr
Americ as</w>
A t</w>
pos iti
comm on</w>
( and</w>
ist er</w>
immedi ately</w>
H ave</w>
week end</w>
es :</w>
Mc C
ci ally</w>
ca st</w>
Mi ke</w>
re gi
g y
e y
W eve</w>
I R
or ity</w>
in ed</w>
E ast</w>
# D
candid ates</w>
c rooked</w>
P OTUS</w>
s an
d ow
ke ep
comple te</w>
au l
ack ed</w>
# 1</w>
gott en</w>
list en</w>
d ang
th u
W S</w>
ve ts</w>
sid er</w>
ema ils</w>
e i
wi fe</w>
atur day</w>
again ,</w>
Th en</w>
Jo e</w>
im p
ES T</w>
off ici
sa f
g ener
di re
ab ility</w>
v o
#C elebrity
zer o</w>
T ough</w>
vi ol
re nt
O h,</w>
mag ine</w>
ac ks</w>
qu i
t un
le vel</w>
z z
laugh ing</w>
de velo
ur y</w>
b b
s ell</w>
as king</w>
serv ice</w>
M an
th ough</w>
wor ks</w>
dum b</w>
et y</w>
ve terans</w>
en cy</w>
Tur nber
ing ing</w>
enti re</w>
er al
To day</w>
P ennsylv
AN D</w>
respe cted</w>
re :</w>
Sen ator</w>
@Barack Obamas</w>
cri me</w>
hat ers</w>
wa iting</w>
in c
for ce</w>
endor sed</w>
answ er</w>
D C</w>
@M acys</w>
ver ,</w>
los er</w>
P RE
u nt
an ke
tr ou
ar y,</w>
@E ric
n y
Re ally</w>
st ar</w>
n er
resul ts</w>
Wh ite
T A
ver age</w>
fi el
R U
d am
ex peri
wor th</w>
te st</w>
or d
htt p
M ag
k :</w>
b as
n y</w>
de ad</w>
cou ra
an s,</w>
F L</w>
high ly</w>
Vot e</w>
0 :</w>
N N
li f
pro f
#Celebrity Apprentice</w>
vie ws</w>
b it</w>
art ic
I G
t s,</w>
r ated</w>
no ,</w>
lear n</w>
fal se</w>
b ri
li ght
A ri
S p
Ru n</w>
Ti me
re et</w>
m il
twe en</w>
be tween</w>
@ ch
start ing</w>
dre ds</w>
S er
E T</w>
Tim es</w>
b ank
sh ouldnt</w>
ann y
ton ,</w>
the m,</w>
@ h
B a
tre ated</w>
H ispan
fri end
fr ont</w>
E L
fac t,</w>
P A
b ol
E ven</w>
h ol
n ing
M E</w>
ar ri
V ER</w>
W est</w>
No body</w>
mo ving</w>
Tex as</w>
L a
tell ing</w>
no w
destro y</w>
c elebr
P ut
hap s</w>
ve ly</w>
terri fic</w>
cr itic
Con grats</w>
@C elebApprentice</w>
F i
republic an</w>
g un
O K</w>
S hes</w>
all en
pp ing</w>
us li
Clu b</w>
vi de
mar ket</w>
e f</w>
sp i
s cre
G et
plac es</w>
L Y</w>
d ri
T ra
f er
ac comp
itt ing</w>
grow th</w>
br inging</w>
1 5</w>
pre s
VOT E</w>
Mon day</w>
u e
e ach</w>
v ac
n ers</w>
vi d</w>
i magine</w>
e d,</w>
stor ies</w>
defic it</w>
FO R</w>
l at
Secur ity</w>
C H
enfor cement</w>
B ro
we ap
te e</w>
sel f
m u
FA KE</w>
hun dreds</w>
au d
w ire</w>
to day,</w>
Al ab
n d</w>
f ace</w>
negoti ate</w>
@gre ta
worl d,</w>
t :</w>
id e</w>
exc iting</w>
ve mber</w>
li ed</w>
Le ad
B y</w>
v ent</w>
op s</w>
ma ke
ic ha
manu facturing</w>
campa ig
exc ited</w>
B lu
ri c</w>
C ity</w>
es pe
Virgin ia</w>
ele cted</w>
Wat ch
suppor ters</w>
p ower
A D
de p
1 4</w>
stu ff</w>
@realDonald Trump:</w>
# America
se y</w>
P h
te d,</w>
run s</w>
t ow
an ge</w>
e ch
To Get
der al</w>
ter min
ou t,</w>
V ER
you ll</w>
Wi th
J OB
S ,</w>
endorse ment</w>
me t</w>
tt y</w>
to days</w>
sh ir
char ity</w>
Off ice</w>
rece i
is con
S to
Mar co</w>
li sh</w>
h onest
vil le</w>
Bus in
conf id
we bs
ne id
f ire</w>
b ought</w>
s il
hon ored</w>
ct ing</w>
O F</w>
li ber
Re ag
c over</w>
an :</w>
s ac
qu ick
W all</w>
@M ike
see ing</w>
s itu
z :</w>
ecu tive</w>
j ect</w>
is s
hu ge</w>
c le
pri mary</w>
T er
Hot el</w>
d d
T S</w>
terror ist</w>
on d</w>
certa in</w>
z on
st opp
l s</w>
Af ric
int el
@ White
we st</w>
C or
re lease</w>
j ec
wa shing
on na</w>
i al</w>
g ar
Turnber ry</w>
ex amp
M or
new s
espe cially</w>
t y
pri vate</w>
br ought</w>
o l</w>
: /
3 3
d s,</w>
#America First</w>
the m
af ra
D ON
conf erence</w>
Le t</w>
n ations</w>
g ir
cre ated</w>
comm it
re it
NE WS</w>
w /
N AT
immigr ants</w>
Is lamic</w>
@ NY
m it</w>
t en</w>
pla yed</w>
e li
Mit t</w>
z a
re tur
hi m
b ill</w>
_ :</w>
S aturday</w>
in ce</w>
appreci ate</w>
@b arack
out side</w>
ke t
2 5
op in
c ity</w>
@ trump
ber t</w>
and ,</w>
O L
H ope</w>
# Time
un believable</w>
l ic
Y or
The y
ie ce</w>
Tues day</w>
p e</w>
min utes</w>
le tt
ir d</w>
h n
bank ru
M ac
cra zy</w>
e mplo
con serv
read ing</w>
2 5</w>
Pennsylv ania</w>
% ,</w>
Geor ge</w>
G i
Christ mas</w>
vic ti
pra yers</w>
c ing</w>
at or
l ing</w>
201 7</w>
twe et
repre sent
o de</w>
illi ona
S ome</w>
Mi am
afra id</w>
pas s</w>
n omin
it ter</w>
Obam a,</w>
V i
they ll</w>
pu tting</w>
F e
A u
mes sage</w>
F in
p ot
o t</w>
ne ed
dis gr
y r
h ours</w>
2 nd</w>
lob by
ine se</w>
#Time ToGet
p un
adv ice</w>
E bol
turb ines</w>
p iece</w>
p i
g :</w>
est ablishment</w>
cri min
I vank
la ws</w>
h onest</w>
c ities</w>
f el
ad d
L as</w>
A re</w>
re build</w>
ac hi
Every one</w>
iz ed</w>
au l</w>
l ate</w>
k s,</w>
ac y</w>
pre me</w>
p op
d u
b ene
Put in</w>
ate ver</w>
4 4
SI D
rais ed</w>
@ _
en jo
B ig
y ork</w>
v ation</w>
shi ps</w>
Da vid</w>
terror ists</w>
be h
a sh
Presid ent,</w>
clu b</w>
c ru
re co
TRUM P
uck y</w>
low er</w>
@ Y
ne t
quest ions</w>
lo g</w>
s on,</w>
pol ice</w>
invest ig
201 2</w>
man ,</w>
gu ess</w>
da s</w>
high er</w>
Col le
n at
i gh
ei ther</w>
desp er
# make
sel ves</w>
politici an</w>
fav or</w>
H ur
@ i
s in</w>
streng th</w>
D u
twee ts</w>
c ess
agre at
S w
S al
tal ks</w>
W iscon
ver s</w>
ot ing</w>
re st</w>
oun d
mon d</w>
m ight</w>
trou ble</w>
po or</w>
Ari zon
# S
re ma
de fin
pa red</w>
mo vement</w>
R y
sto ck</w>
lo y
bo d
#make americ
st ated</w>
contin ues</w>
announ ce</w>
reit b
p en
our n
lo tt
call ing</w>
gu n</w>
en ces</w>
def ense</w>
Sto ck</w>
@ l
E very</w>
@White House</w>
News max
ene m
A n</w>
pr ice</w>
b ility</w>
#makeameric agreat
ra ther</w>
pl ans</w>
on :</w>
N AF
M usli
Jap an</w>
1 4
sho t</w>
mist ake</w>
no on</w>
f all
obam acare</w>
he alth</w>
Ro ve</w>
Pol l</w>
in f
@S en
@D an
who s</w>
we alth</w>
report ing</w>
c hampion</w>
Ye ar</w>
vot ers</w>
bene f
b ased</w>
PRE SID
No vember</w>
#makeamericagreat again</w>
cti on,</w>
Ch ris</w>
B ri
b ly</w>
f y</w>
cor ding</w>
on to</w>
The res</w>
Sand ers</w>
1 3</w>
gi ves</w>
M S
@greta wire</w>
w ill
ph en
corru pt</w>
situ ation</w>
s or
en ed</w>
up ,</w>
s ell
To ge
1 8
epis ode</w>
ear ly</w>
W IL
Sch neid
et c</w>
twee t</w>
fail ure</w>
pe fully</w>
W ar
supp o
sc ot
To day,</w>
vide o</w>
J r</w>
1 5
ha m</w>
ang el
@F L
ke ,</w>
beh ind</w>
da y
no ther</w>
A nother</w>
webs ite</w>
@ US
ol s</w>
in ts</w>
so ci
i shed</w>
2 4
artic le</w>
announ cement</w>
H is</w>
GO P
C U
ser ious</w>
Car son</w>
@ GOP</w>
c at
in er</w>
opportun ity</w>
af ter
hamp ion
Ama zing</w>
wr it
t able</w>
mo de
illiona ire</w>
S aud
spe ech
s ity</w>
n on
educ ation</w>
Presid ential</w>
le :</w>
re place</w>
Ma y
Alab ama</w>
G r
De part
gre at,</w>
de ath</w>
o ts</w>
K as
D E
on y</w>
it al</w>
Am endment</w>
se ly</w>
i ously</w>
1 st</w>
tw itter</w>
ble ss</w>
@S te
ne st
dou b
:/ /
Al ways</w>
anke es</w>
f ir
ef for
M O
t v</w>
jo ke</w>
gre ss</w>
#TimeToGet Tough</w>
fin al</w>
terror ism</w>
re e
ni ghts</w>
ha vent</w>
W ould</w>
dep end
al e</w>
OU R</w>
C ali
he art</w>
N FL</w>
A s
@D a
g onna</w>
fa ther</w>
Li ber
per f
power ful</w>
Mic hig
M ilit
@fox news</w>
Ve terans</w>
Reag an</w>
Re al
b om
I A</w>
@ ro
pre tty</w>
P AC
pr ices</w>
incompet ent</w>
fre e
adv anta
Cu ts</w>
Chin a,</w>
S uc
Ma ybe</w>
wor k,</w>
o kay</w>
al la
ere s</w>
an ti
Al l
pro cess</w>
m ur
@A lex
loo ked</w>
t ower</w>
illi ant</w>
a uc
V E
p m
ic ally</w>
fr ank
fin e</w>
7 7
y _
Ebol a</w>
al lies</w>
1 6
w ell,</w>
th is,</w>
stru c
mon th</w>
WIL L</w>
il i
es p
Go v
u ary</w>
per son
fiel d</w>
dang erous</w>
Min ister</w>
N O</w>
u ms</w>
suppo sed</w>
Arizon a</w>
n :</w>
bu l
act ly</w>
rel ation
ke y</w>
@Trump Doral</w>
si on
L E</w>
ri bu
inv ol
Be li
est ate</w>
victi ms</w>
un fair</w>
s old</w>
br and</w>
Ivank a</w>
Busin ess</w>
ti red</w>
@Eric Trump</w>
i :</w>
L u
an _
T ake</w>
s ad
mone y,</w>
go o
boo ks</w>
J u
re peal</w>
nam ed</w>
Donald ,</w>
1 00</w>
Pri mary</w>
P aul</w>
6 0
Toge ther,</w>
1 7</w>
M ore</w>
st age</w>
Beli eve</w>
ll ed</w>
discus s</w>
ss es</w>
oun ds</w>
o we</w>
ab o
# c
u t</w>
thu si
loo k,</w>
ic ul
ton i
tal ent</w>
it or
gh an
fo od</w>
er to</w>
Le a
ill ary
be half</w>
You ve</w>
P r
m er
lar ge</w>
ch allen
dre ss</w>
st ers</w>
G ive</w>
g in</w>
ad es</w>
lu x
I T</w>
A c
@barack obama</w>
hi stor
ri dic
min e</w>
foc used</w>
de red</w>
To o</w>
d r
u res</w>
: 30</w>
ren cy</w>
reitb art
e y</w>
H all</w>
ri ed</w>
ho st</w>
y st
u ro
Pre s</w>
y l
defe at</w>
positi ve</w>
m ed</w>
Democr at</w>
st er,</w>
re form</w>
pic ture</w>
man y,</w>
Saud i</w>
sol di
Ar ab
ki ds</w>
NO T</w>
Ge tting</w>
3 r
simp le</w>
ce p
need ed</w>
S econ
Ch inese</w>
desp ite</w>
commun ity</w>
B ir
$ 4
win ,</w>
experi ence</w>
Pri me</w>
F u
M ed
He alth
u s,</w>
Thank s,</w>
win s</w>
M acys</w>
th ird</w>
ridic ul
ind ust
S a
lar gest</w>
inspir ation</w>
icha el
g ing</w>
coura ge</w>
intel lig
ac i
light weight</w>
c op
Wiscon sin</w>
ex cept</w>
Miam i</w>
Cour t</w>
real ity</w>
Sta y</w>
6 0</w>
le y</w>
@ Donald
su ff
ser ve</w>
reas ons</w>
W ow</w>
Su preme</w>
hur t</w>
en thusi
T wit
J ustice</w>
call s</w>
politic ally</w>
W H</w>
T ouch</w>
Do es</w>
wh atever</w>
in no
st on</w>
ent repreneur
ang ry</w>
To m</w>
li ving</w>
d ra
Re member,</w>
spo ke</w>
re li
ha z
B I
1 1:</w>
om en
D id</w>
ing s,</w>
Jo bs</w>
For d</w>
C la
respon si
Char lott
prom is
li st</w>
de leg
Le tt
on ed</w>
wr ite</w>
Mar ket</w>
inform ation</w>
d on</w>
W IN</w>
H u
da ugh
River s</w>
recei ved</w>
gun s</w>
s ending</w>
ent ed</w>
av y</w>
ter ms</w>
c ruz</w>
agre e
n ice,</w>
buil d
@n bc</w>
re cent
ex actly</w>
business es</w>
Y es,</w>
W ell</w>
Rom ne
grou ps</w>
fi x
g eni
Wh ile</w>
C B
wor ked</w>
T on
the re,</w>
gan iz
ati c</w>
advanta ge</w>
ar ra
the tic</w>
quick ly</w>
bor n</w>
bor der
i ers
DA Y</w>
stru ction</w>
cor d</w>
Le ag
qu ot
per haps</w>
ic en
business man</w>
br illiant</w>
ar ly</w>
re turn</w>
in di
h om
ch ,</w>
pre ss
nest y</w>
M ill
A b
de v
shi p
fun d
por ts</w>
Every body</w>
wi se</w>
por t</w>
as s</w>
A M</w>
u d</w>
cam er
Sw amp</w>
S H
si r</w>
C E
S uch</w>
fe at
en sive</w>
# USA</w>
si e</w>
Tr ade</w>
TH E
DON AL
0 ,000</w>
PRESID ENT</w>
ro le</w>
prom ise</w>
leg al</w>
Secon d</w>
@D anny
ri t</w>
issu e</w>
ide as</w>
dre am</w>
citiz ens</w>
ap pe
@P OTUS</w>
ch ie
le n</w>
h ou
ble ,</w>
accomp lish
up er</w>
ra p
Th x</w>
Te a</w>
St reet</w>
He ading</w>
s s,</w>
@b ill
struc ture</w>
k ill</w>
Schneid erman</w>
Fri day</w>
wor ry</w>
str onger</w>
ite ly</w>
ing :</w>
I re
p ick</w>
nat ure</w>
re duc
Li by
Blu e</w>
ou nt</w>
ac cur
regul ations</w>
S um
S an
ru les</w>
ne cess
g row</w>
cor por
cla im
@ f
Hur rican
A t
Mar k</w>
E ric</w>
vie w
sa ved</w>
Ne v
@gre ta</w>
pro sp
pla yers</w>
ene my</w>
ar l</w>
S uper</w>
S an</w>
R T</w>
H a
@ da
@ al
saf ety</w>
es si
W r
McC ain</w>
h ard
enem ies</w>
h old</w>
S ad</w>
Bu sh
B ad</w>
thin ks</w>
spea ks</w>
pro vi
end ed</w>
Michig an</w>
bra ve</w>
b er</w>
P at
Mi das</w>
Fri ends</w>
an e
a L
T or
@A B
it or</w>
doub t</w>
apologi ze</w>
S m
Kas ich</w>
loc al</w>
W A
ff al
busin es
r :</w>
en ce,</w>
en :</w>
Lin ks</w>
Af ghan
y es</w>
vir on
finan cial</w>
Scot t</w>
ridicul ous</w>
rain The
mo ti
c y
Cali for
#D rainThe
w il
for d</w>
confid ence</w>
P l
surpri se</w>
sh ort</w>
perf ect</w>
pas sed</w>
colle ge</w>
Cent er</w>
ter ,</w>
h ands</w>
W E
h its</w>
ere d</w>
dol lar</w>
d es</w>
ct ac
win d
u red</w>
ex pla
after noon</w>
on s,</w>
bi ased</w>
as ,</w>
an ne
O pen</w>
R I
meet ings</w>
le y
@ Newsmax
pla yer</w>
eas ily</w>
them selves</w>
terr or</w>
P oll
N ice</w>
icen bc</w>
do ,</w>
ber de
as es</w>
Mag azine</w>
A tt
deb ates</w>
con gratulations</w>
J Trump
sig ning</w>
ho sting</w>
Q u
st ands</w>
po ints</w>
m c
tr ack</w>
expe cted</w>
k ers</w>
ur s
sc ri
our ing</w>
O f</w>
Ira q
for tune</w>
Int l</w>
suc ce
he aring</w>
ve red</w>
de duc
con sider</w>
Y es</w>
C ha
state ments</w>
M as
B en</w>
1 8</w>
$ 2</w>
oo d
dru gs</w>
am ount</w>
@Newsmax _
s y</w>
le ag
http s
c al
D O
el ,</w>
@Donald JTrump
spi rit</w>
l :</w>
enjo yed</w>
de m
ati onal
J ames</w>
thre at</w>
J O
ex tre
s n
fra structure</w>
examp le</w>
e a
arri ved</w>
m ate</w>
NE VER</w>
Mic ha
j ust
gr ound</w>
apprent icenbc</w>
Re peal</w>
fin ished</w>
me mbers</w>
f li
Wh ats</w>
ist an</w>
tri p</w>
chan ged</w>
ant ly</w>
B al
#DrainThe Swamp</w>
u g
fac ts</w>
NO W</w>
@ NBC
lat er</w>
ha c
P ence</w>
strong ly</w>
peri od</w>
Z u
o int
eng haz
destro yed</w>
Washing ton,</w>
# Trump</w>
s cho
cau ght</w>
pa rent
us b
P la
Bir thday</w>
@Trump Chicago</w>
@ John
ne t</w>
hel d</w>
A :</w>
n ia</w>
T O
P age
Pu erto</w>
Milit ary</w>
C ri
@ Golf
00 ,000</w>
ve y</w>
smart ,</w>
republic ans</w>
gol f
Wh ere</w>
Politic s</w>
P i
Loo k,</w>
ro om
deci sions</w>
cur rent</w>
M at
en viron
T ER
y ond</w>
op ening</w>
Par is</w>
tr ans
bor ing</w>
Pal m</w>
Lett erman</w>
A ,</w>
l ong
g ar</w>
f la
Twit ter</w>
A pp
pop ular</w>
te st
sm ar
a di
@ apprenticenbc</w>
def end</w>
sur ance</w>
gla d</w>
tweet ing</w>
po sed</w>
maj ority</w>
self ,</w>
f ound</w>
O P
war ds</w>
un i
DONAL D</w>
n ing,</w>
e k
ctac ular</w>
I ON</w>
n n</w>
dis gu
g eneral</w>
O ld</w>
y s
j ustice</w>
pu shing</w>
p ouring</w>
@ eric
recor ds</w>
premi ums</w>
f all</w>
co sts</w>
Ch uck</w>
@Jo e
@ De
weap ons</w>
w ro
e mp
comm ents</w>
L ou
con tr
se tt
o wa
h usb
cour ses</w>
Med ic
@J eb
keep ing</w>
emb arra
Suc cess</w>
O PE
F la
E uro
off er</w>
crow ds</w>
clu e</w>
ti on,</w>
char ge</w>
c ell
3 5
sol ve</w>
disgr ace</w>
a bu
@M iss
3r d</w>
re cent</w>
rais ing</w>
@jo hn
ex ecutive</w>
So cial</w>
@B reitbart
1 %</w>
#trump v
T A</w>
E gy
Ch eck</w>
1 3:</w>
star ts</w>
mom ent</w>
ful ,</w>
dro pped</w>
St ates,</w>
in :</w>
enghaz i</w>
Ric o</w>
li kes</w>
gu y,</w>
Indi ana</w>
D on</w>
recent ly</w>
know le
$ 5</w>
wro te</w>
of ten</w>
it z
cont ribu
R oo
d ying</w>
ch ec
st ep</w>
p t
worl ds</w>
n ast
i si
cor e</w>
care er</w>
wat er</w>
tal ked</w>
s le
g er
Musli m</w>
r al</w>
man :</w>
be t</w>
ac king</w>
PA C</w>
Mon ster</w>
b att
a h</w>
G er
#Vote Trump</w>
he ad
Russi a,</w>
RU N</w>
A D</w>
is :</w>
d inner</w>
IG H
comm er
ad y</w>
re pe
ill ed</w>
am ong</w>
shir ts</w>
presid ency</w>
fe deral</w>
All Star</w>
respon se</w>
mom ent
for ced</w>
att acks</w>
daugh ter</w>
c ure</w>
B ed
Ste ve</w>
he res</w>
ha snt</w>
Mo st</w>
@B ill
7 5
no t,</w>
know n</w>
end a</w>
de l
S AF
@ Am
pos ition</w>
in ly</w>
cur rency</w>
YO U
hi m,</w>
Thank s
sch ool</w>
ec tive</w>
be au
Clint on,</w>
tun ed</w>
le tter</w>
#trumpv log</w>
Mexic an</w>
diff icul
J une</w>
@Da vid
h and</w>
S C</w>
@bill ma
ri ght,</w>
ke ts</w>
W OR
@K arl
s un
pas sion</w>
lan tic</w>
la u
cou nt</w>
BI G</w>
t ic
proper ty</w>
C hi
p tion</w>
b lo
art er</w>
Sal mond</w>
Mar ch</w>
@DonaldJTrump Jr</w>
un less</w>
opin ion</w>
dest ru
con st
S E
il ing</w>
fo x</w>
eleb apprentice</w>
democr ats</w>
J on</w>
Al so,</w>
cti on
cre ating</w>
aw k
SAF E</w>
him self</w>
differe nce</w>
ven ue</w>
stup id
f ans</w>
loy al</w>
Th urs
E li
A ct</w>
f ig
de ta
Af rican
@FL OTUS</w>
tro ops</w>
cle an</w>
NAF TA</w>
May or</w>
i es,</w>
en nes
deli ver</w>
contro lled</w>
conserv ative</w>
Li ve</w>
sour ces</w>
ex t</w>
aci fic</w>
M ust</w>
en y
Int ere
mode l</w>
l ines</w>
de al,</w>
care ful</w>
speech es</w>
LO VE</w>
son :</w>
Bar ack</w>
sa y
gra m</w>
am nesty</w>
a il</w>
The ir</w>
T ic
@Danny Zu
re st
opp on
yst one</w>
defin itely</w>
al :</w>
th ers</w>
stor e</w>
s ick</w>
retur ns</w>
develo p
201 4</w>
i da
F L
col lu
J er
Arab ia</w>
ning _
Go ing</w>
@ St
sch ed
p ath</w>
ag es</w>
_ _
Re cord</w>
JOB S</w>
fo ot
ar ds</w>
al ity</w>
Geor gi
w o
see ms</w>
la m</w>
Con vention</w>
@M r
tre at</w>
s )</w>
o s
J an
tri ed</w>
over se
mo re,</w>
Can ada</w>
exc ell
d ate</w>
H annity</w>
@C NN
v s</w>
or t
ni fic
Sen ators</w>
201 6
re ly</w>
S ha
Re form</w>
B l
# P
s li
con vention</w>
x :</w>
bo y
Mar aL
r ys</w>
or ney</w>
lobby ists</w>
Tru th</w>
Lu ther</w>
real ize</w>
me x
c lear</w>
ar ys</w>
any where</w>
Ma g</w>
l ucky</w>
iers mor
g y,</w>
de la
pe ace</w>
TA X</w>
Americ a,</w>
refu ses</w>
r ing</w>
pro ven</w>
Russi an</w>
D ou
Afric a</w>
us a</w>
t ou
her o</w>
do cu
Is nt</w>
ge ant</w>
@ te
2 %</w>
tra de,</w>
fac tor
be gin</w>
Ne t
we ak
st y
he ading</w>
con si
Ma y</w>
destro ying</w>
ace ful</w>
M uch</w>
Califor nia</w>
7 :00</w>
l ab
mex ic
geni us</w>
bod ys</w>
Bed min
A berde
si t</w>
refu ge
p age</w>
R A
L y
H ow
H ou
# US
prof essi
comm ish</w>
@p iersmor
trump ,</w>
soldi ers</w>
pa thetic</w>
S P
v ol
spe ctacular</w>
De m
er ry
M u
s outh</w>
mo der
end ,</w>
Nev ada</w>
invol ved</w>
al one</w>
adm it</w>
Tor onto</w>
inter national</w>
help ing</w>
hand le</w>
@m ike
:// t</w>
k ic
@S e
2 1</w>
# N
re am</w>
in si
fl commish</w>
@M or
ni ght
com b
tim es,</w>
repre sent</w>
li fe
NAT O</w>
Mexic o,</w>
h :</w>
Sh ould</w>
OPE C</w>
C ,</w>
suppor ted</w>
hampion ship</w>
sta ur
i er</w>
bro ken</w>
B rad
ru ssi
nor th</w>
it es</w>
@ e
st ri
T une</w>
S ter
vi l</w>
t en
su it</w>
pre s</w>
p ers</w>
certa inly</w>
bab y</w>
h our</w>
angel ic
@H illary
suppor ting</w>
ric k
bec ame</w>
b all
Le e
@Karl Rove</w>
st af
pot ential</w>
great ly</w>
go p</w>
S har
AB C</w>
pe y</w>
desper ate</w>
commun ities</w>
bo ard
V A</w>
They ve</w>
IS IS
exp ensive</w>
cu se</w>
Y M
Depart ment</w>
B enghazi</w>
show ed</w>
indust ry</w>
An dre
2 2
succe ed</w>
lo west</w>
d ue</w>
ail able</w>
TH ING</w>
@ ke
they d</w>
o c
lux ury</w>
be yond</w>
An th
A ir</w>
govern or</w>
@ y
ag enda</w>
in frastructure</w>
expe ct</w>
S or
Ire land</w>
se x
@Alex Salmond</w>
op er
Univer sity</w>
H as</w>
F rom</w>
Chin as</w>
@n flcommish</w>
201 3</w>
su e</w>
sho oting</w>
S A</w>
Con ne
staf f</w>
sk y
sen i
ound ation</w>
dec ades</w>
Ma j
D NC</w>
fair ly</w>
dev ast
L A</w>
s us
lo ss</w>
cour t</w>
a king</w>
Je ff
Bo b</w>
pl us</w>
man i
fra ud</w>
S U
S T</w>
s qu
crimin al</w>
19 7
wee t</w>
f ur
ell y
c ause</w>
T ower
Be ach</w>
z ed</w>
ro ll
pa pers</w>
mag azine</w>
ici p
comp la
S ad
c ul
at es
I owa
C H</w>
il le
histor ic</w>
bre ak</w>
ac cording</w>
N u
au th
T ennes
su m
stand ard</w>
ho sp
her o
year ,</w>
T re
@Ch ris
wal k</w>
us es</w>
oul d
le ss
imp act</w>
@Jeb Bush</w>
tough ,</w>
se cure</w>
my self</w>
do ct
al s,</w>
No thing</w>
IC YM
AR E</w>
201 5</w>
thr ough
pro gress</w>
illi on,</w>
gg ing</w>
di ed</w>
c ts</w>
R i
@billma her</w>
re staur
po or
dro p</w>
D on
ri ghts</w>
lan ville</w>
est er
Sch um
A l</w>
@ a
repor ter</w>
camer as</w>
ation s,</w>
Po int</w>
G E</w>
VER Y</w>
Hispan ics</w>
H on
relation ship</w>
refu sed</w>
pro gram</w>
ent er</w>
b es</w>
B illionaire</w>
vir t
secre t</w>
pri son
overse as</w>
ke y
en s
contin u
ver s
lear ned</w>
co verage</w>
beau ty</w>
Iraq ,</w>
fol ks,</w>
IL LI
@M a
pm E</w>
p acked</w>
le m
ex cuse</w>
av ailable</w>
N ext</w>
ti e</w>
pre pared</w>
Fr ance</w>
B re
au di
al e
R ad
Page ant</w>
# W
ro c
ow ard
k a
fun ding</w>
@m ar
@ re
tough er</w>
s sed</w>
da h
J ust
@M ichael
in side</w>
go al</w>
enthusi as
d iti
c ir
Th om
N ation</w>
K elly</w>
At lantic</w>
wor ds,</w>
pur po
mis sed</w>
i on,</w>
fr on
form er</w>
an t,</w>
@j im
val ues</w>
itu de</w>
be coming</w>
wi shes</w>
s hap
migr ation</w>
H ad</w>
G la
thre at
fa il</w>
don ors</w>
disgu sting</w>
con struction</w>
we ar</w>
land ,</w>
ell o</w>
ati ves</w>
Pre ss</w>
Ele ction</w>
E D
us h</w>
me an
g ur
chil d</w>
S ar
Gra ham</w>
sol ute</w>
reprene ur</w>
oun ded</w>
off ic
ch icago</w>
run ,</w>
emplo ye
d d</w>
con grats</w>
be tt
Gre ta</w>
@W S
9 /
8 %</w>
or ad
liber al</w>
fun ny</w>
am ing</w>
stopp ed</w>
j ourn
entrepreneur s</w>
T ER</w>
wr itt
t ar
illeg ally</w>
sto od</w>
off ers</w>
Rad ical</w>
tru e,</w>
claim s</w>
Watch ing</w>
I A
F ail
10 :</w>
1 7
ong ,</w>
ber g</w>
a ther</w>
@ ste
wo od</w>
ho li
is l
in come</w>
be ating</w>
W as</w>
W all
p atri
de man
de le
all time</w>
stra ight
om ney</w>
nast y</w>
V an
Sum mit</w>
P acific</w>
C ome</w>
val u
ham ed</w>
An y
husb and</w>
cre di
O sc
str ate
bu ying</w>
agre ed</w>
ad dress</w>
Hill arys</w>
appro val</w>
W ork</w>
h n</w>
Georgi a</w>
D is
celebr ate</w>
Tra in</w>
Afghan istan</w>
@F r
33 ,000</w>
ser iously</w>
repor ted</w>
necess ary</w>
goo d,</w>
am es
Egy pt</w>
shap e</w>
po int
li es,</w>
ic h
cu ban</w>
bu sh</w>
and ing</w>
Mo ore</w>
tell s</w>
san ctions</w>
pu l
ministr ation,</w>
We iner</w>
Comm it
poor ly</w>
plan e</w>
issu es</w>
ing ly</w>
go ld</w>
Con f
#Vote Trump
i ans</w>
ent er
count rys</w>
be ,</w>
@C B
wh ose</w>
ton post</w>
investig ation</w>
hor ri
e ver,</w>
as se
Go v</w>
B order</w>
@ In
2 3:</w>
ou ther
oll y
m att
in depend
Ro ber
@Hillary Clinton</w>
un iver
ple as
p ho
le s
comp li
Ke ystone</w>
se tting</w>
per s
ir an</w>
a _
C L
@Mor ning_
qu awk
p pe
l ying</w>
im possible</w>
help ed</w>
US T</w>
ti me
ev ents</w>
e ing</w>
build ings</w>
big ,</w>
Mar ine</w>
Intere sting</w>
# Im
off ice,</w>
americ ans</w>
provi de</w>
mis s
Str ong</w>
@realDonald Trump,</w>
one y</w>
kill er</w>
in surance</w>
hot els</w>
st ic
ad d</w>
T ot
J ack
ISIS ,</w>
m enti
Bu il
Bo ston</w>
not ice</w>
job ,</w>
ca res</w>
ac c
Obama C
@ washing
#Trump For
with in</w>
att acked</w>
$1 50</w>
tal k,</w>
sil ent</w>
pl ant</w>
in o</w>
dru g</w>
ar an
O W
Gla d</w>
ES S</w>
dol ences</w>
ar ,</w>
ann ed</w>
parent s</w>
disa pp
T al
Flor ida
A ir
H er</w>
Be ing</w>
@T e
ver ing</w>
c low
V ie
Ta x
: )</w>
i er
as hamed</w>
W el
S c
@piersmor gan</w>
s w
ni ght,</w>
milit ary,</w>
al ed</w>
Un der</w>
In ste
C NBC</w>
AR od</w>
you d</w>
te m
rema in</w>
in a,</w>
Ton ight</w>
Re al</w>
13 th</w>
vil le,</w>
th at
tal ented</w>
st ud
sh ut</w>
negoti ating</w>
jud ge</w>
intellig ence</w>
fin est</w>
ba i</w>
N avy</w>
@Breitbart News</w>
1 2:</w>
# 2016</w>
wa ges</w>
mar k</w>
ent ly</w>
de termin
ac count
Re place</w>
ket s:</w>
d oral</w>
Su gar</w>
O h</w>
C A
@Morning_ Joe</w>
re no
dec id
Comm on</w>
C oun
@A r
possi bly</w>
it ch</w>
T ow
$ 6
responsi ble</w>
phen omen
g a
deal ing</w>
cau sed</w>
c ar</w>
@m it
sel ff
ri ous</w>
ran di
g or
accomplish ed</w>
W H
5 0
un t</w>
ul tim
r s</w>
pri or</w>
esp ite</w>
b ank</w>
an o
Har vey</w>
D espite</w>
@Newsmax_ Media</w>
st at
s itting</w>
cas h</w>
B E
@M ark
# Big
re g
prote cting</w>
on line</w>
ele c
back ,</w>
Le ar
L ast</w>
tru st</w>
stu dy</w>
secre t
lead er
er son</w>
cour se,</w>
Ch ic
pur cha
ment al</w>
do g</w>
5 00</w>
il ly</w>
gu il
fil ed</w>
enthusias m</w>
el ing</w>
S ep
S O</w>
EL AN
follow ing</w>
bul ous</w>
ast ro
6 %</w>
ro ad</w>
oint ed</w>
ne arly</w>
V ide
B less</w>
room s</w>
d en
IGH T</w>
19 9
wh at,</w>
pu ts</w>
great er</w>
writt en</w>
board room</w>
Leag ue
@ li
resul t</w>
p :</w>
over rated</w>
or ig
orig in
d ly</w>
bad ,</w>
Iowa ,</w>
Ho pefully</w>
@M ELAN
s m</w>
roo ke
pa y
With You</w>
F air</w>
Chi ef</w>
un ding</w>
ter :</w>
ri pping</w>
ge ous</w>
MaraL ago</w>
An them</w>
str ic
sa s</w>
e qui
Mas sive</w>
2 4</w>
through out</w>
sh ar
With out</w>
N ight</w>
E l
E d
B ur
2 2</w>
press ure</w>
par ts</w>
list ening</w>
https ://t</w>
ge t,</w>
cu tting</w>
w ell
sell ing</w>
N ations</w>
@DannyZu ker</w>
or ganiz
opportun ities</w>
m a</w>
ex clu
ct ly</w>
T ell</w>
K S</w>
sc and
pro jec
effor t</w>
de e
3 5</w>
# A
orad o</w>
moment um</w>
bri d
Tower NY</w>
Micha el</w>
L ar
@ bo
2 1:</w>
ho od</w>
excell ent</w>
W oo
Loo ks</w>
#Im WithYou</w>
z e
Tic kets:</w>
Great ,</w>
$ 6</w>
se cu
for man
dou ble</w>
cli mate</w>
b c
P LE
Ne goti
viol ence</w>
s pre
go od
c er</w>
S ig
H i
p ati
ent y</w>
c ars</w>
boo k,</w>
an a
Or der</w>
@B randi
wa sting</w>
vo ice</w>
l ,</w>
Some times</w>
AMERIC AN</w>
@m cuban</w>
@MELAN IA
za be
per c
ex t
dum my</w>
T P
Com ey</w>
@J on
pro ve</w>
land sli
f lo
F ace
@M att
@ NBC</w>
ru bio</w>
i th
ap art</w>
N H</w>
H er
D alla
@F or
tr illions</w>
op pos
fel t</w>
Te am
M erry</w>
@Brandi G
ru le</w>
bankru pt</w>
Liby a</w>
gu ts</w>
ele ction,</w>
am ,</w>
M an</w>
Lin col
#Big League
tra vel</w>
g ment</w>
al ing</w>
ac ti
@Fr ank
@ pe
deser ves</w>
Par k</w>
H ere</w>
EM ENT</w>
@Trump TowerNY</w>
go v
Jo an</w>
Je ff</w>
invest ment</w>
gi ft</w>
B U
p on
o h</w>
nomin ation</w>
k ore
is is</w>
con dolences</w>
Ster n</w>
F ree
CO UN
@R ick
ship ,</w>
sh are</w>
do ing,</w>
Thurs day</w>
show ing</w>
c old</w>
att ention</w>
Be autiful</w>
@An n
pa per</w>
develo p</w>
import ant
en ni
Wal ker</w>
F antastic</w>
F OR
to m</w>
f ought</w>
ener gy,</w>
con sid
abo ve</w>
B EST</w>
some times</w>
so called</w>
re sort</w>
mis sion</w>
a kes</w>
Le g
Go t</w>
wi f
sched u
ri ght
leag ue</w>
gu est</w>
corpor ate</w>
T om
will ing</w>
outher n</w>
i owa</w>
T V
Ste w
S now
Florida ,</w>
@M ac
li ke
in a
c lear
bl ed</w>
ab solute</w>
Medic are</w>
B lo
( or</w>
toge ther,</w>
so cial</w>
person al</w>
con om
@BrandiG lanville</w>
4 0</w>
#BigLeague Truth</w>
ri er</w>
pres sed</w>
pre z</w>
obam as</w>
keep s</w>
il ,</w>
fore ver</w>
cla ssi
angelic als</w>
Str ange</w>
O ver</w>
Lou isi
toni ghts</w>
per forman
foot ball</w>
concer ning</w>
U p</w>
Me mor
virt ually</w>
ter s,</w>
re views</w>
miss ile</w>
illeg als</w>
g dah
commit ted</w>
b ru
b ills</w>
Presid ent
F ran
@Trump Golf
v es,</w>
selff unding</w>
benef it</w>
ain ,</w>
Ter rible</w>
Ger many</w>
C ra
@A G
@ sh
re member,</w>
plac e,</w>
n bc</w>
fam ous</w>
C am
@NBC News</w>
g ri
au gur
as sa
ar ch
am i
M ob
F ame</w>
@ be
fo o
bal an
a h,</w>
Anth ony</w>
vi ous</w>
t ouch</w>
c ool</w>
P ho
Cu t</w>
sp ir
re qui
p ush</w>
li ght</w>
di r
8 :00</w>
s er</w>
credi bility</w>
K ing</w>
In cre
En g
@m ark
sac ri
k i</w>
apolo gy</w>
P L
NBC ,</w>
MO V
wor ker</w>
mo ved</w>
ma y
he re,</w>
ca vin
Commit tee</w>
rap id
qu ali
incre ased</w>
deser ve</w>
T :</w>
@washing tonpost</w>
sig n
go d</w>
d one,</w>
bir th</w>
appro ved</w>
and er
W ar</w>
D or
An y</w>
offic ers</w>
ma ster
er i
cti ve</w>
Th ou
TRU E</w>
professi onal</w>
hu man</w>
ha ir</w>
gre e</w>
follow ers</w>
TP P</w>
H eres</w>
solu tion</w>
at er
ail y
De m</w>
#TrumpFor President</w>
win ners</w>
stopp ing</w>
on y
he art
free dom</w>
19 8
un ch</w>
su mer</w>
sa v
pun d
k ins</w>
e qu
dow n
d om
ci l</w>
car ol
L as
10 0
ur ch
rele v
pho to</w>
p h</w>
offici als</w>
mexic o</w>
l in</w>
ble s</w>
ad ,</w>
K now</w>
@M e
the re
te mber</w>
stra ight</w>
lo ve
i an</w>
di vi
ar ious</w>
appro ve</w>
ac ts</w>
P OL
@AB C</w>
3 %</w>
n ership</w>
mil es</w>
kill s</w>
cap able</w>
An g
@M ar
v ice</w>
si x</w>
concer ned</w>
b anks</w>
accur ate</w>
Vi et
E conom
indi vid
JOB S,</w>
B ow
AS E</w>
mo ther</w>
C ore</w>
ug ly</w>
hur rican
ent repreneur</w>
se ven</w>
rac ist</w>
are a</w>
V P</w>
Free dom</w>
A T</w>
s en</w>
po ver
mo ore
m m
clo sing</w>
a id</w>
Th ose</w>
# G
mar ks</w>
deb ate,</w>
co m</w>
Su per
Jan uary</w>
C :</w>
pen al
man ag
gi c</w>
any way</w>
ann a</w>
W ed
IC E</w>
9 %</w>
Face book</w>
A MA
20 ,000</w>
sor ry</w>
re store</w>
mu ch,</w>
ce 16</w>
ar s,</w>
@ bu
t own</w>
se e,</w>
ilit ies</w>
fur ther</w>
fo ol</w>
T w
Syri an</w>
oll ing</w>
m ach
illi ams</w>
enti ally</w>
co al</w>
challen ge</w>
ch ed</w>
S her
L D</w>
B E</w>
Andre w</w>
u ally,</w>
proper ly</w>
oppos ite</w>
ni e
di es</w>
River a</w>
@Mitt Romne
tax es,</w>
sh own</w>
in o
ho pefully</w>
go als</w>
equi p
Ly in</w>
@Y ankees</w>
#Trump Train</w>
sub st
sh ow,</w>
see m</w>
onal ly</w>
nu mb
c al</w>
af ford</w>
Ro bert</w>
Charlott e</w>
COUN TR
@C ar
@ politic
3 6
respon d</w>
negoti ators</w>
l atest</w>
allow ing</w>
ro l</w>
prison ers</w>
immigr ant</w>
Lead er</w>
@Te am
simp ly</w>
ho st
fi re
f are</w>
Ve g
th ank
o h,</w>
@j ack
gr ate
dire ction</w>
ch oo
P et
New s:</w>
Christi e</w>
t ens</w>
ot h</w>
i ra
R onald</w>
sta ying</w>
so li
ex ist
ema il</w>
ci vil
c us</w>
bro ther</w>
an ch
Ir ani
CH AN
Att orney</w>
@ br
9 :00</w>
bl ame</w>
Col orado</w>
@Ste ve
j on
ci als</w>
F U
@WS J</w>
surpri sed</w>
m it
li ked</w>
it self</w>
h op
da ys,</w>
bom b
as si
Pre z</w>
tomor ro
m o</w>
ho sted</w>
fig ure</w>
f ed</w>
O b
ER S</w>
B ru
AT E</w>
@Se an
qu ality</w>
plan ning</w>
leg isl
citiz en</w>
ser ver</w>
knowle dge</w>
fun d</w>
f le
contr act</w>
E st
$ s</w>
performan ce</w>
itz er</w>
i a,</w>
g ,</w>
con diti
row n</w>
re k</w>
p hi
nam es</w>
an ity
ac tions</w>
Wed nes
CB S</w>
Bri an</w>
5 %</w>
th an
m ul
a ff
EM A</w>
yl er
u re
th am
pa geant</w>
m :</w>
econom y,</w>
di e</w>
cat astro
H igh
B ills</w>
@H oward
produc t</w>
pe st</w>
ir ing</w>
he ads</w>
b la
Fe deral</w>
E X
An ge
t op
prom ot
be ls</w>
auc us</w>
A w
A venue</w>
# ICYM
th ings,</w>
suppor ts</w>
agre e,</w>
Hurrican e</w>
su per</w>
ru m</w>
pr act
ow ner</w>
ould ve</w>
for president</w>
Re ad</w>
F ox
De tro
@c nn</w>
@ to
wr iting</w>
on ic</w>
on be
mist akes</w>
deleg ates</w>
On ce</w>
LI VE</w>
For ce</w>
C ru
#c elebapprentice</w>
se t
Pol ice</w>
D ru
@mit tr
@ THE
i di
g n
ff ing
REA L</w>
worl d
un able</w>
sub ject</w>
ot a</w>
decid ed</w>
Govern ment</w>
4 th</w>
vis ited</w>
tax pa
secret ary</w>
op en
im pre
gir l
ex per
destru ction</w>
d den</w>
comm ent
Democr atic</w>
C E</w>
A R</w>
smar test</w>
ro ad
it s
g es,</w>
de st</w>
L au
Fr ank
F am
Dalla s</w>
7 :30</w>
k er
d man</w>
I D
Du bai</w>
quot e</w>
lin ks</w>
Y ester
Mis s
B en
A chie
w ide</w>
the w
r or</w>
important ly,</w>
clo sely</w>
S top</w>
Cour se</w>
@Dan S
20 0</w>
report ers</w>
i red</w>
con vin
T H</w>
P a
M M
promis ed</w>
d omin
bankru pt
Hispan ic</w>
C ap
tur ning</w>
ick la
h ow
conf lic
MOV EMENT</w>
M oney</w>
IN G
B ack</w>
t our</w>
intere st
gu aran
grate ful</w>
fall ing</w>
campaig n,</w>
adv is
P atri
Inste ad</w>
An d
vac ation</w>
r on</w>
mag nific
ke pt</w>
inno cent</w>
gar b
f lor
cer ti
S pr
Hill ary,</w>
HA PP
B ob
@ Gov
washing ton</w>
li e
h an
O val</w>
I ,</w>
@ an
: 30
8 00</w>
2 3</w>
ust in
s is</w>
border ,</w>
W in
Coun cil</w>
w n</w>
sha me</w>
s ound</w>
offici al</w>
kore a</w>
incre ases</w>
g ent
ce an</w>
agre es</w>
Mill er</w>
K ing
@A l
s ,
far ms</w>
bro ad
te ch
reco very</w>
comple tely</w>
cent er</w>
Lincol n</w>
IT N</w>
pl ants</w>
h all</w>
NO THING</w>
or ders</w>
fin ish</w>
en sure</w>
ear th</w>
Kore a,</w>
se qu
op tim
li ke,</w>
ho le</w>
fa bulous</w>
consi dered</w>
com e
Di re
4 5</w>
zabe th</w>
wa ys,</w>
vic ious</w>
si c</w>
se :</w>
pl enty</w>
p at
com pared</w>
ann a
We ek
IT Y</w>
Aberde en</w>
stor y,</w>
reli gi
ine :</w>
enter ta
deduc ti
at rump</w>
Res pon
rooke d
fo re,</w>
ad ed</w>
PE OP
G E
Cent ral</w>
2 7
# GOP
yester day,</w>
ne ar</w>
e e
at el
K E
Ber gdah
You ll</w>
Y ES</w>
N ash
str ous</w>
ill ,</w>
eral do
da ily</w>
bl ue</w>
achi eve</w>
Sep tember</w>
ON LY</w>
AN S</w>
@al ex
wa y
t in
ser vic
refuge es</w>
r ace
n atur
immigr ation,</w>
fund rais
endor se</w>
Democr at
Congre ss
pu t
dow n,</w>
believ es</w>
W il
Re gi
Lea ving</w>
@DanS cavin
7 pm</w>
w n
urch ill</w>
t s
ris k</w>
mani pul
Pho eni
G ar
@B ar
your s</w>
m el
hero es</w>
deal s,</w>
@ Z
tow ard</w>
st reet</w>
say ing,</w>
he ar
a c</w>
Ste ph
St u
G D
Brad y</w>
@NY Mag</w>
20 %</w>
up coming</w>
schedu le</w>
bu n
T ,</w>
African American</w>
#F ITN</w>
# Team
mar k
f l</w>
es sions</w>
PLE ASE</w>
re qu
lo s</w>
dum best</w>
collu sion</w>
an ce,</w>
Pen ce16</w>
Ma h
@S quawk
2 3
wee k,</w>
te mp
kno ck</w>
honest ly</w>
garb age</w>
S ir</w>
Ne ed</w>
M UST</w>
E v
C oul
C arter</w>
smart er</w>
ra z
me dic
l er</w>
ObamaC are,</w>
Ex ecutive</w>
@n bc
4 0
wa sted</w>
state ,</w>
s we
landsli de</w>
fo ols</w>
dem and</w>
compet ition</w>
busines s,</w>
H ER
As k</w>
@MELANIA TRUMP</w>
ti on
st re
repor ts</w>
om ine
he at</w>
Rober ts</w>
LE AD
C NN
2 2:</w>
s and</w>
ri se</w>
l it
dele ted</w>
TI ME</w>
Schum er</w>
Roo m</w>
O W</w>
Colle ction</w>
@ Gre
se d,</w>
s ounds</w>
Y oun
Nu mber</w>
# Deb
qu it</w>
poll ,</w>
ct uary</w>
ar ily</w>
appro pri
Wel come</w>
Tennes see</w>
O c
20 :</w>
st :</w>
i ,</w>
campaig ning</w>
assa ul
Tw o</w>
Li ght
@S cot
tre at
tra vel
s k</w>
s and
g ames</w>
ba se</w>
Vie w</w>
TRUMP :</w>
J ourn
Is lam</w>
$ 20</w>
or y</w>
le v
land ed</w>
intere sted</w>
g ni
att acking</w>
X i</w>
D ec
Bu ffal
we ather</w>
lif e,</w>
in j
ac cess</w>
Wor l
S ince</w>
IS T
@V anity
@H u
@Fox News
y es,</w>
trump s</w>
sig nature</w>
rapid ly</w>
far m</w>
di o</w>
W ish</w>
To p</w>
Snow den</w>
GD P</w>
A si
@mittr omney</w>
or ing</w>
natur al</w>
b ,</w>
ac cep
a ward</w>
Or lan
y a</w>
wa ke</w>
me ly</w>
Fu ll</w>
Con st
o v
Wall ace</w>
H unt
straight en</w>
ssi on</w>
pa ys</w>
carol ina</w>
audi ence</w>
P O
F ind</w>
@Ann Coul
thr illed</w>
se y
s ong</w>
re n</w>
pro ject</w>
disa strous</w>
c ard</w>
Yor k,</w>
HAPP Y</w>
F al
$ 10</w>
we rent</w>
ther hood</w>
ste el</w>
is m,</w>
inf lu
f it</w>
add ition</w>
Tom or
Russi ans</w>
K ING</w>
Ac cording</w>
scot land</w>
ri p</w>
refu se</w>
ph one</w>
har der</w>
Ry an</w>
K erry</w>
He y</w>
@AG Schneiderman</w>
19 6
un like</w>
s kills</w>
predic ted</w>
negoti ation</w>
m es</w>
am endment</w>
5 th</w>
pre sent</w>
je al
ickla us</w>
employe es</w>
ath er
adm ire</w>
ab le,</w>
Mit ch</w>
Lo ved</w>
La w</w>
5 0%</w>
inste in</w>
i ff
hol ding</w>
gir l</w>
U K</w>
Fo cus</w>
De f
ut y</w>
inf o</w>
in ation</w>
compe te</w>
C PAC</w>
A ct
2016 ,</w>
weak ness</w>
tra itor</w>
sur vi
scho ols</w>
ro ck</w>
fe ar</w>
dis respect</w>
G C</w>
C ould</w>
Au str
ve d,</w>
soci ety</w>
jo ining</w>
cop ies</w>
ad ded</w>
Res ort</w>
B oo
AC K</w>
se as
ou s,</w>
10 :00</w>
see k</w>
s a</w>
pl an,</w>
extre mely</w>
e m</w>
Ch ange</w>
pe ct</w>
ne ver,</w>
lau gh</w>
asse ts</w>
So H
P att
$5 M</w>
wa i
mon y</w>
equip ment</w>
el la
Sh ow
P ra
@ch uck
represent ing</w>
no te</w>
in e,</w>
in ce
apologi zed</w>
Tr ans
Sad ly,</w>
S O
I I
w all
onbe g</w>
of ,</w>
mis sing</w>
achi e
a verage</w>
@G eraldo
,0 00,000</w>
toni ght,</w>
re building</w>
h y
ge or
fli ghts</w>
d uty</w>
W ALL</w>
Stew art</w>
F I
Ama z
@J ack
# T
ster n
r ating</w>
ount s</w>
or ities</w>
ex ecu
be at
ang er</w>
am ounts</w>
bankrupt cy</w>
are n
ac h,</w>
Ir an,</w>
Euro pe</w>
De rek</w>
@realDonald Trumps</w>
w ow,</w>
od es</w>
divi ded</w>
con gratul
@Squawk CNBC</w>
19 :</w>
prote cted</w>
g il
agree ment</w>
Per haps</w>
L ittle</w>
How ard</w>
H ome</w>
Bush ,</w>
Bu t,</w>
prosp er
lead er,</w>
le e
flor ida</w>
el se
dam n</w>
d ar
ac cept</w>
Sig nature</w>
S i
ON E</w>
Im migration</w>
@ wh
$4 00</w>
me mor
k a</w>
bett er,</w>
be auti
R un
K arl</w>
G eral
B la
vot er</w>
suff ering</w>
moti vation</w>
m outh</w>
honest ly,</w>
h moore
es s,</w>
a j
Z ER
pund its</w>
n am</w>
lo ws</w>
incompet ence</w>
e k</w>
con vers
N R
Memor ial</w>
I ON
F IR
@ am
@ Th
y don</w>
we alth
g ain
desper ately</w>
bo ard</w>
@te d
# The
sty le</w>
s sing</w>
s ite</w>
f ab
en ne
cri me,</w>
NE W</w>
G oo
E ast
Cra zy</w>
i ma
grow ing</w>
epis odes</w>
bo y</w>
ani a,</w>
S en</w>
S A
PEOP LE</w>
K ev
@ Li
4 7
strong ,</w>
premi ere</w>
loc ation</w>
k ne
k id
en ry</w>
chan ging</w>
Aw esome</w>
New Yor
G row
E r
si on,</w>
chan ge,</w>
ce :</w>
bod y,</w>
ag ed</w>
accomp lish</w>
P an
Ex c
COUNTR Y</w>
Ar my</w>
@ Wa
# Tax
# Debate</w>
hamp shire</w>
clo ck</w>
M R</w>
H ell</w>
w :</w>
se par
le vel
fix ing</w>
Un i
Light weight</w>
J ud
@Re p
@P e
sta yed</w>
rece ive</w>
pe line</w>
offici ally</w>
exp lo
deb t,</w>
choo se</w>
PE C
5 1</w>
il la
i re
ha n</w>
ge ment</w>
difficul t</w>
R E</w>
Osc ars</w>
Con serv
C hampionship</w>
ultim ate</w>
mo vi
bot tom</w>
ar ance</w>
Liber ty</w>
K ate</w>
J erry</w>
re turned</w>
r ound</w>
magnific ent</w>
k er:</w>
je b</w>
inve st</w>
ev angelicals</w>
do ctor</w>
ation :</w>
I ca
@L ord
z ,</w>
menti oned</w>
elebrity apprentice</w>
b ow
b :</w>
a be
v arious</w>
st ig
purcha se</w>
m en
ly mp
disapp ointed</w>
defic its</w>
cri sis</w>
O lymp
MS M</w>
Health care</w>
C ON
@ Lee
u li
sid es</w>
relev ant</w>
origin al</w>
Carol ina,</w>
@MittRomne ys</w>
tra in</w>
te ,</w>
si ze</w>
pe ,</w>
l ack</w>
in sul
bas sad
RE D</w>
M U
H unt</w>
D J
@L ate
st ance</w>
lett ers</w>
hosp it
appe arance</w>
air ports</w>
a red</w>
W ay</w>
B L
@ de
sid ed</w>
ple dge</w>
ele ct
co vered</w>
DA Y
D um
@An dre
pu shed</w>
prote ction</w>
ex ist</w>
enni fer
bo ss</w>
Obam ac
Est ablishment</w>
t g
ss i</w>
happen ,</w>
br ings</w>
K a
Jap an,</w>
Blo om
@Miss Universe</w>
@Geraldo Rivera</w>
@B ret
y le
si vely</w>
leader ship,</w>
h ire</w>
for m,</w>
environ mental</w>
G L
F ol
B oth</w>
spo t</w>
ra u
crimin als</w>
b illionaire</w>
W itch</w>
S ur
CU TS</w>
up set</w>
sa ving</w>
in de
doll ars,</w>
ab ly</w>
@politic o</w>
1 6:</w>
yn e</w>
victor ies</w>
r allies</w>
proble m
pla y
corru ption</w>
av u
Wor king</w>
W AR
Dire ctor</w>
@J im
re ck
pl ic
m ac
fla g</w>
be fore,</w>
SoH o</w>
@ke vin
@d on
@Jo an_
@ ma
@ U
3 8
univer se</w>
ta in</w>
sle ep</w>
om o</w>
ig h</w>
high ,</w>
gov t</w>
disa ster,</w>
c :</w>
ab in
Wr ong</w>
J on
E VER</w>
# I
reduc e</w>
pre t
feat ures</w>
ce iling</w>
Lead ership</w>
D r</w>
Christi an</w>
1 9</w>
re bels</w>
le tting</w>
il e,</w>
ZER O</w>
Lear n</w>
Bu ff
@ mor
jeal ous</w>
holi day</w>
expla in</w>
dec ide</w>
begin s</w>
batt le</w>
T ig
Count y</w>
re y</w>
l ands</w>
is cal</w>
docu ment
be gging</w>
S :</w>
Fail ing</w>
#F ake
# L
z i
z a</w>
sho ot
re negotiate</w>
pre sent
l yn
ine ff
const antly</w>
appreci ated</w>
ad ver
O Re
Ch urchill</w>
@Lord _
8 th</w>
st ly</w>
law suit</w>
hmoore ssi</w>
exp and</w>
do pey</w>
cri mes</w>
con sequ
W est
S TR
su l</w>
r ates</w>
phenomen al</w>
iti ve</w>
add iti
M er
LE D</w>
L on
I C</w>
scho ol
s ar
prote sters</w>
pri mar
plac ed</w>
j u
ey es</w>
b low</w>
all er</w>
Lo ts</w>
@B e
strate gy</w>
sh ort
n er:</w>
n a
matt ers</w>
jo hn</w>
ch rist
b an
R a
OT US
O p
L ind
He y,</w>
C as
B O
Americ an
@The Real
russi a</w>
n ard
e vid
abu se</w>
C a
1 4:</w>
# V
w is
spre ad</w>
end ary</w>
e ge</w>
de signed</w>
Tot ally</w>
L or
Do onbeg</w>
ver sion</w>
re fer
oth er
guil ty</w>
exc ite
ea si
bb ons</w>
ac qu
K ent
H or
G ary
Fla g</w>
@ Ne
# H
val ue</w>
tur ns</w>
to ol</w>
de ep</w>
cop y</w>
clow n</w>
appropri ate</w>
@S am
00 ,</w>
ti onal</w>
ssi onal</w>
sen ate</w>
peop les</w>
inc id
er y</w>
b or</w>
ab il
U k
Hurrican e
AT ION</w>
AS T</w>
@E d
th row</w>
oth ers,</w>
every day</w>
et ,</w>
dri ving</w>
car ds</w>
ac ious</w>
R and</w>
R al
P R
P GA</w>
Detro it</w>
@J ennifer
vac c
sal es</w>
sac ol
re view</w>
promis es</w>
oo o
l en
ira q</w>
gla s</w>
effor ts</w>
app lic
W om
ON G</w>
O s</w>
Bedmin ster</w>
@eric b
8 8:</w>
#c elebrityapprentice</w>
yr s</w>
s ary</w>
po se</w>
min ds</w>
li ar</w>
it ted</w>
independ ent</w>
go v</w>
ch :</w>
ard :</w>
ann iver
S t</w>
OU T</w>
Eli zabeth</w>
B T</w>
An d,</w>
Afric an</w>
7 0</w>
w all,</w>
tem per
scre en</w>
fair ness</w>
ex act</w>
dir ty</w>
cot t</w>
be l
And Mike</w>
@Mike AndMike</w>
2 ,000</w>
x ,</w>
respe ct
rau tham
for gotten</w>
eff ective</w>
ed om
colle ction</w>
Wednes day</w>
THAN KS</w>
S ay</w>
ve :</w>
le f
k ick</w>
ho a
ev ent
W ind</w>
S am
Mc Conne
D ay
A m</w>
#GOP Debate</w>
ti sh</w>
th :</w>
p ow
al ia</w>
Wh ether</w>
H E
C RI
@Joan_ Rivers</w>
@Am Spe
ri es,</w>
r in
min ute</w>
he re:</w>
OR E</w>
@ v
za Gi
ver t</w>
ic ,</w>
frank ly,</w>
ess entially</w>
S essions</w>
P OR
Louisi ana</w>
Const itu
A ward</w>
@bo b
w ounded</w>
negoti ator</w>
medi a,</w>
hurrican e</w>
Some body</w>
Apprent ice,</w>
@Vanity Fair</w>
se ctor</w>
real ly,</w>
pl anned</w>
certi fic
W on
Irani an</w>
Can adi
critic al</w>
cla ss
chan ges</w>
abin et</w>
Re port</w>
Negoti ation</w>
Ma c</w>
H ard</w>
reco gni
on i
mo re
ma ker</w>
lab or</w>
ir man</w>
de ath
ber t
L ist
J im
F oundation</w>
7 :
th ur</w>
t ari
st ates,</w>
sc am</w>
inst on</w>
il y
d at
W inston</w>
H il
E N</w>
C avu
@p enn
ve ter
stat us</w>
s ca
quali fied</w>
pover ty</w>
numb ers,</w>
ili pp
gan g</w>
P aul
A be</w>
@Trump New
@B ob
ton :</w>
requi res</w>
reno v
p al
nu m
mor on</w>
el ite</w>
cre d
b in
at :</w>
ap art
ani el
Hi story</w>
Br it
@i vank
#trump forpresident</w>
# Hurricane
on gest</w>
omine e</w>
k y
foo lish</w>
fir ing</w>
el se,</w>
ec ted</w>
ble w</w>
Viet nam</w>
T U
John son</w>
AN D
@V P</w>
@Lee zaGi
@D i
subst anti
ro g
ra dio</w>
pro gr
d ge
bl ing</w>
anniver sary</w>
an sas</w>
an a,</w>
L yn
Ch anne
@chuck to
@Bret Ba
to ,</w>
stupid ity</w>
p ence</w>
me as
g t</w>
eli min
c le</w>
au gh</w>
Every thing</w>
E d</w>
CHAN GE</w>
@CB S
pleas ure</w>
ma in</w>
hou se
ch ris</w>
ator s,</w>
Con sumer</w>
Bu sey</w>
#Fake News</w>
#C rooked
re ve
low ing</w>
inst ream</w>
g en
g am
embarra ssed</w>
can cell
c ked</w>
H onest
G ener
Conf erence</w>
A ra
1 7:</w>
#Trump Pence16</w>
sh oo
m us
ham p</w>
guaran tee</w>
char ac
ac count</w>
Regi ster</w>
Exc ited</w>
C l
App le</w>
wit ch</w>
st on
seni o
ro ss
kic ked</w>
for tun
V al
TI ON</w>
Mo sul</w>
Lo s</w>
Gre en
E ma
E a
@k rautham
@S ar
@Howard Stern</w>
5 7
wor ried</w>
regi me</w>
li er</w>
Vide o:</w>
Van cou
E instein</w>
Bow l</w>
8 5:</w>
vis iting</w>
o int</w>
en c
Ro sie</w>
F erry</w>
Colle ge</w>
@Scot t
su its</w>
pic ked</w>
la p
inclu des</w>
http ://
clear ly</w>
any ah
O ut
@jim my
@T O
5 ,000</w>
10 0,000</w>
# Miss
w h</w>
regul ation</w>
for ms</w>
ack ,</w>
_ B
Gra ydon</w>
Car l</w>
t y,</w>
pas sing</w>
or :</w>
m strong</w>
excite ment</w>
ele ctions</w>
de valu
ch ing</w>
ath le
Ro se
Pro te
Or ganiz
M ING</w>
Je wish</w>
A W
@Sean Hannity</w>
@ z
over ,</w>
k in
count ry
conflic t</w>
Las Vegas</w>
@ o
12 3
itor ial</w>
it al
ing )</w>
ilipp ines</w>
fix ed</w>
crow d,</w>
bal ance</w>
Su pp
Poll s</w>
la s</w>
k ing,</w>
iti es,</w>
hac king</w>
g ain</w>
bom b</w>
be d
and y
Thanks giving</w>
CE O</w>
@Ro sie</w>
s es
re ss</w>
poll ing</w>
o lo
mur der</w>
co /
am ent</w>
Respon ders</w>
F il
D ann
@r on
@C o
@ bl
$1 00</w>
tu res</w>
si r
sh it</w>
qu e</w>
fab ric
d ope</w>
adm itted</w>
R at
M y
H el
An dy</w>
@W WE</w>
9 0</w>
y u
moder n</w>
life time</w>
j ail</w>
intervie ws</w>
dri ve</w>
catastro p
Journ al</w>
I l
Grow th</w>
F a
@Re d
@ st
9 PM</w>
def ending</w>
answ ers</w>
am ond</w>
Tre mendous</w>
Tomor row</w>
O cean</w>
ILLI ON</w>
B AD</w>
vi ously</w>
sig ns</w>
pp er</w>
p il
inspir ing</w>
G in
@ted cruz</w>
@j eff
8 4
une mplo
r ough</w>
er g
che a
San to
H E</w>
9 9:</w>
11 /
wh ere
solu tion,</w>
quest ion
poll s,</w>
ou th
legisl ation</w>
jud gment</w>
it :</w>
is co</w>
im pressed</w>
deducti bles</w>
be comes</w>
act or</w>
V ince</w>
Tru st</w>
Sor ry</w>
RE S
Mc Mah
Democrat s,</w>
Cla ss</w>
@I an
writ er</w>
s sel
s lea
man s</w>
ka y,</w>
iz ation</w>
fa ith</w>
el and</w>
der ,</w>
de ms</w>
con test
cas es</w>
c king</w>
J ones</w>
F ed</w>
@P at
w ow</w>
ti es,</w>
p st
mach ine</w>
lo ser
il lett
gener als</w>
el :</w>
dou bled</w>
contribu tions</w>
bro ke</w>
ac hes</w>
Youn g</w>
R NC</w>
Mob ile</w>
HER O
G lobal</w>
Bal ti
Al bert</w>
un ning</w>
sp or
secur ity,</w>
promot e</w>
j am
evid ence</w>
e ast</w>
de sign</w>
compli ment</w>
cli p</w>
back ed</w>
anyah u</w>
ab and
@ 1
# TRUMP</w>
qu ite</w>
penal ty</w>
adver ti
ad ill
Wal ters</w>
U P</w>
Obama Clinton</w>
M :</w>
@N R
it ll</w>
invest ments</w>
da m</w>
ca de
c t,</w>
#Crooked Hillary</w>
ve gas</w>
st am
pl ace
ow ned</w>
inform ed</w>
go ,</w>
for d
ca uc
as ing</w>
an da
S ol
Hon ored</w>
DJ T</w>
Com man
Channe l</w>
C ute</w>
Bro therhood</w>
@ ab
wil d</w>
st in
s outhern</w>
oppon ent</w>
k la
ema il
c on</w>
_ R
W illiams</w>
Politic ians</w>
Kent ucky</w>
CNN ,</w>
i fy</w>
f iscal</w>
eny a
ch es</w>
bre aking</w>
Sp itzer</w>
Pen sacol
O R</w>
New s,</w>
Jer sey</w>
H enry</w>
@K enya
@AmSpe c</w>
wi se,</w>
shi re,</w>
sh e
l ou
ig nor
hat red</w>
e ight</w>
do or</w>
deli vered</w>
cur rent
OB AL</w>
NE ED</w>
M ade</w>
H al
GL OBAL</w>
C OR
Bloom berg</w>
@Trump _
2 8:</w>
19 5
wor th
v ast</w>
t our
stud ents</w>
lit er
du mp
d or
co de</w>
c ks</w>
arch it
ann ual</w>
M Y</w>
Cavu to</w>
your self,</w>
sid y</w>
scand al</w>
prosper ity</w>
point ,</w>
oun d,</w>
net work</w>
l er
exp anding</w>
ex press</w>
Wi shing</w>
G ary</w>
@ivank atrump</w>
201 6:</w>
w ouldve</w>
tr ad
su dden</w>
public ity</w>
pro per</w>
as su
UN GA</w>
O r</w>
JO Y</w>
G ET</w>
EN JOY</w>
Christi ans</w>
Be ach,</w>
B ACK</w>
@Trump Scotland</w>
@TO DAY
9/ 11</w>
201 1</w>
12 3:</w>
wel fare</w>
se le
perc ent,</w>
ny c</w>
le st</w>
law yer</w>
fe eling</w>
deli vering</w>
conf ir
clo ser</w>
att itude</w>
St or
MA N</w>
# Super
si de
se ball</w>
s bur
le s,</w>
le ct
impre ssive</w>
doct ors</w>
dire ctly</w>
count ries,</w>
bar a
A G</w>
@Real DonaldTrump</w>
2 8</w>
v ital</w>
per son,</w>
om b
ima gin
i k
dam age</w>
ca :</w>
c oo
as :</w>
amp s</w>
W IT
Ta hmooressi</w>
L at
@krautham mer</w>
@Trump SoHo</w>
8 ,</w>
vi gil
ra v
jud gement</w>
S im
K ,</w>
@the h
@s am
@ericb olling</w>
@ stern
pu ppe
p our</w>
honest y</w>
bu s</w>
Pol ic
Ma king</w>
Ha wai
F ar
Cam pa
$ 4</w>
st ick</w>
sp ends</w>
phon es</w>
St ill</w>
In ve
C s</w>
# trump</w>
war ded</w>
tr an
sub si
in augur
di son</w>
b i</w>
act ing</w>
Y S</w>
Ry an
N L</w>
@mike _
t le</w>
n ine</w>
min ers</w>
me ant</w>
int e
ce re
al ized</w>
Syri a,</w>
Oc to
Mo sc
Cu ban</w>
@J ud
# TRUMP
n ominee</w>
le y:</w>
ine hur
er s:</w>
discus sed</w>
continu ed</w>
classi fied</w>
ar re
Trans Pacific</w>
Scot tish</w>
@ co
1 /
will ,</w>
plan et</w>
h itting</w>
M art
Isra el,</w>
FIR ST</w>
Bergdah l</w>
Americ ans,</w>
1 ,000</w>
un de
sy ri
st ered</w>
road s,</w>
r or
part icip
lev els</w>
leg endary</w>
leg end</w>
health y</w>
Gary Busey</w>
Dou glas</w>
Car rier</w>
Ar thur</w>
wif e,</w>
shoo t</w>
re ach
friend ,</w>
at s
Tru e,</w>
Mat t</w>
Kev in</w>
H am
Gr and</w>
@wh ite
@ us
w anna</w>
ver :</w>
u e,</w>
stor m</w>
gu e</w>
gr an
est im
ce l</w>
Te am</w>
Republic ans,</w>
Mor ning</w>
Mi ke
F ive</w>
D O</w>
Co ast</w>
under stands</w>
movi e</w>
lead ers,</w>
is ra
idd le
i ki
h um
fi gh
Yester day</w>
T OT
M ur
E ar
@Trump LasVegas</w>
@ scot
wom an,</w>
re stric
rad ic
n ice
my self,</w>
ir relevant</w>
form ing</w>
f ame</w>
di um</w>
dest abil
Ro y</w>
H om
H olly
H igh</w>
E VER
D T</w>
Bedmin ster,</w>
@BretBa ier</w>
@ sp
z one</w>
us :</w>
ton Post</w>
sp ort</w>
qu ick</w>
oppon ents</w>
en e</w>
_ S
War ren</w>
S ame</w>
RO SA</w>
P erry</w>
MA ROSA</w>
F our</w>
Com e
@O MAROSA</w>
@LeezaGi bbons</w>
tax ,</w>
respon ders</w>
re d
optim ism</w>
h oo
gr and</w>
e h
consequ ences</w>
certific ate</w>
ce d
border s,</w>
N J</w>
Ju ly</w>
Incre dible</w>
Ag ain,</w>
8 5</w>
3 3:</w>
taxpa yers</w>
suc ks</w>
sion ate</w>
har d,</w>
enn is
citiz en
Woo ds</w>
U N</w>
Re view</w>
z u
wis dom</w>
pri l</w>
po cr
pers onally</w>
on d
in duc
exclu sively</w>
bru t
Thom as</w>
S il
P hi
McMah on</w>
Hou se,</w>
Do esnt</w>
D inner</w>
@stern show</w>
@d c
@chuckto dd</w>
sca red</w>
pl om
lead s</w>
con ne
and re
age ment</w>
Wa iki
Rat ings</w>
Min utes</w>
H I
Ab out</w>
@d an
rest le
pr in
ple d
j illett
in n
ffal ob
f th</w>
Phoeni x</w>
P :</w>
Br ing</w>
@penn jillett
@bu ffalob
su g
ssi pp
si ssipp
relation ships</w>
p es</w>
grou p
gr ad
ator y</w>
ad ministration,</w>
Z ING</w>
Th ings</w>
S ave</w>
Health Care</w>
C IA</w>
Ad ministration,</w>
Achie vers</w>
@TrumpNew York</w>
u re,</w>
spi e</w>
prote st</w>
jon as</w>
in accurate</w>
ille spie</w>
h en
ff ,</w>
ev en
ele ss</w>
commer cials</w>
beat en</w>
an ge
a se
Re p</w>
L ady</w>
Fran c
F un
Ele ction
Amaz on</w>
Ad kins</w>
A G
@white house</w>
# R
wealth y</w>
tw ice</w>
s wee
s s:</w>
n ation,</w>
is lamic</w>
he y</w>
g ust</w>
dang er</w>
chec ks</w>
Ste in
Ro se</w>
Pr oud</w>
@TrumpGolf LA</w>
tri bu
sus p
sal mond</w>
non sense</w>
ir a</w>
illi am
and ed</w>
all on</w>
P as
P RO
G ir
Chic ago,</w>
@y ankees</w>
@Kenya Moore</w>
termin ate</w>
ren d
no where</w>
jo hn
f oundation</w>
ali st</w>
ac ci
WAR MING</w>
Orlan do</w>
D es</w>
@Trump Turnberry</w>
@S ha
@Bar bara
6 6
th is:</w>
t z</w>
prin ci
ha ve,</w>
every where</w>
Wh eres</w>
Ph ilippines</w>
PAC s</w>
Maj or</w>
Bal d
@Jo sh
@CNN Politics</w>
visi on,</w>
ste al</w>
sen ator</w>
sa :</w>
qu ar
mean ing</w>
gener ation</w>
enn y
democr at</w>
b en
ar r
Wi ki
N ational
Man u
C level
@B r
wa s,</w>
solu tions</w>
prosp erous</w>
le vin
et ing</w>
compla ining</w>
ar ies</w>
an al
Phi l</w>
J ack</w>
@mark levin
@mar co
# the
w ing</w>
repe aled</w>
jo ined</w>
h ates</w>
dest a</w>
de dic
W HA
WHA T</w>
S gt</w>
Mor gan</w>
@ny times,</w>
9 0
ma ssi
m ess
in san
ic o
factor ies</w>
es )</w>
devast ated</w>
ck :</w>
brid ges</w>
_ T
M IN
Gra ham
@The _
ser ving</w>
me :</w>
m illion,</w>
ing s
her self</w>
f ly</w>
don t,</w>
ch est
am en
J im</w>
G :</w>
C amp</w>
@buffalob ills</w>
#Tax Reform</w>
view ers</w>
up on</w>
sa ys,</w>
s ci
ri sing</w>
restaur ant</w>
kla hom
con gress</w>
ce i
at temp
Ter ror
No v</w>
McConne ll</w>
Mag az
Lar ry</w>
K enne
I M
Do pey</w>
Ange les</w>
@AnnCoul ter</w>
$ $</w>
sto len</w>
st op
ill ing</w>
ici al</w>
hoa x</w>
disa gree</w>
congratul ate</w>
bal lot</w>
are as</w>
ar a
Patt on</w>
Lon don</w>
Je ter</w>
Congre ssional</w>
@Lord_ Sugar</w>
respe cts</w>
pra y</w>
pl ate
on ing</w>
num erous</w>
lo ving</w>
insp ire</w>
gy n</w>
com ment</w>
bre ak
Se c</w>
P A</w>
Int el
Har bor</w>
regi stered</w>
le verage</w>
individ u
eny a</w>
di sp
commer cial</w>
are na</w>
W IN
Pan ama</w>
Di shonest</w>
Def ense</w>
D aily
@P aul
# B
z z</w>
rac e,</w>
lar ge
iti z
chie f</w>
challen ges</w>
cap ital</w>
Ru bi
Congre ss,</w>
AMA ZING</w>
@Sar ah
@DanScavin o</w>
# Dem
s lo
ri al</w>
medic al</w>
hi de</w>
ard i</w>
Jeff rey</w>
East ,</w>
@T im
# mag
sex ual</w>
produc ts</w>
negoti ations</w>
foc using</w>
b on
y an
unemplo yed</w>
sh :</w>
presid ents</w>
k er,</w>
j our
i a
f ill</w>
Polic y</w>
Pal est
O f
Do ing</w>
Austr alia</w>
@Ar senio
tu re,</w>
su ed</w>
iz es</w>
You d</w>
V I
To dd</w>
T E</w>
S E</w>
Charlott es
Bo eing</w>
9 9</w>
with dra
wan t,</w>
ster n</w>
sor ts</w>
insp ired</w>
il ed</w>
form ed</w>
f er</w>
current ly</w>
assaul t</w>
an u
ali ve</w>
Ral ph</w>
O ur
Mac Arthur</w>
Jim my</w>
Ir ans</w>
Buffal o</w>
Balti more</w>
@R ic
you th</w>
v y</w>
tough est</w>
tomorro w,</w>
se ar
lea se,</w>
ion tv</w>
disgr aceful</w>
d )</w>
Di amond</w>
@alex salmond</w>
@T race
th x</w>
so ft</w>
pre ci
m ad
inc ts</w>
de ad
col lap
cla im</w>
catastrop he</w>
bassad or</w>
Y ,</w>
Ve ts</w>
Un believable</w>
Sun days</w>
@ ru
6 9:</w>
1 5:</w>
spo ken</w>
sp in</w>
nor m
lobby ist</w>
examp le,</w>
doct or,</w>
b il
an s:</w>
Thou sands</w>
TA ,</w>
T E
Ro ger</w>
PP LED</w>
M ON
Leag ue</w>
CRI PPLED</w>
@pennjillett e</w>
@TODAY show</w>
@S pe
7 4
2 4:</w>
$ 7
t ex
sh ,</w>
part ic
partic ular</w>
mi ke</w>
k in</w>
execu ti
der :</w>
cour ts</w>
ci vil</w>
additi onal</w>
B el
@h illary
@THE GaryBusey</w>
@M ari
# No
vol u
su per
re auc
new s,</w>
moti v
master piece</w>
lo an</w>
en ce
convers ation</w>
as on
Po st
Gol d
Eng land</w>
@j on
@C NBC</w>
terror ism,</w>
suppor ter</w>
pp led</w>
li m
inde ed</w>
ic onic</w>
don ations</w>
bu t,</w>
ate d,</w>
ann e</w>
YOU R</w>
Musli ms</w>
MU CH</w>
@Trump Toronto</w>
@R NC</w>
@ Israel</w>
#ICYM I</w>
treat ment</w>
trans pa
st ati
sol ved</w>
p t,</w>
ord in
no thing,</w>
friend ly</w>
elec tr
S po
S car
Bro dy
Bi den</w>
@j ake
@The Brody
@C ah
vic a
ver se</w>
un lea
ter n
ri pped</w>
ow ners</w>
opin ion,</w>
n icklaus</w>
ment s,</w>
ke d,</w>
inclu de</w>
car ried</w>
ati ve,</w>
GREA T
En ough</w>
C C
Bob by</w>
B ased</w>
@B o
@ ry
@ news
pri vil
meet the
f aul
ed Cruz</w>
easi er</w>
de l</w>
cere mony</w>
b one</w>
Se an</w>
S SI
Pro ble
Mis sissipp
Ara b</w>
@M s
@ meetthe
@ car
viol ent</w>
te ams</w>
ta pe</w>
re sources</w>
pri de</w>
os a</w>
j r</w>
gg er</w>
de :</w>
cir cu
atel y,</w>
anh att
_ Show</w>
S MA
M att
M anhatt
Is lam
IL L
G illespie</w>
Fam ily</w>
F ore
@Late _Show</w>
#mag a</w>
ut ers</w>
um p</w>
tru th
ra y
pol s</w>
or m
m ic
hop ing</w>
h il
f low</w>
W ant</w>
T ali
T Y</w>
HA VE</w>
A pril</w>
@Trace Adkins</w>
@B ig
@ ad
3 1</w>
tow ards</w>
substanti ally</w>
sett le</w>
ro duc
m ic</w>
h ed</w>
h ated</w>
g ay</w>
f our
ac ob
St ate,</w>
ILLI ON
Hamp shire,</w>
D ER</w>
Ang el
00 :</w>
$ 3</w>
writ es</w>
wan ting</w>
r y:</w>
qu e
op posed</w>
ol f
f ice</w>
embarra ss
any way,</w>
al so,</w>
US A:</w>
S af
Me et</w>
K i
A A
@b ri
@J ay
@ Lo
3 60</w>
$ 25
wor ry,</w>
war ri
sho p</w>
polic y,</w>
k ing
insan e</w>
free zing</w>
f illed</w>
deta ils</w>
defe ated</w>
att en
ac ted</w>
ab out,</w>
ORe illy</w>
M illions</w>
D :</w>
Constitu tion</w>
Com mis
@P GA
w er</w>
unde rest
underest im
tri al</w>
te a</w>
soli d</w>
scre aming</w>
re sid
produc tion</w>
ineff ective</w>
hor ror</w>
eff ect</w>
dre ams</w>
am a
ak er
Won derful</w>
WA Y</w>
IL D</w>
C AR
@T om
restric tions</w>
pu ll</w>
mon ster</w>
h a</w>
consid ering</w>
com plic
auti sm</w>
ar med</w>
ad illa
T y
Presid ents</w>
Mosc ow</w>
Hawai i</w>
F red</w>
F re
A wards</w>
@ iontv</w>
#Dem Debate</w>
pri me</w>
p p</w>
lett erman</w>
fight ers</w>
cent ral</w>
Sch ool</w>
S ho
P inehur
K :</w>
G al
B at
@meetthe press</w>
@Jud ge
@J ustin
20 20</w>
y r</w>
pre v
op ened</w>
o il,</w>
loc ked</w>
h er,</w>
gr and
ex tr
de part
Sm all</w>
ST O
Obamac are,</w>
NAF TA,</w>
M illion</w>
Lind sey</w>
F ile</w>
@p aul
@kevin jonas</w>
@ Char
9 th</w>
1 ,
y ne
sub scri
sub jec
sour ce</w>
sacri fice</w>
ro ads</w>
mor ning,</w>
l unch</w>
inte gr
import ant,</w>
i do
con cept</w>
cancell ed</w>
c es
b acks</w>
Ro d
Pat rol</w>
M C</w>
G I
F ree</w>
@m ichael
@J eff
work ers,</w>
regi ster</w>
regi on</w>
projec ts</w>
predic table</w>
pe aceful</w>
no ld</w>
m ills</w>
lo sses</w>
leg acy</w>
large ly</w>
klahom a</w>
iz ing</w>
ic h,</w>
great ness</w>
fel low</w>
di g
dee pest</w>
commun ity,</w>
bo sses</w>
Wiki Lea
WikiLea ks</w>
Pu t</w>
@E l
0 1:</w>
st ro
r ance</w>
pop ul
p o</w>
ic ks</w>
ful ly,</w>
ent s,</w>
ele ct</w>
beli e
ar di
W ouldnt</w>
Ro c
Po desta</w>
M ad
Jo int</w>
Al most</w>
@Ste phen
9 ,</w>
st amps</w>
spe ci
no lo
mo stly</w>
it ch
inst incts</w>
il a
i ther</w>
h ello</w>
h at</w>
en ever</w>
au ,</w>
ates 2016</w>
We ek</w>
Wa yne</w>
Sar as
Je an
F EMA</w>
An n
@m el
@Sen ate
@ Bu
$ 3
ve t</w>
row ing</w>
organiz ation</w>
li ved</w>
fin ale</w>
fe et</w>
ev ent,</w>
ele b</w>
Wh ich</w>
VE TER
Pe arl</w>
Medi a:</w>
FO X</w>
Cor ker</w>
Canadi an</w>
Bo y
3 9</w>
vot e,</w>
tra ge
sk a</w>
may or</w>
ge st
g ang
fr om
fa ther,</w>
der in
broad cast</w>
Uni vision</w>
R Y</w>
LEAD ER</w>
@c elebapprentice</w>
@ sa
we d
v enti
sad ly,</w>
pre par
pa th
list ened</w>
i sh
gre en</w>
exper ts</w>
d ge,</w>
commun ic
as sy</w>
announ cing</w>
acti v
REA L
NewYor k
Intel lig
H i</w>
CU T</w>
@don lem
@T ig
# GOP</w>
weap on</w>
there fore</w>
on er</w>
nes s,</w>
c hampionship</w>
Wh o
V et
Me gyn</w>
L ance</w>
B S</w>
Al so</w>
8 /
44 44
2 1
vol unt
un d
thre ats</w>
tar get</w>
su st
ra ine</w>
pra ying</w>
m ers</w>
l oud</w>
et t</w>
enn is</w>
en a</w>
elec ted,</w>
charac ter</w>
batt le
au tom
Frank lin</w>
De pt</w>
A le
@S har
4 5
4 00</w>
$1 9</w>
vigil ant</w>
us ual</w>
tra il</w>
th om
sun day</w>
ser ves</w>
pr ou
negoti ated</w>
il e
ff s</w>
commit tee</w>
c nn</w>
Ser vice</w>
N at
M rs</w>
Cha irman</w>
Be tter</w>
A sh
# UNGA</w>
ser ies</w>
ro of</w>
ow es</w>
no bodys</w>
int er</w>
di st
citi es,</w>
bu reauc
ber nie</w>
as s
Part y,</w>
Cu omo</w>
C AN</w>
@ Con
um ,</w>
th rown</w>
sky line</w>
s low</w>
s core</w>
open ly</w>
itor ing</w>
hosp ital</w>
frank ly</w>
fe els</w>
elect ric</w>
critic ized</w>
can cel</w>
auth orities</w>
Sor ry,</w>
R e</w>
Q ue
BU ILD</w>
@V ince
@K ing
re quest
leg ally</w>
j :</w>
hol ds</w>
f ying</w>
clo sed</w>
as h</w>
adilla c</w>
Veg as,</w>
T im</w>
O kay,</w>
@marco rubio</w>
@Th is
3 2</w>
3 1:</w>
15 %</w>
work force</w>
uck abe
s _
pla in</w>
pe :</w>
ow sk
ol ,</w>
ne igh
it ors</w>
grad u
gi f
ear lier</w>
di d,</w>
b ed</w>
San ctuary</w>
In st
@Barbara J
2 ,
tour nam
retur ning</w>
religi ous</w>
re comm
ran ked</w>
n ur
lo ses</w>
i ano
fall on</w>
exp ense</w>
ex cep
corpor ations</w>
ch er
bir d</w>
as p
ac e,</w>
S AD</w>
R ick</w>
Part nership</w>
P ot
O F
EVER Y
Congress man</w>
Big gest</w>
B or
@ not
14 th</w>
some thing,</w>
ro ll</w>
mar gin
im m
head ed</w>
f anta
ct ic
clint ons</w>
bas is</w>
Watch :</w>
U ne
Sec re
R ed</w>
Pen n</w>
C ut
@D or
ye t,</w>
sacri fic
quar ter
ph ot
l ady</w>
hor rend
friend s,</w>
emb race</w>
con sul
cho ice,</w>
art on</w>
any more,</w>
Le w
J ord
Geral do</w>
FU L</w>
F erry
B in</w>
B US
@jack nicklaus</w>
@AB C
@ new
su ing</w>
responsi bility</w>
re marks</w>
jud ges</w>
j a
h i</w>
fac ing</w>
end ment,</w>
dire ct</w>
cha os</w>
P ay</w>
MS 13</w>
Jo b</w>
Inter view</w>
G O</w>
Chic ago
@ mo
9 pm</w>
2 8
si st
re sign</w>
pl at
o clock</w>
mo ves</w>
journ al
ir s</w>
di sh
b /
an c
ad a,</w>
ac tive</w>
W AT
Hill ary
Har ry</w>
G il
Dec e
African Americans</w>
@ 60
y le</w>
war d
tic ket</w>
t or</w>
sle ep
o id</w>
min ister</w>
k y</w>
it able</w>
ido l</w>
gor geous</w>
goo ds</w>
fal len</w>
event ually</w>
ers )</w>
cli ff</w>
VETER ANS</w>
Un ion</w>
Tues day,</w>
Mo ines</w>
Is land</w>
HERO ES</w>
G ot
G R
@N ick
2 6
th ony
recogni ze</w>
politic s,</w>
m icha
hi red</w>
f ile</w>
eral d</w>
environ ment</w>
Z :</w>
S he
C ity,</w>
C all</w>
@n ick
@B illy
y ard</w>
se ver
problem s,</w>
pro pos
mar ried</w>
ke :</w>
imp lo
hac ked</w>
endor sing</w>
come back</w>
an im
Z er
St ate
Octo ber</w>
NBC :</w>
M ORE</w>
Don ne
C re
B ry
@B en
7 0
yler acci
stam ina</w>
recei ving</w>
quest ion,</w>
pri son</w>
lar ger</w>
l ine
er a</w>
adill ac
Ye ah,</w>
Vancou ver</w>
Sar ah</w>
Pi ers</w>
GO D</w>
G H
F ace</w>
A P</w>
@to day
@k yleracci
@Fox Business</w>
@Dan Am
@CBS News</w>
re ach</w>
n ings</w>
less ly</w>
k s
int roduc
ho t</w>
embarrass ment</w>
a ker</w>
Waiki ki</w>
TO DAY</w>
TH IS</w>
Secur ity,</w>
R ich</w>
N :</w>
Mar i
M ot
K enya</w>
For bes</w>
De c</w>
D IS
D ,</w>
@S u
@ tr
10 %</w>
$ 800</w>
x el
te am,</w>
spor ts</w>
saf et
ren ,</w>
ll ing</w>
it ation</w>
ist s,</w>
in ep
for get,</w>
commit ment</w>
c able</w>
an e</w>
accur ately</w>
T ou
Palest in
M al
L A
Ka ine</w>
I R</w>
@mike_ pence</w>
@L ou
@Judge Jean
16 th</w>
writ ers</w>
the me</w>
sur ren
sir ,</w>
opp ing</w>
min e,</w>
law yers</w>
know ing</w>
journ al</w>
gott a</w>
docu ments</w>
bra in</w>
ar gu
RE POR
Li fe</w>
C y
Br on
B OR
8 0
2 7</w>
z y
stor s</w>
s an</w>
re ci
purpo se</w>
lea ves</w>
he av
di plom
cauc us</w>
cas es,</w>
Scot land,</w>
N ight
Mississipp i</w>
L aw
C T</w>
B R
@A P</w>
s ons</w>
pa per
ough ,</w>
op ens</w>
n c</w>
m ir
k o
it a
in stru
hu ff</w>
eh ner</w>
d rain
be ha
b b</w>
amaz ing,</w>
am a,</w>
ag en
ad dre
Une mployment</w>
U se</w>
R ally</w>
PAC news</w>
Honest ly,</w>
Gr ou
F ir
C ur
@C PACnews</w>
@BarbaraJ Walters</w>
7 8:</w>
6 7:</w>
vi or</w>
te red</w>
other wise</w>
one sided</w>
is co
im ple
fun ded</w>
fir m</w>
dow nt
ag gre
_ E
Uk raine</w>
They d</w>
Spe cial</w>
Santo rum</w>
Manhatt an</w>
Ch allen
# Obamacare</w>
x im
produc e</w>
pl or
manag er</w>
m manu
id enti
da d</w>
cul ation</w>
bu sy</w>
am ed</w>
a u</w>
Ir ma</w>
Bu d
@nbc sn
@ lee
9 1:</w>
th ri
pre vious</w>
pp l</w>
i ff</w>
enterta ining</w>
benef its</w>
aband oned</w>
V C</w>
Tig er</w>
T ill
Secre t</w>
Q VC</w>
O klahoma</w>
F ath
Au gust</w>
Ad dress</w>
@ frank
@ Un
st om
school s,</w>
restaur ants</w>
pre p
nt ly</w>
month s,</w>
ma x</w>
ma instream</w>
fre edom
email s,</w>
be ats</w>
att ack,</w>
Organiz ation</w>
Net work</w>
Mic hel
G it
D uring</w>
B ay</w>
@Jennifer 75
# NY
w oo
tech nolo
short ly</w>
sa ke</w>
requ est</w>
ra in</w>
pres s,</w>
lin e,</w>
lea ks</w>
ha ck</w>
al lies,</w>
V :</w>
St and</w>
S ounds</w>
NAT ION
L im
Hu ge</w>
Cu b
@n fl</w>
@FL Gov
@ Ver
8 3:</w>
# Oscars</w>
# O
stru ction
sig nific
quick ly,</w>
proble m,</w>
pro secu
pr o</w>
isra el</w>
iano Bec
fail s</w>
com pu
cat ch</w>
RU D
In depend
I L</w>
Dece mber</w>
C row
Ar mstrong</w>
@P ianoBec
@D RUD
@B er
: 00
u se
s aturday</w>
respect ful</w>
op er</w>
low ering</w>
hun d
gar ding</w>
ent it
candid acy</w>
b ar</w>
Ye ars</w>
Pro bably</w>
P ower</w>
Ne ver
H uckabe
En er
D un
Com pan
Br and
@jimmy fallon</w>
@Team Cavuto</w>
tw o,</w>
ra e
ic ed</w>
fail ures</w>
con test</w>
Pal in
Li ke
I I</w>
@Sarah Palin
8 0</w>
6 4:</w>
#T BT</w>
wa st
ust ere
ten acious</w>
sear ch</w>
s /
reas on
key note</w>
ex tra
da y:</w>
cy ber</w>
ant icip
S ustere
S qu
K ansas</w>
Dem s,</w>
@donlem on</w>
@A ll
# t
won der
tin y</w>
sm en</w>
ne d,</w>
min ent</w>
mark s:</w>
lo :</w>
h iring</w>
elimin ate</w>
as soci
Ma her</w>
L ow
K u
Ho li
@j d
@Trump Ferry
@JudgeJean ine</w>
@ esp
201 2:</w>
$ 50</w>
tribu te</w>
so le
sm ith
predic ted,</w>
omb ardi</w>
net works</w>
li e,</w>
inno v
inj ured</w>
ic s,</w>
e vil</w>
bud get,</w>
be gun</w>
They ll</w>
T ING</w>
Pol and</w>
Pinehur st</w>
Liby a,</w>
I D</w>
Holly wood</w>
G or
@Sen T
@ ari
( ;</w>
#Deb ates2016</w>
underestim ate</w>
s man</w>
re placed</w>
mel ania</w>
kill ers</w>
d r</w>
cra p</w>
count ing</w>
act ually,</w>
Tr illion</w>
K no
Jo e
D ream</w>
AC E</w>
#V P
vis a</w>
the ft</w>
ren ce</w>
po sing</w>
in k
ffing tonPost</w>
dum p</w>
class y</w>
ba g</w>
atri ots</w>
SSI VE</w>
Re memb
MA SSIVE</w>
L unt
Gin ella
D id
Campa ign</w>
AR S</w>
A K</w>
@m r
@Matt Ginella
@Hu ffingtonPost</w>
@DRUD GE
@D M
4 0%</w>
( I</w>
wa sh
tur n
th is
reli ef</w>
re volu
ra y</w>
op ou
o hi
mon itoring</w>
mm ys</w>
j ail
i um</w>
end er</w>
corre ctly</w>
consi st
compet ent</w>
an opou
V an</w>
TOT AL</w>
M E
Ha ving</w>
F AM
D S</w>
Arab ia,</w>
Ar nold</w>
@ lo
@ hu
syste m,</w>
sto le</w>
sp ace</w>
po st
or ina</w>
n ational
la di
in pe
hund red</w>
hand led</w>
fil ing</w>
far ,</w>
extre me</w>
de scri
compan y,</w>
ant s,</w>
ack inpe
Sand y</w>
Rus h</w>
Kore an</w>
D U
@f ackinpe
volunt e
t ill</w>
sa _
neigh bor
mist ake
man agement</w>
lo ve,</w>
incre di
in es,</w>
gr ade</w>
g ro
fa shi
develop ment</w>
count s</w>
ca sting</w>
acc id
Vi vica
O Donne
H y
Fi fth</w>
Challen ge</w>
@da vi
@ch ris
@T M
@R on
@Ms Vivica
@DanAm ira</w>
se at</w>
rele asing</w>
peop le
pe fully,</w>
or n
ie :</w>
go ing,</w>
de ple
comm is
candid ates,</w>
b ble</w>
ar ti
WOR LD</w>
N ot
Ch ri
COR D</w>
Bo ard</w>
@marklevin show</w>
@m acys</w>
@NY Daily
@C ol
@Arsenio Hall</w>
201 8</w>
201 4:</w>
1 50</w>
# POTUS</w>
t one</w>
streng th,</w>
some day</w>
pre ssion</w>
me ier
ma ster</w>
it age</w>
h our
en ced</w>
bra ham</w>
boy cott</w>
am ic</w>
achie vement</w>
Tra vel
Hom eland</w>
G EN
D en
B uc
A braham</w>
@ron meier
7 ,</w>
4 6</w>
2 6:</w>
10 ,000</w>
th ing
sum mer</w>
sh aring</w>
ro bb
rema ins</w>
prep are</w>
pi ec
p ing</w>
op tions</w>
ob viously</w>
min ded</w>
l R
lR Stor
lRStor ri
g lob
for got</w>
determin ation</w>
del phi
cu stom
con duc
celebr ating</w>
Sc ali
S mi
S et</w>
OU LD</w>
M and
IR TH
Comman derin
B IRTH
Any one</w>
Ab solutely</w>
@theh ill</w>
@ste phen
@David _
@Cah lRStorri
@ net
4 %</w>
3 6</w>
wind farm</w>
temper ament</w>
re sc
o _
k is
ing er</w>
ho les</w>
exp anded</w>
ev ed</w>
co t</w>
a wards</w>
P hon
K o
Goo fy</w>
Fi red</w>
Ad vis
AC aucus</w>
A dam</w>
@FLGov Scott</w>
@D aily
@B B
@ la
6 2</w>
4 2</w>
#I ACaucus</w>
s laugh
s ;</w>
l a</w>
je ts</w>
ge :</w>
fabric ated</w>
f ell</w>
corre ct
O ut</w>
Mar k
L ake</w>
Fin ally,</w>
AL LY</w>
@Tig er
@ ar
wall s</w>
up pe
mat ch</w>
know ingly</w>
jo e</w>
grow th,</w>
fu ture,</w>
e th
bu ll
balan ced</w>
app oint</w>
any thing,</w>
an ie
a a
Ica hn</w>
IST OR
Conserv ative</w>
Conf id
@S h
wr ong,</w>
ow ed</w>
or s,</w>
ob vious</w>
lo l</w>
ke ting</w>
iz on
gra ph
fron ts</w>
ed a</w>
c hamp
Tu be</w>
Govern or
Car l
@be ll
@ Le
@ Go
7 7:</w>
( which</w>
$ 25</w>
z o</w>
v an
un believ
uck er
si de,</w>
pre stig
oper ation</w>
inst ance,</w>
hun t</w>
ed :</w>
be st
bab ies</w>
Wom ens</w>
Wh arton</w>
Thou ghts</w>
Newsmax @iontv</w>
K night</w>
Ber nard
@S ec
@J ames
work s,</w>
u n</w>
reg im
mon day</w>
lef t,</w>
laugh ed</w>
ila delphi
il ey
idi ots</w>
gang s</w>
fi ght,</w>
f old</w>
executi ves</w>
de ep
d _
com man
brid ges,</w>
ar ound,</w>
ali ens</w>
Some thing</w>
R an
J F
Did nt</w>
Ch il
Bri dge</w>
@Frank Lunt
5 2</w>
0 8:</w>
#Team Trump</w>
se ph
ob bs</w>
m ot
fundrais er</w>
destabil ize</w>
cade my</w>
ach ers</w>
_ j
_ REPOR
Tot al</w>
O :</w>
Nash ville</w>
Mac ron</w>
C aucus</w>
Buil ding</w>
@ari anna
@DRUDGE _REPOR
7 %</w>
#US S
y lor
xel ro
sion er</w>
pro posed</w>
li ft</w>
jour ney</w>
f at
de d,</w>
bl ack</w>
b/ c</w>
ad y
W R
Tow er,</w>
Pet e</w>
M S</w>
J ames
H O
Gu y</w>
F E
ES M</w>
Asi a</w>
AN T
@T I
9 3</w>
#L ESM</w>
wal ked</w>
us u
u rious</w>
thou ght
ser :</w>
rais es</w>
news paper</w>
n e</w>
it s,</w>
ill er</w>
emp ire</w>
deduc tions</w>
contro ver
contest ants</w>
c ents</w>
Wa it</w>
V ir
St one</w>
Sm art</w>
Ex cell
Ele ct
CO ME</w>
Bar bar
BIRTH DAY</w>
Act ually,</w>
@MsVivica Fox</w>
@MattGinella GC</w>
4 8</w>
#Hurricane Harvey</w>
trage dy</w>
tele prom
re f
individu als</w>
in fl
co ast</w>
b by</w>
att orney</w>
a de
Y et</w>
St up
Spo ke</w>
H ol
For Trump</w>
C ath
@TrumpFerry Point</w>
@ fund
#Trump 4
u :</w>
lif ted</w>
lex i
jam in</w>
ig n
i x
i ous
horrend ous</w>
fa st,</w>
enfor ce</w>
d i</w>
d c</w>
christ mas</w>
balan cing</w>
Wor d</w>
Terror ism</w>
F RE
ES ,</w>
@I am
@Andre w
@ su
w ars</w>
ric k</w>
produc ed</w>
pat rol</w>
ma :</w>
los i</w>
i se
gu y
gra ham
faul t</w>
es se
en _
dis cred
bo x
att ending</w>
_ K
Wh os</w>
O Care</w>
Jack son</w>
IN T
Fath ers</w>
AN T</w>
@h ard
8 pm</w>
#P OTUS
# debate</w>
w ood
that _
stru gg
respe cting</w>
plate au,</w>
mmanu el
import ance</w>
figh ter</w>
discus sion</w>
co vering</w>
blo ck</w>
att end</w>
ar d,</w>
adv ance</w>
ab ilities</w>
_ that_
WIT H</w>
RE CORD</w>
Ch o
C e
@not _that_
@PianoBec ca:</w>
@Newsmax_ Media:</w>
20 00</w>
un ity</w>
sust ain
si m
sal e</w>
pri ority</w>
po c
min ut
low n</w>
liter ally</w>
hospit als</w>
for ces</w>
dela y</w>
bri ef
You Tube</w>
Wr ong,</w>
Tr ack
Stup id</w>
Steph anopou
Spr ing</w>
P U
O L</w>
Nor man</w>
L Y
J ay</w>
Fr ank</w>
Eli ot</w>
@M o
@Ian Z
5 1%</w>
wal king</w>
turb ine</w>
t t</w>
sm aller</w>
re put
orm ous</w>
en ta
en ormous</w>
ball s</w>
War ren,</w>
U r
Trump 2016</w>
Re uters</w>
R T
On line</w>
L ate</w>
EL L</w>
D am
@the view
suppor tive</w>
st unning</w>
shir ts,</w>
scri p
sand ers</w>
s co
ro ve</w>
privil ege</w>
politici ans,</w>
par k</w>
n ation
l ongest</w>
h l
ere n
e tt
consid er
a wa
To days</w>
TH AT</w>
R s</w>
I t
H an
Deb t</w>
Clevel and</w>
@k im
@da vid
@b a
9 5
201 4
te :</w>
t wi
se gment</w>
pre ced
pm :</w>
lux urious</w>
hac ks</w>
f bi</w>
e go</w>
bre a
Worl d
T IC
Russi a
R ink</w>
Ne il</w>
Mel ania,</w>
Le ading</w>
Buff ett</w>
Bl ack</w>
Be en</w>
v a</w>
su gar</w>
ste aling</w>
o sa
mone y
li ves,</w>
integr ity</w>
influ ence</w>
hy pocr
feat uring</w>
ent al</w>
crow ds,</w>
chest er</w>
c rum
ate :</w>
age l</w>
a eda</w>
YOU RE</w>
Watch ed</w>
P uppe
Me eting</w>
In augur
H agel</w>
Ema ils</w>
@j ay
@j am
@L il
st im
stim ul
sho ts</w>
represent atives</w>
refer red</w>
re garding</w>
ooo 13:</w>
mil y
men th
m usli
m in</w>
li s:</w>
lab ooo13:</w>
kid ding</w>
fra ud
every body,</w>
ci pl
aw are</w>
Poll :</w>
M ED
Conne ctic
C A</w>
Blu menth
@bell labooo13:</w>
@Miss USA</w>
@L in
@An dy
@ Governor
8 1:</w>
#VP Debate</w>
wit nes
un le
susp end</w>
suppor ters,</w>
rema ining</w>
pas sage</w>
part y,</w>
mu sic</w>
mb augh</w>
implo ding</w>
ic hel
hi a
hia 60
fin ance</w>
dump ing</w>
develop ments</w>
con gre
attemp t</w>
anal y
an th
am :</w>
ac ity</w>
a warded</w>
WH Y</w>
Tra vel</w>
Manu facturing</w>
MA KING</w>
Fi orina</w>
En jo
C abinet</w>
An der
AGA IN
@fackinpe ter:</w>
@ba hia60
@ ph
# St
v is</w>
t ol
syri a</w>
shir t</w>
ser ved</w>
sav ings</w>
represent ative</w>
pro ving</w>
ple ased</w>
patri ot</w>
pas sionate</w>
me rely</w>
j ury</w>
intel lect
dis loyal</w>
com for
be tra
be gged</w>
app la
ack On
ackOn Track
W WE</w>
U p
Ti ff
Tali ban</w>
PP OR
I :</w>
C C</w>
B O</w>
@b ret
@T Mobile</w>
@Ma ster
@Dor al
@D on
@B ackOnTrack
@ ton
@ di
2 12</w>
ye ah,</w>
t ries</w>
plac es,</w>
pay ments</w>
m un
li stic</w>
l enn
famil y,</w>
f t
destru ctive</w>
convin ced</w>
W OW</w>
S outhern</w>
Pe losi</w>
M ore
Indi a</w>
Ener gy</w>
Char les</w>
B ill,</w>
@arianna huff</w>
ve re
v irgin
p ic</w>
inve sting</w>
induc ted</w>
individ ual</w>
hom e,</w>
g a</w>
f at</w>
every one,</w>
cy cle</w>
const itu
compet itor</w>
be l</w>
apologi zing</w>
W ind
Se th</w>
M ,</w>
Lor d</w>
H OF</w>
AS TER</w>
@TI ME</w>
@B ri
20 th</w>
vot e
suff er</w>
sp in
se es</w>
recor d
presid ent
pic tures</w>
op hi
max _
max_ media</w>
m t
int l</w>
clow ns</w>
announ ces</w>
US MC</w>
M et</w>
K ur
AB C,</w>
@news max_media</w>
@T al
@NR O</w>
@K at
@A C
6 7
3 8</w>
$ 200
war m
threat ening</w>
sub po
st on,</w>
spe ak
sh ut
recor d,</w>
re l</w>
pro ved</w>
pi peline</w>
ohi o</w>
norm al</w>
mes sa
me e
im balance</w>
i e</w>
gi e
cho sen</w>
cau sing</w>
US A
R is
Hel p</w>
H at
ES T
C inc
@m att
@SenT edCruz</w>
@Ro ck
@Rick Santorum</w>
@In The
yester days</w>
ve y
ve tting</w>
streng then</w>
repre s
re ll
oo o</w>
mag az
j ack
inv ite</w>
f lexi
emplo yed</w>
do es,</w>
da xelro
comment ary</w>
childre n,</w>
bri dge</w>
boo m</w>
ar do
ar :</w>
Y E
US E</w>
Dann y</w>
Commanderin Chief</w>
Bush s</w>
A S</w>
@davi daxelro
@FoxNews In
@DM Register</w>
@ its
@ el
9 2:</w>
#Super Tuesday</w>
# K
yu an</w>
str ange</w>
sk i
n one</w>
min d
enthusi a
enthusia stic</w>
ca re,</w>
begin ning,</w>
Wh atever</w>
Tow ers</w>
TH ER</w>
St re
R ap
Pa thetic</w>
Mu se
L ad
Gar den</w>
G en</w>
E mmys</w>
D E</w>
@Golf Di
4 6
#Trump V
x ter
week s,</w>
ree ts</w>
our selves</w>
o tic</w>
job less</w>
j r:</w>
ic on</w>
he avy</w>
ford able</w>
exclu sive</w>
enem y,</w>
enc y,</w>
deman d,</w>
continu ing</w>
co incid
can cer</w>
bo ys</w>
ag an</w>
adm itting</w>
STO P</w>
High est</w>
G U
Bud get</w>
B roo
@Ma x
6 6:</w>
4 2:</w>
200 4</w>
12 /
0 1</w>
thin k,</w>
su preme</w>
shar p</w>
sc ra
per vert</w>
ma ss</w>
m id
m art
lyn n</w>
it e,</w>
insi ght</w>
gi e</w>
fra u
expla ined</w>
enjo ying</w>
en shire</w>
co ver
campaig ned</w>
bu ster</w>
P lan
F lynn</w>
ED S</w>
Cru z,</w>
Cri me</w>
Clu b,</w>
AR Y</w>
@d ennis
@L u
v ander
tu es
top ics</w>
te am
on z
me d
it ys</w>
i el
horri ble,</w>
hard working</w>
d yn
con front</w>
bomb ing</w>
back ground</w>
b at
all y
adverti sing</w>
adillac C
O T</w>
J :</w>
Bald win
@fund anything</w>
@Jon ah
@C adillacC
@ ca
@ To
@ Isra
un fit</w>
terri ble,</w>
stand ,</w>
renov ations</w>
re k
princi p
oth er,</w>
o li
manipul ation</w>
m p</w>
le d
k ille
ic es,</w>
i res</w>
applic ations</w>
act ors</w>
T ro
Sta ff</w>
K im</w>
Il legal</w>
Gu ard</w>
A _
@SarahPalin USA</w>
@60 Minutes</w>
tra gic</w>
ti ed</w>
servic es</w>
oun ding</w>
in tim
i ghts</w>
ent ry</w>
disa v
bur den</w>
beauti fully</w>
an ces</w>
Pl an</w>
Pi peline</w>
Per f
PRESID EN
M ania</w>
Gal a</w>
B ank</w>
Act ually</w>
AS AP</w>
@Trump Waikiki</w>
@Doral Resort</w>
@ 2
# Never
# DonaldTrump</w>
stri ke</w>
part nership</w>
p ennsylv
off ,</w>
nice ly</w>
interest s,</w>
ill :</w>
gol den</w>
every thing,</w>
en a
determin ed</w>
cu te</w>
cou n
ch inese</w>
beha vior</w>
b o</w>
are n</w>
archit ec
agree ments</w>
ad :</w>
T ry</w>
Shar p
Re pe
Jord an</w>
IT S</w>
Ex clu
Co ach</w>
C ater
AL S</w>
A il
@R ich
8 5
5 0:</w>
4 9</w>
3 2:</w>
vic iously</w>
ton ight
t es</w>
s ends</w>
requ ire</w>
represent ed</w>
re place
pur sue</w>
par ti
nomin ated</w>
n er,</w>
lan gu
inc enti
ilit y,</w>
host ile</w>
gu est
go of
fa thers</w>
ex change</w>
er de
ci al
care ful,</w>
b id</w>
ab ri
T reas
M om
G ood
A la
@today show</w>
@mor ning
@M ary
@H ou
veter an</w>
unle ash</w>
unbeliev ably</w>
ti sm</w>
sen ators</w>
ro oting</w>
pe anu
peanu ts</w>
out lets</w>
kic king</w>
f an
e ver
dest in
de mon
de mo
d n</w>
be red</w>
b right</w>
aff ected</w>
a )</w>
Se e,</w>
SMA RT</w>
Re ading</w>
Patri ots</w>
Geor ge
Excell ent</w>
Clint on
@barack obamas</w>
@M i
v it
under stood</w>
ti re</w>
regim es</w>
quarter back</w>
pla ys</w>
pic ks</w>
per sist
ma d</w>
il u</w>
ener gi
di stor
comple ted</w>
ar izon
_ C
Y :</w>
Intellig ence</w>
Com p
Busin ess
Bi ble</w>
@theview tv</w>
@Vince McMahon</w>
we et
v a
v :</w>
tur nber
survi ve</w>
s al</w>
ou tra
n an
ma de,</w>
lif el
k ind
geni uses</w>
fic tion</w>
e at</w>
deple ted</w>
democr acy</w>
d ot
buil ds</w>
believ ed</w>
ath y
ac her</w>
TV :</w>
St anding</w>
M A</w>
Huckabe e</w>
Dum my</w>
D el
Compan ies</w>
Alab ama,</w>
AL L
A cademy</w>
8 8
3 ,</w>
200 8</w>
yn n
we red</w>
w w
ve ill
ti ons,</w>
re me
ow n
lo ans</w>
inv itation</w>
in i</w>
histor y,</w>
he ed</w>
fo od
eff ec
ed itorial</w>
dum m
dr am
ci es</w>
candid ate,</w>
bu bble</w>
at tr
anch or</w>
ac res</w>
Y ankees</w>
Steph en</w>
Rubi o,</w>
N av
Lau er</w>
LE GA
F ast</w>
CO M
@Spe aker
@A nt
@ ra
usu al,</w>
surren der</w>
sta ys</w>
ph ra
pati ent</w>
mb le</w>
mar co</w>
li ghts</w>
ket ball</w>
j er
it ute</w>
intellig ent</w>
inspir ational</w>
glob al
g ross</w>
friend ship</w>
fraud ul
cra sh</w>
conditi on
be ach</w>
_ chris</w>
Un like</w>
RE N
Maj L
J ami
D ar
A gree</w>
@Senate MajL
@M y
@Lil Jon</w>
@ ta
,0 00,</w>
tomorro ws</w>
tex as</w>
teleprom p
star ted,</w>
re la
ly /
l ing
iz z
ir ,</w>
ic :</w>
hon oring</w>
happen ing,</w>
experi ence,</w>
dre am
complic ated</w>
compet ence</w>
clu b
c ross</w>
be low</w>
atri um</w>
ati s
Trump /
T rum
SP IR
Ru le</w>
Pet rae
List en</w>
Liber ty
Li fe
Confid ence</w>
Chicago s</w>
A U
7 2</w>
sp y</w>
restle Mania</w>
reput ation</w>
repres ents</w>
progr ams</w>
pa st
opp ed</w>
ke l</w>
fic ation</w>
ell :</w>
don ate</w>
con dem
clu eless</w>
cei ved</w>
brut al</w>
T AL
Olymp ic</w>
O ther</w>
L ombardi</w>
Gil bert</w>
G ul
Franc isco</w>
AN N</w>
@ny post</w>
@This Week
@O ANN</w>
@CNN ,</w>
@ tim
y osa
war ,</w>
vac u
ul ed</w>
tw o
tru n
soldi er</w>
scand als</w>
prepar ing</w>
mar kets</w>
intellect ual</w>
en de
discred ited</w>
deser ved</w>
bi e</w>
bett er
ball _chris</w>
bad ly,</w>
UN IT
Sa w</w>
R ick
M e</w>
F IN
Ea ster</w>
E ver</w>
C ross</w>
Bl ack
Barbar a</w>
As sad</w>
Am endment,</w>
@hard ball_chris</w>
@Mac ys,</w>
@K ev
@G Stephanopou
@ big
vander pla
vanderpla ats</w>
sp an</w>
sen se,</w>
pra h</w>
ow n,</w>
j an
hu man
fl ying</w>
finan cials</w>
extra ordin
dis cipl
defe ating</w>
cont act</w>
ch i
believ ing</w>
as pect</w>
a i
T ON
Ro ss</w>
R IGHT</w>
NE EDS</w>
Mar y
M ary</w>
I F</w>
F ire</w>
Dor als</w>
@bob vanderplaats</w>
@Steve King
@J am
@FoxNews Sunday</w>
@C ha
4 4:</w>
( as</w>
$ 21</w>
wil d
to o,</w>
stati st
s ers</w>
ro se</w>
re r</w>
popul ation</w>
o vation</w>
lo ck</w>
langu age</w>
inno vation</w>
in appropriate</w>
horri bly</w>
gain ed</w>
educ ated</w>
d ining</w>
comb ination</w>
bec au
b ow</w>
T our
Q U
Presid ency</w>
NR O</w>
Mart in</w>
MA N
Liber al</w>
K ell
K NOW</w>
In surance</w>
Har v
CH R
Brit ish</w>
Bre t</w>
@ste ve
@d anny
@c al
@J e
thank s,</w>
swee pst
sweepst weet</w>
ru ining</w>
pot us</w>
positi ons</w>
necess arily</w>
n ic
mar osa</w>
it z</w>
ind sey
i o</w>
http:// bit</w>
fo cu
bir ds</w>
back bone</w>
U ta
Supp ort</w>
S pa
Re v</w>
Ma ine</w>
Da y,</w>
D an
C elebr
@ro d
@M at
33 %</w>
#TRUMP 2016</w>
# sweepstweet</w>
transpa rency</w>
subjec ts</w>
sen s
re solution</w>
r omney</w>
prote sts</w>
news papers</w>
milit arily</w>
manu fact
kille d,</w>
invest or</w>
har dest</w>
f an:</w>
entit led</w>
en ger</w>
critic s</w>
comp ar
as mus
amen ities</w>
We ak</w>
Ve ter
Tex as,</w>
TR I
Petrae us</w>
H ello</w>
F AST</w>
@nbcsn l</w>
@Tiger Woods</w>
@B orn
5 6
$5 00</w>
#Trump 16</w>
wom en,</w>
u k</w>
to :</w>
thin k
than king</w>
spea ker</w>
r am
prou dly</w>
new s:</w>
ne l</w>
k id</w>
im um</w>
ex posed</w>
ex ec
del a</w>
deal t</w>
celebr ities</w>
ba seball</w>
av oid</w>
ar ms</w>
Pensacol a,</w>
LI KE</w>
Ju de</w>
H ISTOR
G un
E ric
E LE
C adillac</w>
Bru ssel
@ry an
@E mmanuel
@C om
8 th,</w>
6 6</w>
who m</w>
ven ue,</w>
thr u</w>
ta :</w>
secre ts</w>
san ctuary</w>
re forms</w>
ner v
im pe
cre ation</w>
boy le
apart ment</w>
W in</w>
TRU TH</w>
T weet</w>
Spe aking</w>
Sher iff
RE PE
Q at
A gre
@S R
@M c
@ ant
@ 4
3 4:</w>
25 %</w>
sw amp</w>
stu b
sha red</w>
reach ing</w>
re memb
produc tive</w>
o y
neg ate</w>
lo t
l d
ico le
goof y</w>
f :</w>
e minent</w>
disp la
difficul ties</w>
cir culation</w>
car ry</w>
b log</w>
as sho
a si
YOU ,</w>
W ow
W omen
Virgin ia,</w>
Show s</w>
R :</w>
G ru
For ces</w>
Da ily</w>
Ben jamin</w>
@morning mi
@dennis ro
@N at
@ ni
30 ,000</w>
# M
wi se
wh enever</w>
victor ious</w>
un fairly</w>
tra v
ta s</w>
shut down</w>
s ophi
sophi stic
re election</w>
r ough
pri se</w>
out sider</w>
net t</w>
in spe
in correct</w>
imple ment
host ages</w>
flo or</w>
c el
bud gets</w>
bo om
angel ical</w>
Sustere n</w>
Sen ate,</w>
Pre tty</w>
Michel le</w>
M il
I tal
Gre en</w>
E mer
CE Os</w>
C ARE</w>
A lex
@hillary sus
@ rick
7 3:</w>
5 ,</w>
#Miss Universe</w>
y B
wom ens</w>
vel t</w>
te ach</w>
suff ered</w>
se velt</w>
re w
pas sion,</w>
no vember</w>
mon t
m ir</w>
ladi mir</w>
inter net</w>
gent le
f ha
el son</w>
dat a</w>
cho ked</w>
be st,</w>
a way,</w>
R AD
Q aeda</w>
Pro c
M us
Cap it
Buil d</w>
@stephen fha
@Mike _
xim ately</w>
x _
ven ess</w>
uni que</w>
un predictable</w>
tele vision,</w>
st uck</w>
sk i:</w>
sc ale</w>
predic t</w>
pled ged</w>
oth ers)</w>
lin ed</w>
ici ent</w>
er _
emp ty</w>
dis respecting</w>
da vis
convin ce</w>
ca v
V ice</w>
Tr ace</w>
S imp
Re cor
O K,</w>
K aren</w>
Gener als</w>
Cas sidy</w>
Air port</w>
AS H
y O
under stand,</w>
tra ining</w>
r o</w>
n fl</w>
mis sil
lea ked</w>
kno ck
ke t,</w>
ist ic</w>
er ic</w>
ep ic</w>
deman ds</w>
b y:</w>
Spe ech</w>
Ser iously</w>
R ou
O ff</w>
N ic
Mar ilu</w>
@net anyahu</w>
@T ur
@Ch uck
@B ra
8 2:</w>
6 8</w>
2 7:</w>
0 5
un d</w>
succ ess,</w>
s mo
ri vers</w>
plat form</w>
pal m</w>
p ed</w>
ord an
j ap
hou sing</w>
heart beat</w>
exist ing</w>
e e</w>
differe ntly</w>
comb ined</w>
be ef</w>
auth ority</w>
assu me</w>
anti Trump</w>
ack y</w>
Ye men</w>
MED IA</w>
M ul
J r:</w>
Depart ing</w>
@morningmi ka</w>
@davidaxelro d</w>
18 %</w>
y y
wor n</w>
wind mills</w>
warri ors</w>
up it
up d
more )</w>
mar ch</w>
ma in
lo ,</w>
land mark</w>
ino is</w>
in C
ele ment</w>
di a
con vic
ci c</w>
b s,</w>
b on</w>
are nt
ad dic
Proc lam
Ph iladelphi
PEC 2017</w>
Muse um</w>
Leg ere</w>
H us
H AR
Ear th</w>
Commis sioner</w>
C i
C all
C al
@trump doral</w>
@US Navy</w>
@Sha wn
@John Legere</w>
@D o
@ Liberty
35 %</w>
#A PEC2017</w>
we iner</w>
th en,</w>
st ops</w>
reitbart news</w>
pic king</w>
one :</w>
ob lig
mistake ,</w>
li est</w>
import antly</w>
house holds</w>
graham Ang
grahamAng le</w>
g allon</w>
finan ces</w>
fav ors</w>
document ary</w>
compan ies,</w>
che ating</w>
b ing</w>
b ilities</w>
anke e
_ D
Some one</w>
S le
Res ear
R adi
POL L
P ope</w>
High ly</w>
Gul f</w>
@john ny
@b reitbartnews</w>
@Lou D
@In grahamAngle</w>
@B rad
@ lan
@ gr
201 0</w>
who ever</w>
wh ile,</w>
watch ,</w>
w re
u mb
tru e
t it
simp le,</w>
sa il
sail ors</w>
re sto
r ying</w>
pun dit</w>
proper ties</w>
primar ies</w>
ob sole
hampion ships</w>
fron trun
feat ured</w>
er to
er t</w>
de s
cap ability</w>
beli ever</w>
an cial</w>
amp a</w>
air port
Tennes see,</w>
Su gar
Stein le</w>
Schneid er
P ak
La den</w>
Inve stig
Fin ancial</w>
DE AL</w>
@the real
us ually</w>
t ch
sil ence</w>
sha ke</w>
ro y
ris m</w>
puppe t</w>
op position</w>
nomin ate</w>
ne ither</w>
mess enger</w>
le ment</w>
indi ana</w>
hat ers,</w>
fundrais ers</w>
fire works</w>
estim ates</w>
en coura
dis ru
di stric
deleg ation</w>
deal maker</w>
all star</w>
al ph
W W
Van ity</w>
S NL</w>
R id
Q Republicans</w>
K rist
Election s:</w>
D w
Cri ppled</w>
Ann oun
An ni
@Wa yne
@SR QRepublicans</w>
@R yan
@InThe Elections:</w>
@ ric
@ GOP
war m</w>
to day
sett led</w>
resc ue</w>
re jec
radic alized</w>
pro of</w>
ous y</w>
or ity,</w>
or dered</w>
o val</w>
invol ved,</w>
im prove</w>
ffing ton</w>
ex tor
e _
dyn amic</w>
circu m
chec king</w>
char ges</w>
c us
ace :</w>
abo lish</w>
WA YS</w>
Treas ury</w>
Squ are</w>
Sher iff</w>
Re port
REAL LY</w>
PO LI
O D</w>
Mexic os</w>
Lim b
Hon or</w>
G ates</w>
B illion</w>
AL WAYS</w>
@eric trump</w>
@ant ba
@Jonah NRO</w>
@For be
v ul
t ly</w>
suppor t,</w>
s am
public ly</w>
mi das</w>
like ly</w>
la w,</w>
l acks</w>
itt sbur
ing rich</w>
in os</w>
h ome
gran ted</w>
en do</w>
den y</w>
death s</w>
conditi ons</w>
Wiscon sin
Stu art</w>
Jack son
JO B</w>
H im</w>
Git mo</w>
A bed
@an thony
@Ne il
@FrankLunt z</w>
@ fa
77 7:</w>
visi on
sur veill
stupid ly</w>
s la
rac ial</w>
phi c</w>
no ff</w>
me dd
in dic
i ering</w>
holi days</w>
gu ys,</w>
group s,</w>
geor ge</w>
expe ct
downt own</w>
col um
ca hon
b illion,</w>
ast or</w>
ar m</w>
X :</w>
T ele
St ra
P astor</w>
Nat l</w>
N SA</w>
K ri
Ju li
@dennisro dman</w>
@IanZ iering</w>
@F ace
:30 pm</w>
#t cot</w>
#C PAC
win ery</w>
te en
ta sk</w>
subsi di
so oner</w>
por ted</w>
on _
mor ons</w>
ministr ations</w>
micha els</w>
d ud
d an
cu ff
ath an
Women s
V ic
Sen ators,</w>
Sa ys</w>
Real ize</w>
J an</w>
Harv ard</w>
H U
G old</w>
G RO
F air
E dison</w>
Cri min
C oo
@Pat rick
@P iers
@Barack Obama
# Thank
ve tt
su dd
shoot ings</w>
sh ell</w>
ric h,</w>
ri sh</w>
recor ded</w>
real ized</w>
r ink</w>
onest y</w>
oc ca
me ade</w>
la un
j et</w>
il meade</w>
hur ting</w>
happen ed,</w>
hap ter</w>
g ers</w>
fr anch
fi res</w>
el le
av en
To Be
Sa id</w>
ON G
O ME</w>
Fin ally</w>
DON T</w>
D ur
D ad</w>
C up</w>
At l
Am nesty</w>
@new tg
@m is
@ad am
@M S
@D ra
@ ti
@ ne
@ New
3 00</w>
201 7,</w>
2 5:</w>
( a</w>
z el
war d,</w>
virgin ia</w>
us ale
ultim ately</w>
u mp
s atis
roll out</w>
reason able</w>
pu pp
pro por
pro filing</w>
p ure</w>
one st,</w>
ne ,</w>
mo ve
j ump</w>
hu nt
gre en
fi as
eth ic</w>
ear n</w>
disc lo
deta il</w>
dela yed</w>
d il
ct or
chil d
car rier</w>
bor row</w>
bl ind</w>
al u
a thew
R ac
In de
Im port
II I</w>
Fore ign</w>
E VERY</w>
Ala ska</w>
AW ES
AM E</w>
@Da ve
8 4</w>
5 5</w>
2 ,</w>
turnber ry</w>
taxpa yer</w>
sun g</w>
st reets</w>
st ake</w>
sci enti
s now
ret weet</w>
re vi
preced ented</w>
ne tt
long term</w>
job killing</w>
j m
it y:</w>
from ,</w>
fre shing</w>
emplo y</w>
e m
e ce</w>
deal ings</w>
beauti ful,</w>
al lows</w>
State ment</w>
Saf e</w>
NATION AL</w>
La V
K o</w>
J upit
EN D</w>
Achie vement</w>
AGAIN ,</w>
@Char les
9 7
8 8</w>
7 3</w>
7 0:</w>
4 8:</w>
yosa ki</w>
un ion</w>
threat ened</w>
thank ful</w>
r out
pa st,</w>
ot a,</w>
origin ally</w>
on er
o g
ma kers</w>
la unch</w>
knowle dge,</w>
in s:</w>
enterta in
depart ment</w>
ce ase
at ing,</w>
W ood
Suc cess
Proble m</w>
Pe ter</w>
NAT ION</w>
Mar ines</w>
K ra
Bu zz</w>
B ILLION</w>
Afghan ist
@M el
, ,
te d
some time</w>
ru ary</w>
rel ying</w>
produc ing</w>
li vi
li s
he dge</w>
h ats</w>
fre sh</w>
erg us
eb ruary</w>
d eni
cla ss,</w>
chea pest</w>
cal m</w>
bu yers</w>
appro ximately</w>
ann ity
am ond
al ition</w>
accep ted</w>
Wh it
V is
Spe aker</w>
So on</w>
Palestin ian</w>
Happ y
G en
F ergus
F ebruary</w>
C ul
@SenateMajL dr</w>
@ George
:/ /</w>
( not</w>
thu gs</w>
terr itor
stimul us</w>
ri s:</w>
phot os</w>
ment :</w>
imm erman</w>
hou se,</w>
heav ily</w>
h t</w>
grow n</w>
fu el</w>
ev ens</w>
es cap
e ag
bas ically</w>
at er</w>
as c
an cy</w>
adm its</w>
ad mi
Vide o</w>
VE TS</w>
St reng
Ser geant</w>
P D</w>
News max</w>
Net works</w>
H erald</w>
G ad
A li
@ton y
@GStephanopou los</w>
@Barack Obama,</w>
@ tom
@ gop</w>
6 4</w>
15 ,000</w>
( who</w>
#N H
zz :</w>
ye ah</w>
unt ru
un ite</w>
un it</w>
tues day</w>
st amp</w>
sp a</w>
sour i</w>
row n
rel ations</w>
regul ations,</w>
re new
quot es</w>
purpo sely</w>
po ses</w>
pe t
o sc
me )</w>
l er:</w>
inst itu
in ess</w>
illi on
happ ier</w>
fi ve
f ate</w>
extraordin ary</w>
ext ent</w>
end less</w>
do z
con sumer</w>
char ities</w>
c nbc</w>
c art
bomb ed</w>
bas ketball</w>
ates man</w>
al ty</w>
af fordable</w>
ach s</w>
ab les</w>
X L</w>
WE rick
WAT CH</w>
Tal k</w>
Ste ven</w>
Scali se</w>
Saras ota</w>
Ph one</w>
P ittsbur
P ,</w>
No bodys</w>
Nash ville,</w>
Mon t
J in
I d
Hot el,</w>
D ennis</w>
Colle ction,</w>
Christi an
@m on
@k at
@ThisWeek ABC</w>
@T ou
@LouD obbs</w>
@AC 360</w>
@ no
1 8:</w>
worth y</w>
ve ts,</w>
ur ch</w>
unlea shed</w>
speech ,</w>
si s,</w>
se y:</w>
s ma
ra ig
qu arter</w>
pu erto</w>
pennsylv ania</w>
nerv ous</w>
menti ons</w>
lo si
k k
is on</w>
in su
ide mic</w>
ex am
ell er</w>
collap se</w>
bre eds</w>
bra ins</w>
be :</w>
b id
ati ,</w>
ach ed</w>
V ladimir</w>
Th en,</w>
Su b
St ars</w>
Re d
O s
Lo c
LO V
Just ices</w>
I ES</w>
Ch else
As soci
AT ION
@L indsey
@K elly
@J ason
@Born ToBe
: I</w>
$ $
#US Womens
z ones</w>
we aring</w>
tre mend
se ts</w>
sch neid
schneid erman</w>
ru ined</w>
perc enta
p ig
ol d
m our
id :</w>
g er,</w>
fraudul ent</w>
fortun ately</w>
es cal
er ci
ele g
dish onesty</w>
def en
compet iti
c lar
bun ch</w>
att ended</w>
app ointed</w>
Tre at</w>
Se ason</w>
Roo sevelt</w>
R on</w>
Pre mi
Po cahon
Mc Car
In frastructure</w>
Ho pefully,</w>
Fox ,</w>
Christ op
@real donald
@Paul Ryan
@P ol
5 5
vacc in
tr illion,</w>
sched uled</w>
sac hu
projec ted</w>
prof its</w>
ou s:</w>
om ac</w>
lear ning</w>
issu ed</w>
fail ed,</w>
demon str
civil ization</w>
ar ab
ander son
airport s,</w>
W S
SU PPOR
S we
RE FOR
Mo on</w>
Mit ts</w>
Mas sachu
ILLION S</w>
F actor</w>
Bu y</w>
BU T</w>
AWES OME</w>
@j esse
@NYDaily News</w>
@ lu
wed ding</w>
v ing
twee ted</w>
tim ing</w>
streng th
ru noff</w>
roc ket</w>
reno vation</w>
ra rely</w>
phra se</w>
musli m</w>
mist ak
jud g
ite :</w>
is s</w>
inep t</w>
immedi ate</w>
gif ts</w>
fa ster</w>
ey e</w>
ent ering</w>
eng aged</w>
da :</w>
d a</w>
co :</w>
chea p</w>
buil der</w>
b lown</w>
ar rog
ad ding</w>
U E</w>
U C
T ank</w>
Sh in
Prote ction</w>
P art</w>
ODonne ll</w>
N C
Mo der
Micha els</w>
Lyn ch</w>
K now
J ared</w>
Gov t</w>
DO W
C old</w>
Be fore</w>
@bret michaels</w>
@TheBrody File</w>
@P au
@Golf Channel</w>
24 /
v ent
usale m</w>
tal ent,</w>
stu ff,</w>
ssi er</w>
squ are</w>
slo gan</w>
sele ction</w>
ro ck
re serves</w>
or g:</w>
mit t</w>
ick :</w>
h ispan
gh ,</w>
fun er
funer al</w>
frau d,</w>
follow ed</w>
f ,</w>
er ce</w>
dedic ation</w>
char ged</w>
beli ef</w>
battle field</w>
ba il</w>
at ic
appe aring</w>
ap er</w>
T ampa</w>
Ste ven
S PE
R US
Que en
Phon y</w>
O il</w>
J acob
Entrepreneur s</w>
C ore
Bron x</w>
B raz
A VE
@w illiam
@s quawk
@S her
6 8:</w>
3 pm</w>
2 9
#VoteTrump 2016</w>
# s</w>
sustain able</w>
stub born</w>
ste ful</w>
ss ello</w>
si ve,</w>
sh back
ren c
prof it</w>
plan es</w>
patri ots</w>
off ering</w>
meas ured</w>
massi vely</w>
m iddle
land :</w>
k es
is ition</w>
ill a</w>
idi ot</w>
ic ity</w>
hel ps</w>
ha u
gir l:</w>
ght ful</w>
fe es</w>
electr icity</w>
de sk</w>
cru cial</w>
car son</w>
c l
c ali
bo ss
be ll
an g</w>
americ as</w>
am i</w>
alth ough</w>
ad o
acqu isition</w>
STR ONG</w>
Ran cic</w>
O C
Indi ana
IG R
Grou p</w>
Gor such</w>
D an</w>
@Mi ami
@D r
@CadillacC hamp</w>
4 1%</w>
3 9
war z
war ned</w>
viol ation</w>
v es
un necessary</w>
t y:</w>
sh op
seas ons</w>
r a</w>
p y</w>
obam a,</w>
mul ti
i an
h o</w>
gan :</w>
eli PM</w>
dec im
da vid</w>
celebr ation</w>
car rying</w>
car bon</w>
bl u
bec k</w>
ba sic</w>
ar ren
ab le
WE HOF</w>
WA S</w>
Scar bor
Presid en
Ohi o,</w>
Net anyahu</w>
Ire land,</w>
I Q</w>
Hunt sman</w>
Gu n</w>
Cam er
Califor ni
B :</w>
AN Y</w>
@Sen ator
@Real S
@Isra eliPM</w>
@Ant oni
4 1</w>
#The Apprentice</w>
week ly</w>
ur s</w>
turn out</w>
travel ed</w>
su peri
struction ist</w>
si ege</w>
ru s</w>
reme m
remem bered</w>
rele ases</w>
re minded</w>
pre vent</w>
p ages</w>
over time</w>
ment or</w>
je ff
itiz ens
in capable</w>
g han</w>
focu s,</w>
devast ating</w>
d are</w>
comple x</w>
co ach</w>
am ate
adm ir
Yor kers</w>
Wi en
W arri
T am
T TER</w>
ST ATE</w>
Ri ghts</w>
Q 2</w>
Man dela</w>
M iddle
L L
CB S,</w>
@ni k
@m boyle
@jake ta
@Pe te
@ ann
year old</w>
tru th,</w>
t z
sw ing</w>
sur ge</w>
sto l</w>
sk y</w>
par ties</w>
p ack
mon stro
ll inois</w>
i est</w>
hear ts</w>
ha ir
g ical</w>
fri day</w>
exp en
count less</w>
chan ces</w>
c ross
c es,</w>
and :</w>
all :</w>
W right</w>
Veg as
Tur key</w>
RO M</w>
REPE AL</w>
Pri mar
P R</w>
NY :</w>
I llinois</w>
H Q</w>
F ROM</w>
E ach</w>
E ,</w>
@kyleracci o:</w>
@Stephen Baldwin
@Fox News:</w>
xter 8:</w>
ri de</w>
reck less</w>
pu lling</w>
propos al</w>
po dium</w>
p ha
not iced</w>
m erry</w>
lif ting</w>
just ices</w>
i vank
https ://</w>
est ablish
custom ers</w>
business es,</w>
bo y,</w>
ber :</w>
bal listic</w>
as k
al es
R and
P ic
P ER
M ER
Jo se</w>
Import ant</w>
EM B
D REA
Ba xter8:</w>
B oring</w>
Al one</w>
@S al
@Master Baxter8:</w>
@Lindsey Graham
@Liberty U</w>
@G i
, 5
$ 7</w>
ti vely</w>
servic e,</w>
secon ds</w>
press journal</w>
premi um</w>
nu kes</w>
ne y
l uc
indust rial</w>
in iti
for ,</w>
fl un
fe wer</w>
bo x</w>
bo dy
bi z</w>
be gan</w>
b wat
ati ves,</w>
an o</w>
americ af
americaf irst</w>
af ric
ac t,</w>
W OW
Ver des</w>
Sch ul
Pal os</w>
P S</w>
Our Marine</w>
MA TE</w>
M yr
King dom</w>
HA S</w>
G as</w>
Fol low</w>
Ed itorial</w>
Count ry,</w>
Clu b
B Y</w>
AM A</w>
@jesse bwat
@L and
@ pressjournal</w>
11 th</w>
,0 00
, 500</w>
# americafirst</w>
vid ual</w>
stri pped</w>
ss y
re d,</w>
ph il
patri otic</w>
ob struction</w>
mur ders</w>
k o</w>
intervie w
inn ati,</w>
ic ago
i ght,</w>
form ation</w>
en tered</w>
dro pping</w>
do g
coincid ence</w>
blo od</w>
bi go
be long
back wards</w>
b in</w>
ati e
ar do</w>
ans wered</w>
a ve
Y ear
U s</w>
T OR
Pla yer</w>
Mon mouth</w>
Indi vidual</w>
F ar</w>
C TION</w>
Ale x</w>
AC K
@m ari
@W e
@Tur nber
@Trump_ Charlotte</w>
@ pa
9 2</w>
war fare</w>
vot es,</w>
tra ff
te achers</w>
state ment,</w>
see ks</w>
se quest
sa ud
ru sh</w>
refer ring</w>
recomm end</w>
re gu
pp er
part time</w>
out :</w>
horri fic</w>
domin ant</w>
disa sters</w>
di sm
deep ly</w>
d l
controver si
con stru
claim ed</w>
car n
cap acity</w>
ater al</w>
arre sted</w>
ang ed</w>
_R _
SH OW</w>
RES PEC
P ur
G ame</w>
Fail ed</w>
Elect oral</w>
DIS ASTER</w>
D es
Cali endo</w>
AT ES</w>
@PaulRyan VP</w>
@Frank Caliendo</w>
@For bes</w>
@Br and
3 3</w>
# Happy
# Hannity</w>
wi g</w>
tow ns</w>
sum mit</w>
spe ctive</w>
replace ment</w>
read y,</w>
po l</w>
ol d,</w>
nu ts</w>
mur dered</w>
mi ke
m are</w>
la id</w>
happen s,</w>
ex emp
end ing,</w>
el s
down gr
deci sive</w>
d in
c ow
b loo
av or</w>
V A,</w>
The re
Romne y,</w>
Pu erto
Pennsylv ania,</w>
POLI TIC
POL L</w>
L ong</w>
Gol dman</w>
Fir st,</w>
E mb
C lear
@f its
@b en
@J ere
@Hu ff
@Bob by
3 7
# Puerto
washing ton,</w>
tre as
th o
t an
sho res</w>
ri age</w>
re search</w>
re elected</w>
pa r</w>
mag net</w>
losi /
list ,</w>
jo int</w>
in ver
in her
fair s</w>
de si
cuff links</w>
cru de</w>
compet itive</w>
can ,</w>
belie ve,</w>
ak :</w>
ag ents</w>
ad a
accep table</w>
U ran
Sle ep
Ro y
R en
O M
N ab
Just ice,</w>
G ri
De al,</w>
D ow</w>
Can not</w>
@w olf
@P atriots</w>
@Mike_ Pence</w>
@J ordan
@E WErick
@ le
6 5:</w>
#W I
your self
warm ing,</w>
visi ons</w>
uc ker</w>
t ops</w>
subpo ena</w>
su ic
sp ort
r on
osc ars</w>
hon or,</w>
hi ding</w>
fund raising</w>
fun ds</w>
fun ,</w>
fir st,</w>
du mber</w>
co st
autom ob
ati vely</w>
abo ard</w>
Zer o</w>
WIN N
TON IGHT</w>
St art
Scot lands</w>
Res pect</w>
Lo ser</w>
Je bs</w>
IN C
F ight</w>
Euro pe
Eric ,</w>
D ak
Cri me
@Gov Christie</w>
@A berde
@ th
@ ag
8 7</w>
1 ,</w>
$1 M</w>
y )</w>
tre n
the swamp</w>
termin ated</w>
ry s
ro aring</w>
pret ending</w>
possi bilities</w>
p ical</w>
l ately</w>
intim id
gi ble</w>
excep tional</w>
er r
drain theswamp</w>
da ily
cra ft</w>
comb at</w>
c _
am e
T ough,</w>
Su n</w>
Sp a</w>
Politic s:</w>
P RI
N icklaus</w>
Mob ile,</w>
IR S</w>
IC AL</w>
Hillary Clinton</w>
FI RED</w>
Dw ight</w>
Boo k</w>
@g ene
@SteveKing IA</w>
@Real Ben
@K yle
2 9</w>
# draintheswamp</w>
zu ker</w>
wind farms</w>
weap ons,</w>
victi m</w>
ve mb
un precedented</w>
t ons</w>
reli able</w>
p sy
p ick
moment um,</w>
land ing</w>
it i</w>
infl ation</w>
il y,</w>
ha ha</w>
fig ured</w>
e mer
che at</w>
c cer</w>
and /
and/ or</w>
Tic kets</w>
TI C</w>
Ro ck
Pensacol a</w>
Limb augh</w>
Le e</w>
Kri stol</w>
Int el</w>
In spe
Econom ic</w>
Dor al,</w>
Do ssier</w>
Di sa
Car los</w>
Bat on</w>
A Ro
@k arl
@T ru
@DanScavin o:</w>
@B est
@ NewYork
3 0%</w>
# time
# 2
wat cha
un watcha
tre ating</w>
ti p</w>
te ars</w>
soli dar
solidar ity</w>
scre wed</w>
safet y:</w>
re agan</w>
pil lar</w>
p ac
ou l</w>
mon :</w>
mistak es,</w>
m on</w>
lo vely</w>
la y
la :</w>
l ousy</w>
it z:</w>
insi ghtful</w>
ill s,</w>
i j
gi on</w>
gener ations</w>
food safety:</w>
fac ility</w>
de plor
de m</w>
daugh ter,</w>
confid ent</w>
con venti
citizen ship</w>
ca sh,</w>
bu sh
b ren
associ ated</w>
assho le</w>
WOR K</w>
Viet nam
Si x</w>
OF F
NE W
M et
L en
Gre ece</w>
For get</w>
Ex po</w>
Donald Trump:</w>
BL ESS</w>
Am bassador</w>
@dc foodsafety:</w>
@Trump Collection</w>
@K ate
@J ake
@FoxNewsIn sider</w>
( with</w>
um a</w>
ul l
sh oul
sh Times</w>
rat ings,</w>
r ou
off ered</w>
n y,</w>
maj ority,</w>
loc ated</w>
life :</w>
in as</w>
gen u
est ab
estab lish</w>
eas y,</w>
de cent</w>
d ad
crum bling</w>
corru p
co s</w>
becau se,</w>
at or,</w>
Wor st</w>
WE AK</w>
W ont</w>
W inner</w>
SE CU
Re :</w>
O care</w>
Jer usalem</w>
De ar</w>
Charlottes ville</w>
C lar
Bry ant</w>
B B
A K
@jaketa pper</w>
@i am
@_ S
@Jack sh
@ au
7 4:</w>
7 /
6 5</w>
6 2:</w>
10 pmE</w>
$5 8</w>
w inter</w>
uc ci
ta ste</w>
stand point</w>
st ars</w>
sophistic ated</w>
sk in</w>
set ts</w>
satis fied</w>
s ne
repe ate
repeate dly</w>
re form,</w>
re cover</w>
re built</w>
part ners</w>
part ner</w>
ol a</w>
ne l
mo m</w>
mi ami</w>
man n:</w>
long ,</w>
le ss,</w>
law s,</w>
ist er
in sid
hand ed</w>
ha b
gra b</w>
g _
exist ence</w>
en courage</w>
dom est
develop ing</w>
deli vers</w>
contro ls</w>
comp as
c ry</w>
bu ys</w>
art ers</w>
Week ly</w>
Scarbor ough</w>
Pe ace</w>
Par is,</w>
P E</w>
N AS
L ab
J ona
Hu ffington</w>
Cub a</w>
Chelse a</w>
Car ly</w>
Brussel s</w>
Boo m</w>
@squawk cnbc</w>
@R and
: DonaldTrump</w>
3 ,000</w>
y m
v als</w>
ut ch
un popular</w>
t ank</w>
si e
re new</w>
re move</w>
provi ded</w>
perf ec
medd ling</w>
ly n</w>
lobby ists,</w>
kno cked</w>
itizens _
insul t</w>
ick erson</w>
i ous,</w>
for gi
f an,</w>
dru g
don ation</w>
der s,</w>
depend ent</w>
def und</w>
contro l,</w>
cle an
ch er</w>
c ro
athle tes</w>
ate gor
app oint
al le
ab road</w>
Success ful</w>
Ser ious</w>
Re gul
R ow
OB AMA
Louisi ana,</w>
Ital y</w>
In d
Fal well</w>
E Z
Con tro
B LE</w>
@A dam
6 9</w>
#W WEHOF</w>
z er</w>
war ren
tur al</w>
threat en</w>
ter y</w>
sur r
superi or</w>
success fully</w>
sion s,</w>
shi re
saud i</w>
s ic
pra ise</w>
pa ,</w>
mor nings</w>
mis sions</w>
mar ine</w>
ma gic</w>
le d,</w>
knock out</w>
incenti ve</w>
ign ore</w>
i LY
govern ment,</w>
gn ity</w>
expla ining</w>
er ve</w>
emb assy</w>
ed ge</w>
di gnity</w>
defin ition</w>
d ly,</w>
cell or</w>
build ing,</w>
bo bby</w>
ble ss
W ent</w>
RA U
Puppe t</w>
N elson</w>
M C
John son
Im migr
FAM iLY
F RAU
BUS H</w>
B ack
AA A</w>
@the FAMiLY
@pe ter
@TheReal Marilu</w>
@H e
0 7
# vote
wel coming</w>
travel ing</w>
tol er
subsi dies</w>
sh ouldve</w>
s ong,</w>
l uck
imagin ation</w>
ho pe
h ill
g al
foo lish
fin itely</w>
fal sely</w>
dumm ies</w>
coura geous</w>
con clu
ce il
c hapter</w>
bre ath</w>
as ser
a T
X ,</w>
Tim es,</w>
Th ird</w>
S S</w>
RO C
R olling</w>
P lease,</w>
FL OR
Ele ct</w>
DO M</w>
D ri
Cru z
Comp any</w>
Ch an
Boy cott</w>
Ba seball</w>
B y
@k ilmeade</w>
@Y ankee
@LindseyGraham SC</w>
@L ara
@H ar
@Emmanuel Macron</w>
@ 00
10 pm</w>
#WI Primary</w>
yr on
w on,</w>
stic ,</w>
roll ing</w>
re moved</w>
pri son,</w>
pre ssive</w>
n n
k n
hand some</w>
guil fo
g es
ev angelical</w>
ear ned</w>
deman ding</w>
dela ying</w>
death ,</w>
c a</w>
bil ateral</w>
asc in
am bassador</w>
Ta king</w>
T own</w>
Ne eds</w>
For t</w>
Dis gr
Co hen
CO MM
A Y</w>
@ma athew
@l il
@M L
@Car ol
@ x
@ in
2 6</w>
$ 8
ze bag</w>
ur a
tt ough</w>
trav ell
sn ake</w>
re freshing</w>
pro gre
pow er,</w>
ow s</w>
ow ell</w>
losi/ Schumer</w>
ll ,</w>
la ke
intervie w,</w>
ili buster</w>
for cing</w>
fe st</w>
d in</w>
bu s,</w>
bl ack
bi as</w>
b ing,</w>
au gh
ar my</w>
act or:</w>
W GC</w>
Tiff any</w>
Sum mer</w>
Roc ket</w>
Rememb rance</w>
Pla yers</w>
Pen g</w>
Pe losi/Schumer</w>
Osc ar</w>
Olymp ics</w>
Ob structionist</w>
O marosa</w>
Myr tle</w>
Mad ame</w>
M s</w>
Jo bs,</w>
Fu rious</w>
F ilibuster</w>
Con tin
Com ing</w>
Chi ef
Cha mber</w>
C li
Bernard ino</w>
B AN</w>
Americ an,</w>
AN CE</w>
A ren
A PP
@m ac
@jessebwat ters</w>
@Mat thew
@F re
2 )</w>
$ 10
x on
ss a</w>
s ick
recent ly,</w>
pu lled</w>
pres ents</w>
m s
light ly</w>
k ay
int act</w>
grat itude</w>
gh ted</w>
gent ina</w>
factor y</w>
extr a</w>
er ial</w>
ed )</w>
decim ated</w>
consul t
consist ent</w>
cent ury</w>
bo ehner</w>
acti vi
Uran ium</w>
Trump F
Smi th
Re x</w>
Radi o</w>
RAD ICAL</w>
Pot omac</w>
L AM
Ki yosaki</w>
John ny</w>
J UST</w>
IG G
F eds</w>
D ER
Af ghan</w>
@m sn
@l ou
@US C
@Turnber ry
@Me dia
@Eric TrumpF
: Donald</w>
#S NL</w>
x ter</w>
tur mo
tra ve
s worn</w>
reitb art</w>
re y
re stor
pover ty,</w>
pers onal
min imum</w>
man ner</w>
man n</w>
l un
inv ited</w>
ha ve
g el
fr action</w>
fashi on</w>
f uc
f ence</w>
constitu tional</w>
compar ison</w>
bull shit</w>
bu st</w>
auti sm
atten fall
and ra
alph re
air plane</w>
aci fic
Sharp ton</w>
Scot t
OT E
N ancy</w>
Mill ers</w>
Lead ers</w>
Le gion</w>
IGR ATION</w>
Gi uli
Fergus on</w>
Ele ctions</w>
E ve</w>
Con gratul
Ar med</w>
Ad vice</w>
@r alphre
@nik ki
@V in
@TrumpGolf DC</w>
@RealBen Carson</w>
@ stu
@ he
@ Thom
5 9</w>
35 ,000</w>
2 /
11/ 8/
10 PM</w>
#TrumpV log</w>
vul ner
vo ices</w>
vo c
v ens</w>
sp ending,</w>
pub lish
presid ency,</w>
percenta ge</w>
per spective</w>
om er
mode ls</w>
missil es</w>
me t
m ing
ly in</w>
h n,</w>
g ath
fu rious</w>
de cla
corre ct,</w>
c ity,</w>
br ac
bless ings</w>
b roo
asp iring</w>
as ha
an e:</w>
al ab
air craft</w>
TRUMP ,</w>
Ste vens</w>
S ports</w>
S ON</w>
Phoeni x,</w>
N V</w>
Mis souri</w>
L uc
K ar
Ica hn,</w>
Ev angelicals</w>
E l</w>
E duc
Cl int</w>
Be yond</w>
A ss
@N C
@EWErick son</w>
@ eli
@ ed
8 4:</w>
#time toge
wr ong
wh el
ty pe</w>
ta g
stru ct
sm ile</w>
si x
s its</w>
reduc tion</w>
ma c</w>
m s,</w>
le s:</w>
it a</w>
is lam</w>
inst in
gre w</w>
econom ically</w>
dec l
cru shed</w>
cre ates</w>
con qu
b locked</w>
aw es
an i</w>
V in
Re marks</w>
Mont ana</w>
Lau gh
L ev
K ather
Jin ping</w>
II :</w>
H ON
FA IR</w>
D re
Cinc innati,</w>
Austr ali
Al though</w>
Ac cord</w>
@ronmeier 123:</w>
@Trump_ Ireland</w>
@Michael Cohen
@Lara Lea
@Kev in
@Gre g
@F EMA</w>
@ vi
@ char
:00 pm</w>
201 3:</w>
11 :00</w>
# Harvey</w>
# Chicago</w>
# 2</w>
z a:</w>
you :</w>
vacu um</w>
trump jr</w>
ti v
ti r
tari ffs</w>
spin ning</w>
so ccer</w>
si ght</w>
ru ling</w>
re p
r ina
po is
pan el</w>
out standing</w>
on ce,</w>
lo t,</w>
l ad
just ify</w>
j trumpjr</w>
in sider</w>
famil ies,</w>
donald jtrumpjr</w>
disa ppe
dec line</w>
deb ates,</w>
dar k</w>
compli ments</w>
co oper</w>
ane se</w>
anderson cooper</w>
amp ant</w>
_ k
Z immerman</w>
Sh ul
Re ad
P hot
NY ,</w>
L G
H :</w>
Dru dge</w>
Can did
C eleb</w>
AR T</w>
@d r
@T yler
@Ro bert
@ donaldjtrumpjr</w>
@ andersoncooper</w>
4 2%</w>
( just</w>
( by</w>
$ 100
zz zz
zu el
wat er
sug ge
sm al
seas on,</w>
reve aled</w>
respe ct,</w>
reach ed</w>
re verse</w>
r t</w>
r he
rhe tor
predic ting</w>
obsole te</w>
oblig ation</w>
meas ure</w>
me yers</w>
lo op
leg ally,</w>
jo ke,</w>
ivank a</w>
ist ,</w>
inf ected</w>
im press</w>
fair ness,</w>
escal ator</w>
ene zuel
disclo sure</w>
de ce
d op
communic ation</w>
busines smen</w>
bu tt
b are
V enezuel
Sleep y</w>
Sim on</w>
Shin zo</w>
Sc ary</w>
SU CC
Ry an,</w>
R ay</w>
Politic al</w>
NY PD</w>
N ast
N FL
Maj ority</w>
MS NBC</w>
MO ST</w>
K ati
I Z
For mer</w>
Congress woman</w>
Blumenth al</w>
Ash ley</w>
@j ust
@Trump Dorals</w>
@P ri
@For Q2</w>
@D Nor
@D J
@A sh
@ u
9 5:</w>
57 th</w>
4 6%</w>
4 4</w>
12 %</w>
$1 8</w>
tournam ent</w>
te en</w>
stre aming</w>
so f
sh ot
separ ate</w>
ro ws</w>
re cru
prosp er</w>
parent s,</w>
opin ions</w>
on t
o pe
moder ni
mis leading</w>
minut es)</w>
leag ue
in form</w>
in coming</w>
ic a
gra ve</w>
gener ous</w>
fall s</w>
er o
environ ment
el i</w>
carn age</w>
bureauc r
brea ks</w>
ate way
are a,</w>
ant a</w>
answ er,</w>
YE AR</w>
We bb</w>
Vietnam ,</w>
St atesman</w>
St art</w>
S OT
S ING
Romne y
Pra ying</w>
M es
LO W
LEGA L</w>
I F
Hal per
Fun ny</w>
For d,</w>
Charlottes ville,</w>
@kim guilfo
@danny zuker</w>
@bl ue
@b illy
@Trump Panama</w>
@Joe NBC</w>
@Huff Post
@Face The
5 00
4 ,000</w>
12 3</w>
# big
y per
tic kets</w>
slea zebag</w>
saf er</w>
sacrific ed</w>
ri se,</w>
revolu tion</w>
re marks:</w>
re ject</w>
ran ge</w>
per sever
per mit</w>
p lease,</w>
oll man</w>
mon i
moni um
mar gin</w>
lot us</w>
j an</w>
gr ounds</w>
for t</w>
flo od</w>
fi f
ent in
con fu
champ ions</w>
cap abilities</w>
c eleb</w>
bas es</w>
bar ak</w>
archit ect</w>
any time</w>
W :</w>
Un less</w>
TO GE
RUS SI
Po s
Liber als</w>
J es
Inspe ctor</w>
FA R</w>
E as
Come y,</w>
Chan cellor</w>
CB O</w>
Air lines</w>
@the bla
@rod monium
@f lotus</w>
@Tou re</w>
@C itizens_
@ ha
1 %,</w>
( in</w>
# Election
# AL
wh y,</w>
to f
ti p:</w>
tem por
tax ed</w>
t down</w>
sug gest</w>
stri kes</w>
str ongest</w>
st y</w>
sh ine</w>
separ ates</w>
se l</w>
sa ,</w>
s witch</w>
room ,</w>
ri pp
re im
reim bur
pu p
or i
mp s</w>
motiv ated</w>
massi ve,</w>
lo om
liber ty</w>
ing ly,</w>
ice :</w>
go als,</w>
ff in</w>
et y,</w>
don or</w>
distric t</w>
differe n
club 4
club4 growth</w>
classi c</w>
chan ge
ch ose</w>
c ain</w>
aggre ssive</w>
activ ity</w>
account ability</w>
_ H
Trump ,
THE Y</w>
T S
Pak istan</w>
M en</w>
Kenne dy</w>
I MM
Gu ess</w>
F ANT
FANT AS
Econom y</w>
Da vid
C AND
A polo
@se th
@not_that_ actor:</w>
@jo sh
@br an
@Wa shTimes</w>
@G MA</w>
@Dra ke
@ lor
@ club4growth</w>
9 8%</w>
36 5</w>
wi re:</w>
wa steful</w>
un ve
time )</w>
t act
sent ence</w>
se ven
se d
ru in</w>
ra :</w>
put in</w>
positi vely</w>
o lic</w>
my ster
mp ed</w>
mar ie
k en
it ari
is en
g as
ev angelic
ed ed</w>
conserv atives</w>
commis sion</w>
co sting</w>
adv an
ad s,</w>
SH OULD</w>
S us
S r</w>
Ro ssello</w>
Re pub
R ig
R Strong</w>
Qu est
Pre s
Perf ect</w>
Off ice,</w>
Mel b
MA S</w>
Inst itute</w>
In side</w>
Id enti
IST MAS</w>
E mp
Cath olic</w>
CHR ISTMAS</w>
C aller</w>
Ad min</w>
AT ED</w>
@lan ce
@bahia60 85:</w>
@GolfDi gest
@ vin
@ No
8 PM</w>
7 7</w>
6 th</w>
6 7</w>
6 3:</w>
0 8</w>
#P RStrong</w>
# IN
wa it,</w>
tal ents</w>
sudd en,</w>
sc en
rece ption</w>
port s
person able,</w>
p aul</w>
ou g
lat er,</w>
kic ks</w>
ion Leader</w>
hi dden</w>
group ,</w>
ge tt
exper t</w>
dis man
dam ages</w>
crow d
cover up</w>
ci u
char itable</w>
chan nel</w>
bigo try</w>
betra yed</w>
annity show</w>
and owsk
al s:</w>
a ge,</w>
Uk rain
US C</w>
TER R
TERR OR
Supp or
Sol yn
RESPEC T</w>
QU EZ
Per son</w>
P ric
O WS</w>
O US</w>
N ast</w>
Mon days</w>
Medi a,</w>
D EM
Con de</w>
Cla ssi
Camer on</w>
@s ha
@c span</w>
@Un ionLeader</w>
@RealS QUEZ
@G ary
@Am anda
@ sm
$1 ,000,000</w>
warren cas
surveill ance</w>
slaugh ter</w>
scre w</w>
s lot</w>
s cor
re ward</w>
prev ail</w>
hur ts</w>
hoo k</w>
h ers</w>
g one,</w>
flun ky</w>
estim ated</w>
else where</w>
donald ,</w>
do se</w>
dest ination</w>
de ported</w>
de an
d arl
comman der</w>
boo ks,</w>
_ d
We in
Vi sit</w>
Ric hard</w>
Ric h
Res ol
Re li
Patri ot
M P
Like wise,</w>
L :</w>
F allon</w>
Br and</w>
BOR DER</w>
@theFAMiLY LEADER</w>
@stephenfha yes</w>
@newtg ingrich</w>
@hillarysus ans:</w>
@Ric ardo
@Real Gilbert</w>
@F a
@ warrencas
10 1</w>
#USWomens Open</w>
#Trump4 Prez</w>
with ,</w>
w iscon
ve ments</w>
v i</w>
tru sted</w>
trad er</w>
st eve</w>
s now</w>
ric o</w>
refuge e</w>
re son
nation wide</w>
mo d
ma s
less ons</w>
j i
interest ing,</w>
ig no
gr ant</w>
ge t
finan cially</w>
fe el
convers ations</w>
com pre
be en,</w>
arizon a</w>
ar s
ann as
ain t</w>
ad ul
ab erde
a ver
T ED</w>
Shar ia</w>
I magine</w>
I AL</w>
FRE E
Bla si
Associ ation</w>
AR :</w>
AN G
@re d
@d alla
@NC GOP</w>
@Li sa
@Jennifer75 AR:</w>
3 7</w>
10 1:</w>
$5 0
win ds</w>
who ve</w>
wast e,</w>
warz ene
turmo il</w>
trad ition</w>
sav vy</w>
r om
pret end</w>
pleas ure,</w>
per man
ow :</w>
n y:</w>
lu m</w>
lea kers</w>
ing u
hon or
gath ering</w>
g lor
dom ain</w>
conduc t</w>
col dest</w>
belong s</w>
b y,</w>
b old</w>
att end
ascin ating</w>
Wor th</w>
Sha me</w>
Schul tz</w>
S hi
S end</w>
Re ports</w>
OL L
Inter net</w>
Gener al,</w>
Emer son</w>
E m
E PA</w>
Dou ble</w>
D av
D OLL
Cla pper</w>
Ci vil</w>
Ar gentina</w>
A ction</w>
@ryan bush
@ro b
@Mac Miller</w>
@J an
@Drake 4444
@Drake4444 44
@Di amond
@Breitbart News:</w>
@ go
% )</w>
# Mar
with you</w>
win ning,</w>
volunte ers</w>
vie wed</w>
terri bly</w>
surpri ses</w>
success es</w>
strugg ling</w>
ste ps</w>
sp n
national ly</w>
margin al
m er,</w>
liber tari
ki e</w>
in comes</w>
fil m</w>
f ted</w>
dra in</w>
dire ctor</w>
davis :</w>
confir med</w>
condition ers</w>
concer t</w>
cher ish</w>
char lott
challen ged</w>
cha in</w>
bro thers</w>
au to
ag es,</w>
US S</w>
Till erson</w>
T han</w>
S hel
Rus sell</w>
Pu b
P T</w>
OTUS ,</w>
LI MATE</w>
Indi ana,</w>
I VE</w>
Good man
Depart ment,</w>
C LIMATE</w>
B reitbart</w>
Aren a</w>
@trump chicago</w>
@ro s
@mel ani
@jim libertari
@T i
@Jon Huntsman</w>
@Ivanka Trumps</w>
@D ur
9 pmE</w>
6 8
4 9:</w>
( the</w>
#timetoge ttough</w>
# Apprentice</w>
y or
unwatcha ble</w>
tru ck</w>
te acher</w>
st ac
show :</w>
sho cked</w>
rela x</w>
reduc ing</w>
pr int</w>
pa yer</w>
ol l</w>
o cean</w>
nt a</w>
ne ss
mind set</w>
messa ge,</w>
me st</w>
lo st,</w>
li mbaugh</w>
independ ence</w>
impre ssion</w>
illi ons,</w>
il lo
i deal</w>
frontrun ner</w>
fli ght</w>
eric k</w>
dr a</w>
di se
de cep
cu py</w>
cr ying</w>
con spir
cease fire</w>
boo k
at ically</w>
an ce
al ists</w>
account able</w>
Turnber ry,</w>
Roo t</w>
Reag an,</w>
Pra yer</w>
No vemb
LAM IC</w>
J ay
IS LAMIC</w>
GO OD</w>
F act</w>
Dis ney</w>
D ang
D Y</w>
CA RE
ALL ,</w>
@john boehner</w>
@da ve
@Trump National
@Rand Paul</w>
@Justin Rose
@FaceThe Nation</w>
#Trump Tuesday</w>
#No Ko</w>
# New
wind ow</w>
wa in</w>
veter ans,</w>
vers ary</w>
uc lear
u ght</w>
tit le</w>
ta ught</w>
ta pping</w>
sequest er</w>
se in</w>
per su
obam ac
m acys</w>
la s
ke ystone</w>
j r
j ames</w>
hu gh
fra struct
feat ure</w>
explo de</w>
dy s
du mb
de lu
cul ture</w>
const ant</w>
compet itors</w>
col lar</w>
co vers</w>
clint on,</w>
ce d,</w>
b ag
achi eved</w>
accid ent</w>
a ired</w>
Uta h</w>
Thurs day,</w>
Te d,</w>
Sm ith</w>
Ser ta</w>
Pla yed</w>
McC ain,</w>
Mac Le
MacLe od</w>
M un
K elly
ES P
Count y,</w>
Anni versary</w>
An ti
A h
@antba xter</w>
@Jere my
@Daily Caller</w>
10 th</w>
#Miss USA</w>
wa s
w art
up state</w>
tim es
territor y</w>
sub mit</w>
st al
st )</w>
sel fin
ri ots</w>
re tt
re fle
q :</w>
p ack</w>
over whel
out sour
or o
mist re
manufact ure
loc ker</w>
i sed,</w>
fle eing</w>
fil ming</w>
f loo
every ones</w>
dead ly</w>
d R
app ly</w>
a x
Wien er</w>
WOW ,</w>
T ony</w>
Ro dman</w>
O l
McC a
Lo ve
Jap anese</w>
Inste ad,</w>
Inde x</w>
Ho sp
Fil e:</w>
FANTAS TIC</w>
Emb assy</w>
D AC
Cho ice</w>
@P hil
@ lin
@ American
6 :00</w>
11 6%</w>
#N ational
# Donald
withdra w</w>
wel ry</w>
stic king</w>
stand ards</w>
sta dium</w>
sbur g</w>
pst evens</w>
pract ically</w>
ph y</w>
p s
p is
mit ted</w>
loy alty</w>
inver sions</w>
int enti
help ,</w>
green y</w>
f i</w>
effec tively</w>
cy c
comfor table</w>
bar rel</w>
automob ile</w>
art pstevens</w>
ann on</w>
_ wel
Univer s
Th at
Ter ri
St ar
S ab
OP E</w>
M I
In vit
IT E</w>
H ay
H OPE</w>
ER ,</w>
Chil dre
Ch ris
Bur nett</w>
@stu artpstevens</w>
@jack _wel
@W restleMania</w>
@MichaelCohen 212</w>
@CahlRStorri e</w>
@ Pre
1 )</w>
$6 T</w>
zz Fe
wonder ing</w>
tar ge
t ower
smar ter,</w>
sky roc
re less</w>
r ampant</w>
prestig e</w>
plac ing</w>
nomin ation,</w>
min d,</w>
k r
jap an</w>
il es
ignor ing</w>
fortun ately,</w>
fo ol
far mers</w>
est one</w>
di str
de ar</w>
cri sis,</w>
cha ir</w>
cal ia</w>
buil t,</w>
b by
al lis:</w>
air port</w>
accomplish ments</w>
W ollman</w>
V illa</w>
Shar k</w>
S calia</w>
Ru th</w>
Re present
Prote ct</w>
PL ACE</w>
O ver
Ne bra
K rav
Jud ge</w>
John ny
J Jacob
Ger many,</w>
G H</w>
Fi x</w>
FA IL
Enjo yed</w>
En dor
Comm and</w>
Chri s,</w>
Cater pillar</w>
C are
C GOP
Bar ry</w>
B RA
A venue,</w>
@karl rove</w>
@j ames
@W al
@V attenfall
@Trump Chicagos</w>
@Jennifer JJacob
@Jacksh allis:</w>
@Golf Magazine</w>
@DRUDGE_REPOR T</w>
@D aniel
@ ash
8 9:</w>
7 9:</w>
13 ,000</w>
#N CGOP
#ICYM I:</w>
y er,</w>
wif es</w>
vin ce:</w>
use less</w>
thri ve</w>
thou sand</w>
sur plus</w>
strong ly,</w>
str on
sne ak</w>
set backs</w>
ribu te</w>
renew al</w>
piec es</w>
pe ace,</w>
ov ations</w>
op pressive</w>
o k
mc cain</w>
m ust
investig ation,</w>
inC LE</w>
hun g
favor ability</w>
f it
ent :</w>
emb assi
embassi es</w>
cu mul
con cent
che aper</w>
ch ina,</w>
brut ally</w>
bl at
b it
at o
War ming</w>
V ine
Ton ights</w>
Se e
O ,</w>
L D
Gr and
Go ds</w>
GOP :</w>
Dru g</w>
Dou g</w>
Dann y,</w>
D ress</w>
Com ple
Co alition</w>
Any body</w>
Ad ministrations</w>
@nikki o:</w>
@l itt
@St Jude</w>
@RealSQUEZ Z:</w>
@Col in
we en</w>
war ning</w>
v ing,</w>
ta wire</w>
spre ading</w>
seni or</w>
sch e
s at
reprene u
preci ous</w>
outra ge</w>
loc ally</w>
lin es,</w>
kne eling</w>
itt :</w>
ing ton</w>
hand ling</w>
forgi veness</w>
fiel d,</w>
f o</w>
exc uses</w>
ene mi
end y
e tern
do s</w>
circum st
childre ns</w>
an them</w>
agree ment,</w>
Win ning</w>
Vic tor
S ir,</w>
Poll ,</w>
N ative</w>
Massachu setts</w>
Magaz ine,</w>
MA NY</w>
L AST</w>
Jon es,</w>
Ir an
In spir
Go d
E s
D onna</w>
D I
C AN
Al ready</w>
Ag ain
@to dd
@s outh
@ru sh
@msn bc</w>
@g ary
@M ay
5 1:</w>
#S C
twi st</w>
tact ics</w>
t une
sy m
so vere
sh el
sc ene</w>
run k</w>
ric her</w>
refu sing</w>
radic al
prote ster</w>
pol ice
police men</w>
p ,</w>
or y
ne gie</w>
mo thers</w>
loser s,</w>
liber als</w>
k el
j on</w>
i Phone</w>
her itage</w>
gu t</w>
flexi ble</w>
dec lar
de port
cr it
cor ner</w>
bren ner</w>
bl ames</w>
beli us</w>
b li
au dit</w>
asser man</w>
as set</w>
agen cies</w>
Wisconsin ,</w>
W asserman</w>
Te bow</w>
Ric o,</w>
Pub lic</w>
P fi
O HI
Mu barak</w>
Me yers</w>
Mc K
L ESS</w>
Kas ich,</w>
Irani ans</w>
I ce</w>
Hil ary</w>
GR AT
FLOR ID
FB I,</w>
En d</w>
Connectic ut</w>
CL INT
Bar r
Au tism</w>
Any thing</w>
A ve</w>
@ryanbush by:</w>
@d j
@Scott Walker</w>
@S T
@Ric hard
@J erry
@Ivanka Trump,</w>
@Citizens_ United</w>
@ fe
75 7</w>
#A sk
# usa</w>
# America</w>
thou ght,</w>
the tic
st own,</w>
shoot er</w>
re tr
pro growth</w>
present ed</w>
pi pe
pa c</w>
on es
nur k:</w>
night mare</w>
ne y:</w>
nam ing</w>
lifel ine</w>
le c
l ine:</w>
in na</w>
i fied</w>
hypocr ites</w>
hour s,</w>
gir ls</w>
gam e,</w>
ga ys</w>
fil i
emb rac
di e
decl are</w>
come di
bar ack</w>
ay lor
ap peal</w>
al ert</w>
W o
TH IN
Sy ste
Pro 4
Pal in</w>
P EN
Mon day,</w>
Lew andowsk
ICYM I,</w>
B ran
@the Real
@melani atrump</w>
@_S nurk:</w>
@Real Pro4
@Re ince</w>
@ ter
8 0:</w>
7 pmE</w>
7 1:</w>
$ 2
we ake
weake st</w>
warzene gger</w>
tou ched</w>
straight ened</w>
sh u
se ph</w>
re ll</w>
professi onal
ooo o</w>
myster y</w>
move ment,</w>
mor al</w>
min um</w>
ma ,</w>
loo k
li :</w>
l o</w>
instru ct</w>
in o:</w>
guaran te
geor ge
g ency</w>
ext end</w>
evangelic als,</w>
et :</w>
decla red</w>
cri ed</w>
cre ative</w>
con sum
cli ents</w>
ciu oli
anth ony</w>
_ P
Ur ciuoli
TR AD
TRAD E</w>
Sh ir
Ro ast</w>
N T</w>
HISTOR IC</w>
H R
H M
Disgr aceful</w>
Dak ota</w>
Com mission</w>
Broo k
Apolo gi
@jay len
@K e
@J en
@J Urciuoli
@Dan a
@Chris _
@CB N
@Billy Graham</w>
@ lau
@ andre
6 0:</w>
5 /
#IN Primary</w>
under standing</w>
un il
unil ater
unilater ally</w>
th rowing</w>
surpri sing</w>
sta ff
spir al</w>
so on,</w>
so aring</w>
s l
rys ler</w>
progr am
princip les</w>
no is
monstro sity</w>
min ster</w>
m ale</w>
lor d</w>
lin :</w>
li ars</w>
law suits</w>
k as
ill s
how ever,</w>
hand ,</w>
h all
gol d
four th</w>
fac e
ed itor</w>
dist ingu
di verse</w>
der ing</w>
col or</w>
cle an,</w>
bur g</w>
bu ffal
ategor y</w>
ar sen
an y,</w>
amate ur</w>
al leg
_R_ 2014:</w>
Wa ste</w>
W int
Ty son</w>
Tru ly</w>
TI ON
TERROR IS
Sam sung</w>
SA VE</w>
Rap id
N H
Is lands</w>
I M</w>
H S
Fa bulous</w>
C itiz
An na</w>
Al an</w>
@h annityshow</w>
@P h
@H igh
@D HS
@Chris _R_2014:</w>
@BornToBe GOP:</w>
@B yron
6 3</w>
6 00</w>
11 pm</w>
wiscon sin</w>
where ver</w>
un mas
tre ad</w>
ste d,</w>
sim pl
ru de</w>
ross ly</w>
religi on</w>
re s
pro ves</w>
point ed</w>
one y
on ly
ne west</w>
memor y</w>
https :
https: /</w>
hol d,</w>
g rossly</w>
fra gr
fac ilities</w>
exec ute</w>
equ al</w>
ep idemic</w>
eb ola</w>
dou ble
da ,</w>
d s:</w>
consider ation</w>
com mod
co operation</w>
co ol,</w>
citizen s,</w>
child care</w>
bureauc rac
bur n</w>
boo st</w>
ast ,</w>
arab ia</w>
any bodys</w>
anticip ated</w>
ann a:</w>
al tern
afric a</w>
ac le</w>
WOR K
W ounded</w>
VE :</w>
T ran
Sp ent</w>
S achs</w>
Ru dy</w>
Re public</w>
Pu nta</w>
Pri e
N _
N ESS</w>
L V</w>
J E
I de
Hus sein</w>
Hil ton</w>
Comm un
Carl son</w>
Californi a,</w>
Bro thers</w>
Abed ini</w>
@warrencas sell
@megynk ell
@l uc
@g ateway
@Yankee Run
@Jennifer75 AR</w>
@ ali
7 4</w>
6 9
5 3</w>
0 3
#vote trump</w>
#the apprentice</w>
z es</w>
wh ich,</w>
than ked</w>
th a
te sting</w>
ta ining</w>
sub mitted</w>
ste in
s oul
s at</w>
n st</w>
m iller</w>
lo ad</w>
lim its</w>
li by
leg s</w>
inform ation,</w>
in accurately</w>
ill u
hard ly</w>
gu t
golf ,</w>
genu ine</w>
g are
franch ise</w>
f erry</w>
ell s</w>
el _
e M
domest ic</w>
devast ation</w>
de value</w>
bow l</w>
bo ar
b loc
ach :</w>
Un til</w>
T OU
S av
Ro ves</w>
Put in,</w>
NY C,</w>
NR A</w>
NO V
Mary land</w>
M r
Le ad</w>
K ates</w>
H oo
Gu y:</w>
Gol den</w>
Fri end
Fi ve
F ur
D G
Cor por
Col um
C ir
@m iss
@kimguilfo yle</w>
@jack_wel ch</w>
@Turnberry Buzz</w>
@Mari a
@Lin da
@All en
@ Letterman</w>
9 11</w>
5 2:</w>
#Puerto Rico</w>
watch es</w>
up date</w>
the red</w>
smal lest</w>
si mil
simil ar</w>
sar inna</w>
roll s</w>
right :</w>
resto red</w>
regu lar</w>
pri orities</w>
predic tions</w>
persever ance</w>
ob stru
m y,</w>
lam s</w>
k y:</w>
k ansas</w>
in correctly</w>
foolish ly</w>
de sig
cre w</w>
clu b,</w>
at lantic</w>
ant i</w>
annas cot
and Sil
alab ama</w>
al ways,</w>
ac o
Wat erg
Wal do</w>
W I</w>
P AS
Mer kel</w>
Ma instream</w>
M B</w>
K ir
Hispan ic
Halper in</w>
Gold berg</w>
FLORID A</w>
ER E</w>
E ff
DOW N</w>
Charlott e,</w>
C ow
C ard</w>
Angel a</w>
Am ong</w>
@w ill
@ros annascot
@li sarinna</w>
@bob by
@Pau la
@N icole
@Diamond andSil
@ mag
9 7:</w>
8 :30</w>
# Y
yO dd
yOdd Do
ven i
tren ding</w>
th ing:</w>
th en
spn greeny</w>
sp ring</w>
smar ts</w>
sen :</w>
selfin spe
se en,</w>
sad ly</w>
retur n,</w>
pre fer</w>
pot entially</w>
positi ve,</w>
op o
mom ents</w>
mani ac</w>
k ie
jail s</w>
hor iz
h ang
good ness</w>
gener al,</w>
fin al,</w>
experi enced</w>
determin e</w>
cra z
cr on
cho ices</w>
ch urch</w>
c roo
bro ad</w>
best sell
b lowing</w>
aw ful</w>
au mont
at mo
artic le,</w>
amp an
WE E
W ed</w>
W ALL,</w>
Vet s,</w>
U P
Spr ing
Resear ch</w>
RE BUILD</w>
Off icial</w>
N uclear</w>
Mand ate</w>
Li yuan</w>
Lee za</w>
K om
K at
Han del</w>
Gu ard,</w>
Graham Cassidy</w>
FU L
Count ry
Contro l</w>
Cap tain</w>
Can ada,</w>
C at
C _
Bor der,</w>
Bergdah l,</w>
B ought</w>
Am y</w>
AMERIC A,</w>
@scot t
@rush limbaugh</w>
@m y
@Ver yOddDo
@S an
@J u
@E spngreeny</w>
@Bra vo
@Be aumont
2 9:</w>
, but</w>
# you
# Fake</w>
win s,</w>
war mest</w>
vaccin ations</w>
u u
t at
sub sidy</w>
stup id,</w>
rejec ted</w>
puppe ts</w>
pu b</w>
prote sting</w>
ow ns</w>
ion age</w>
inher ited</w>
identi fy</w>
ichel le
i as</w>
happ y,</w>
gun s,</w>
girl friend</w>
fias co</w>
e ed</w>
deni ed</w>
conspir acy</w>
co hosting</w>
co aches</w>
co ,</w>
civil ians</w>
b er,</w>
ast on
an ge,</w>
agree ing</w>
abu sed</w>
a sion</w>
a res</w>
US A,</w>
TI AL</w>
TER ,</w>
Swe den</w>
SECU R
SECUR ITY</w>
R ice</w>
R ho
PP P</w>
O prah</w>
O ne
Ne arly</w>
N ick</w>
Jona than</w>
Jami el</w>
Hor rible</w>
Her man
Er nie</w>
B rav
@The Big
@L aw
@Hou se
@ golf
@ 5
9/ 8
9 4:</w>
5 5:</w>
$ 100,000</w>
y ce
ww w</w>
trave sty</w>
ti ps</w>
ste el
sel ves,</w>
scre ening</w>
s lightly</w>
s cap
ro tt
rat ing
ra ve</w>
pu ty</w>
pl un
ph y
pa w
organiz ations</w>
onz ale
off ended</w>
non exist
mic hig
ket Challenge</w>
id ing</w>
hor se</w>
high ways,</w>
f oun
er ly</w>
ell a</w>
ce Buc
ceBuc ketChallenge</w>
cam p</w>
atic an</w>
appla ud</w>
an o:</w>
ab c</w>
Yester day,</w>
Se a</w>
Schum er,</w>
SP ER
Ra is
RE M
REM EMB
PRO SPER
P OW
O ak
Ma dison</w>
MER RY</w>
K S
Hot els</w>
Holi day</w>
Ha iti</w>
Giuli ani</w>
G abri
E ll
Char le
Capit ol</w>
Brand i</w>
Bec k</w>
B an</w>
Arizon a,</w>
App ro
An n</w>
Afghanist an,</w>
A nt
@sh el
@ch ri
@NY C
@EricTrumpF dn</w>
@Bu zzFe
@ autism
@ Ge
4 9
11/ 8</w>
10 :30</w>
#US A
# President
upd ates</w>
un happy</w>
to ols</w>
tax es
stud ent</w>
some how</w>
scrip ts</w>
s weet</w>
regul atory</w>
pres sing</w>
pe d,</w>
p raised</w>
o il
mes s,</w>
ix teen
inform ative</w>
hom eland</w>
guest s</w>
g le</w>
fun )</w>
form ul
even ing,</w>
ev il
entertain ment</w>
ear ning</w>
cru shing</w>
cron ies</w>
cri ppled</w>
concer ned,</w>
bo ston</w>
air s</w>
act ual</w>
ab y
_ F
W T
Sun day,</w>
S EN
Incre ase</w>
I rish</w>
H ILL
Gru ber</w>
Go d,</w>
Disa ster</w>
D ro
Crime a</w>
C Y</w>
Br illiant</w>
Bo ssi
Ac cess</w>
@TheBrody File:</w>
@T ea
@StephenBaldwin 7</w>
@S ixteen
@ ev
5 4</w>
5 3%</w>
( but</w>
we ,</w>
wal ks</w>
wa ge</w>
sleep y</w>
respon ded</w>
re ness</w>
qui et</w>
pas sport</w>
p enn
over looking</w>
nan de
loc ation,</w>
le eb
k jm
k en,</w>
k arl</w>
journ alist</w>
hurrican es</w>
head line</w>
for ce
fin ding</w>
fail ing,</w>
ere ,</w>
disgu sted</w>
dic t
cart els</w>
camer a</w>
c cable</w>
bor row
be ar</w>
ar mstrong</w>
an other,</w>
Worl ds</w>
Sheriff s</w>
Ser vic
S is
Ri ver</w>
R el
R S</w>
R IN
Pl anned</w>
Part y
P aren
O THER</w>
Nab isco</w>
N M
Milit ary,</w>
Medic aid</w>
McCa be,</w>
MA J
J r
Invit ational</w>
In competent</w>
Fla ke,</w>
E manu
D ie
Co st
Cl are</w>
BE TTER</w>
A OL</w>
@eric leeb
@Ste ph
@R i
@G lenn
@ sk
@ 11
77 7</w>
7 ,
5 6:</w>
11 %</w>
( even</w>
# i
victor y,</w>
v a:</w>
under take</w>
tun nel
tunnel s,</w>
treat y</w>
tr actors</w>
tal lest</w>
subscri b
subscrib ers</w>
scot t</w>
saf e,</w>
ric h
ren aw
renaw illiams</w>
pract ices</w>
ot us</w>
nt ,</w>
ne y,</w>
n s
mom s</w>
man Johnny
lea se
is manJohnny
ili ated</w>
ere mony</w>
emb ar
develo per</w>
desi re</w>
de but</w>
controversi al</w>
bul lets</w>
ber g
au to</w>
aberde en</w>
Wil son</w>
Trum an</w>
R ud
R ory</w>
R asmus
Milit ary
May weather</w>
Matt is</w>
Ma de
J U
I P
Europe an</w>
E ver:</w>
E isen
Car negie</w>
C eremony</w>
Bro ad
Bo ehner</w>
B ILLION
@se renawilliams</w>
@p otus</w>
@m i
@gre g
@dc exam
@Tal ismanJohnny
@D NC</w>
@ wash
@ si
@ fu
@ Ag
un k</w>
tremend ously</w>
sym path
stru ck</w>
sto res</w>
spea k,</w>
so :</w>
sa y:</w>
robb ing</w>
resid ents</w>
reas ons,</w>
poll ed</w>
pan els</w>
matt ress</w>
mat eri
ly News</w>
ley R
l ate,</w>
k il
is land</w>
inve sted</w>
int ention</w>
hung ry</w>
gi ant</w>
f ru
employe e</w>
dud es</w>
destro ye
de ll</w>
d ul
crit ic</w>
contribu tion</w>
collu ded</w>
catastro phic</w>
be n</w>
ac cumul
W inter</w>
Tal king</w>
T ha
Stein brenner</w>
Se belius</w>
Romne ys</w>
Rig ged</w>
REFOR M</w>
P lu
O li
Night lyNews</w>
Nev ada,</w>
NC inCLE</w>
M ILLION</w>
J ind
GREAT NESS</w>
G um
F ound
F R
Crimin als</w>
C hamp
Ad am
AB LE</w>
@wolf bl
@seth meyers</w>
@jo h
@j e
@b dean
@R ust
@NBC NightlyNews</w>
@N ic
@I ts
@CahlRStorri e:</w>
@A F
@ love
201 5:</w>
0 8
#R NCinCLE</w>
# w
# ISIS</w>
youn g,</w>
witnes sed</w>
wa ges,</w>
v ity</w>
untru e</w>
unmas king</w>
univer sity</w>
un lim
tt y
tr o</w>
th ir
test im
ta unt
stat ute</w>
sp erson</w>
s wit
s wi
requi red</w>
repreneu rial</w>
pup il</w>
pig gy</w>
per pe
ob ses
nois y</w>
n it
mel tdown</w>
mat erial</w>
master mind</w>
li mit</w>
league truth</w>
lea ve,</w>
l ers</w>
in king</w>
in _
id es</w>
heart felt</w>
gain s</w>
for ce,</w>
fla gs</w>
don ating</w>
don ated</w>
diplom atic</w>
da u
cre dible</w>
compla ints</w>
busines sperson</w>
be little</w>
b acking</w>
alu minum</w>
_ e
TO P</w>
Stu dy</w>
Show :</w>
Sen i
SING LE</w>
Rod erick</w>
Qu in
Pr om
Pat ak
NE D</w>
NB A</w>
L 7
G ran
G M</w>
Fin ale</w>
E B
De finitely</w>
D own</w>
C OU
Buffal o
Ari anna</w>
@w oo
@trump winery</w>
@foxand friend
@Shawn Johnson</w>
@Ro b
@P ro
@ML B</w>
@M ail
@M ag
@Gre tawire</w>
@E SP
@ so
@ 2014
@2014 _
3r d,</w>
3 00
#big leaguetruth</w>
wi sely</w>
wa its</w>
us my
usmy 8</w>
uni fi
unifi er</w>
threat ens</w>
sor ry,</w>
se g
rough ly</w>
right s,</w>
repor t,</w>
reduc ed</w>
qu est</w>
possi bility</w>
pl usmy8</w>
penal ties</w>
pati ents</w>
pati ence</w>
pa rent</w>
p in
one third</w>
on y:</w>
n arr
mist ry</w>
mean time,</w>
loy d
lo se,</w>
judg ment,</w>
jud ge,</w>
journal ists</w>
h rs</w>
gri d
govern ments</w>
for prez</w>
ex oner
er ri
end ure</w>
do ors</w>
devalu ing</w>
devalu ation</w>
corru pt,</w>
conventi on,</w>
che mistry</w>
che ated</w>
char ge,</w>
cha se</w>
ch uck</w>
boom ing</w>
b t</w>
b enghazi</w>
at en</w>
arrog ant</w>
al o
advis ed</w>
ac knowle
ac id</w>
a waiting</w>
WR ONG</w>
Veter an</w>
T wain</w>
Saras ota,</w>
Rose _
Re marks:</w>
RA IS
R oll
Pro claims</w>
Op ening</w>
OL D</w>
O t
Me gan</w>
M IL
Lett er
Kur tz</w>
Jo seph</w>
Jo di</w>
HU GE</w>
Gre g
Govern ors</w>
G len
F all</w>
EX CL
EXCL US
E :</w>
Christ ma
Brit ain</w>
@warrencassell jr:</w>
@mit ch
@jam ie
@T V
@Pete Rose_
@Gov Mike
@A b
@ george
9 00</w>
6 0%</w>
18 th</w>
#TimeToGet Tough,</w>
#F ree
wast es</w>
wa ited</w>
us ForTrump</w>
tr ading</w>
tempor ary</w>
tele cast</w>
sto ck
statist ics</w>
sh or
sh all</w>
se t,</w>
russi an</w>
ru p
rout ine</w>
rhetor ic</w>
renov ated</w>
pro c
proc ess,</w>
per ver
oun ded,</w>
ne ys</w>
mo re:</w>
mat h</w>
li ot
l ink</w>
k le
k 1:</w>
is c
insid ers</w>
ight :</w>
i er:</w>
husb and,</w>
ho sts</w>
gin e
for me
finan cing</w>
fin ish
feel ings</w>
factor ies,</w>
ex posing</w>
educ ational</w>
disav owed</w>
democr atic</w>
delu si
da r</w>
critic ize</w>
conf eren
commun ities,</w>
bur ning</w>
back grounds</w>
auc usForTrump</w>
ap p</w>
ag n
W acky</w>
THIN K</w>
Spe ctacular</w>
Sha wn</w>
Rapid s,</w>
RE PLACE</w>
O w
Len o</w>
JF K</w>
D Cs</w>
Advis or</w>
A stor
A Z</w>
A IL
@ter rel
@oreilly factor
@jaylen o</w>
@d m
@Vattenfall Group</w>
@To dd
@T aylor
@CBN News</w>
@Brand en
@BB C
8 pmE</w>
7/ 365</w>
7 0%</w>
6 ,</w>
47 %</w>
24/ 7/365</w>
#C aucusForTrump</w>
# donald
# Pe
ys lu
wi ped</w>
wh at
ve to</w>
tt a</w>
test ify</w>
smo oth
simp lif
ris ks</w>
ret ary
re venue</w>
re de
re acts</w>
purpo ses</w>
pupp yslu
provi ding</w>
prom oting</w>
prestig ious</w>
pl z</w>
past or</w>
p ard
p _
on es,</w>
now :</w>
night 27
n s,</w>
mi ght
mb ling</w>
lu ther</w>
li ff
l ate
know s,</w>
ke y:</w>
ka ine</w>
itari an</w>
introduc e</w>
insp ires</w>
inc ess
inaugur al</w>
http ://t</w>
ho l</w>
hear d,</w>
g rid</w>
g ard
expla ins</w>
excell ence</w>
ende avor</w>
el ed</w>
ec o
dil ig
defen se,</w>
cu ts,</w>
crow n</w>
c ell</w>
business man,</w>
blo ws</w>
audi ence,</w>
architec tural</w>
al ity,</w>
ad ore</w>
Terri fic</w>
Pro ject</w>
O thers</w>
Mar ia</w>
Lor d:</w>
LG BT</w>
LE S</w>
Jupit er,</w>
Golf :</w>
Fu ture</w>
Fran ce,</w>
ELE CTION</w>
E P
D ol
Bald win</w>
Ba be</w>
B all
@k rist
@cal eb
@Sen John
@Sec retary
@R u
@NY Times</w>
@K night27
@K im
@Joe NBC:</w>
@J ust
@Antoni o
@ sin
@ puppyslu
9 6:</w>
7 5:</w>
#Deb ates</w>
# Jo
vid es</w>
thought s,</w>
ten sion</w>
ta il</w>
t opped</w>
st s,</w>
st ream</w>
some place</w>
sc ar
ru s
qu al</w>
pro vides</w>
politici an,</w>
poc kets</w>
part ner
n ite</w>
n af
michig an</w>
mat ched</w>
man ia</w>
man age</w>
ital ism</w>
inv aded</w>
im ports</w>
house hold</w>
golf er</w>
gla ss</w>
g ile</w>
freedom s</w>
fra gile</w>
fat al</w>
face book</w>
expect ations</w>
esp ionage</w>
e ating</w>
disapp oint</w>
de ad,</w>
critic izing</w>
conserv ati
com /
che er
bor rowing</w>
aw fully</w>
arsen al</w>
ar ry
ar m
applic ation</w>
al ie
acqu ire</w>
U r</w>
Str ate
Roc ke
Rasmus sen</w>
Pr ince</w>
PR OTE
PROTE CT</w>
PA TRI
OW A</w>
Michig an,</w>
Mat the
Lo ving</w>
Lew is</w>
Hi stor
G ang</w>
Fo rum</w>
F av
E qual</w>
E P</w>
Crow d</w>
Bu shes</w>
B illy</w>
AMERIC ANS</w>
AB OUT</w>
@rodmonium 91:</w>
@ny jets</w>
@k en
@j r
@Rock in
@NR A</w>
@ gh
@ Deb
8 7
6 /
4 Trump</w>
11 :30</w>
0 ,</w>
z e:</w>
vision ary</w>
vacc ine</w>
vac ation
univer sal</w>
ta in
spon s
so il</w>
s ought</w>
revolu tion
request s</w>
possi ble,</w>
perpe tr
par ade</w>
om ar
ning_ joe</w>
k se
journal ism</w>
innov ative</w>
incredi bly</w>
il er</w>
i ed</w>
horiz ons</w>
gu l</w>
g it
ex t,</w>
et s
emplo yers</w>
ele ction
e dy</w>
discus sions</w>
dig lanville</w>
d ing,</w>
com :</w>
chec ked</w>
can t
bureaucrac y</w>
brief ing</w>
benef ici
answ ering</w>
al s
agen da,</w>
ad ic
V atican</w>
U g
Pittsbur gh</w>
NY Cs</w>
N ice
N ation
MON E
LOW ER</w>
L a</w>
Ed ward</w>
D rain</w>
Chief s</w>
C F
Be ij
ATION S</w>
@sha wn
@mor ning_joe</w>
@ke kse
@esp n</w>
@d al
@bran diglanville</w>
@YankeeRun ner
@US GA</w>
@J ess
@ Christ
@ 6
8 7:</w>
( for</w>
$5 9</w>
# golf</w>
x x
wor ship</w>
weak ening</w>
we re,</w>
w art</w>
ty pes</w>
tra de
tr icks</w>
sett lement</w>
sa id
s i</w>
rist s</w>
reg ard
prof ess
ple mon
plemon Le
our ne,</w>
or lan
oper ations</w>
no ti
ni e,</w>
m ile</w>
lea ker</w>
la zy</w>
incid ent</w>
in er
ha m,</w>
gr acious</w>
gi es</w>
ge l</w>
for ward,</w>
f lu
examp les</w>
el y,</w>
el ites</w>
e y:</w>
e ding</w>
dra w</w>
dr ama</w>
do ch</w>
compla in</w>
co oper
cha irman</w>
b ast
ate _
as ks</w>
anim als</w>
_ _:</w>
Wal k</w>
The Deal</w>
TV s</w>
St ory</w>
S atur
Pal mer</w>
Not ice</w>
Negoti ation:</w>
Mot ors</w>
M oo
Le ads</w>
KE AMERIC
KEAMERIC A
KEAMERICA GREAT
Inve st
H onest</w>
Fin al</w>
FREE DOM</w>
F AC
DON E</w>
C RU
Blasi o</w>
@realDonald Trump
@jd ickerson</w>
@j j
@P er
@K en
@Joe Biden</w>
@AnnCoul ter:</w>
@A plemonLe
@ that
4 0:</w>
0 9
#MA KEAMERICAGREAT
valu es,</w>
tu bes</w>
tow ers</w>
th urs
test ament</w>
tal king,</w>
sur face</w>
spe cially</w>
scienti sts</w>
rist ot
ri k
re ti
plan e,</w>
phenomen on</w>
per forming</w>
onal ly,</w>
mo th
memor ial</w>
long time</w>
li mit
less ness</w>
ke v
in a:</w>
hot el,</w>
fal se,</w>
ers on,</w>
eni us</w>
dri ven</w>
discipl ine</w>
d alla
correct ness</w>
colum n</w>
colle ct</w>
bur g,</w>
bro therhood</w>
bra very</w>
be long</w>
ba th
appla use</w>
and a</w>
all eng
Win ners</w>
Waterg ate</w>
Sig ning</w>
Per ino</w>
P av
P an</w>
Nor fol
Mo ve</w>
Ma ke
LE A
IN A</w>
Hy pocr
Hou ston</w>
Holi days</w>
G ow
G enius</w>
F IGHT</w>
C ities</w>
Bar ron</w>
An them,</w>
Ab bot
@ro sie</w>
@c raig
@autism speaks</w>
@Kat rina
@K atie
@Dana Perino</w>
@Apprentice NBC,</w>
7: 00
44 %</w>
4 ,</w>
z u</w>
z ation</w>
yr shire</w>
y no
y n</w>
up s</w>
succe ed,</w>
st ill,</w>
sp here</w>
se y,</w>
sac red</w>
ripp led
rippled America</w>
repor ter,</w>
ra f
qu arters</w>
pow ers</w>
por t,</w>
p debate</w>
op s
op pose</w>
o s,</w>
narr ative</w>
n _
manag ing</w>
li king</w>
itu de,</w>
investig ating</w>
intere st,</w>
in o,</w>
implement ed</w>
impe ccable</w>
ide olo
hou ses</w>
he re
hau l</w>
ha ck
gu e
fe ed</w>
fat al:</w>
exemp t</w>
ex pression</w>
ex pose</w>
enthusi ast
distor ted</w>
cu z</w>
croo k</w>
cr an
confid ential</w>
co ast
chan ger</w>
cali for
bu mp</w>
bra gg
bo at</w>
atmo sphere</w>
an L
all on
acknowle d
ab ility,</w>
a wake</w>
Worl d,</w>
WW II</w>
WS J</w>
V IC
VIC TOR
Ta ylor
T zu</w>
Solyn dra</w>
Ser gi
Sep t</w>
Sand ers,</w>
SPIR IT</w>
Ro ck</w>
Repub s</w>
Re ince</w>
Re form,</w>
Pocahon tas</w>
Po or</w>
P acked</w>
P GA
Novemb er,</w>
N ation,</w>
Lar ge</w>
L T
Kati e</w>
Isra eli</w>
Iraq i</w>
Gu ys</w>
Frank ly,</w>
FL :</w>
F ra
Exclu si
Ex press</w>
De ere</w>
DOLL ARS</w>
Con f</w>
Brad y,</w>
Bo ard
Aberde enshire</w>
AT S</w>
@maathew davis:</w>
@TM Z
@Nat asha
@Mail Online</w>
@K ier
@C la
@C ap
@ il
@ ho
@ ex
: Trump</w>
5 7</w>
4 3</w>
3 :00</w>
11 ,</w>
, and</w>
#Pe arl
#C rippledAmerica</w>
# go
# President</w>
y l</w>
where ,</w>
ut ing</w>
truth ful</w>
temper at
technolo gy</w>
taunt ing</w>
ta s:</w>
t itude</w>
si :</w>
sad ,</w>
sa ve
reve als</w>
r an,</w>
question s,</w>
prof ile</w>
power ful,</w>
p Gra
pGra f
ough :</w>
o cr
new ly</w>
ma il</w>
ma g</w>
li ssa</w>
la ke</w>
ket el
ketel tas:</w>
insu red</w>
har m</w>
hand ing</w>
ha w
formul a</w>
fin e,</w>
ex ists</w>
enter prise</w>
demo s</w>
d y:</w>
ct u
convic ted</w>
con veni
co stly</w>
ch u
car ing</w>
c hampionships</w>
bru tal
ant :</w>
am ac
_ W
_ Li
Z ucker
Y OR
YOR K</w>
W I
Ter ror</w>
T LY</w>
Sus an</w>
Pro sp
PRE Z</w>
O K
Nu mbers</w>
News week</w>
Mac r
LI GH
Jo seph
EVERY THING</w>
DAC A</w>
Bel ich
B rown</w>
Apprentice 9</w>
Aberde en,</w>
@j eb
@The Apprentice9</w>
@T pGraf
@Ro ger
@R keteltas:</w>
@M J
@Land Expo</w>
@L a
@Di ane
@C al
@Bill Maher</w>
@B lu
@ You
@ QVC</w>
8 3</w>
3 5:</w>
20 Summit</w>
2 %,</w>
$200 M</w>
#USA at
#G 20Summit</w>
wi shing</w>
w ounded,</w>
view s,</w>
tri ple</w>
ter s
tari ff</w>
ta ins</w>
squ an
squan dered</w>
sol ar</w>
signific antly</w>
sen ses</w>
se arch
se )</w>
scap e</w>
sacrific es</w>
re ven
poll ster</w>
par is</w>
p ill
opp ins</w>
obstru ct</w>
nonexist ent</w>
no x
nest y,</w>
n ail
mo cking</w>
medi a)</w>
jo an</w>
id ed</w>
hom es</w>
head ,</w>
grid lock</w>
global ism</w>
fuc king</w>
frastruct ure,</w>
form erly</w>
endorse ment,</w>
ear th
downgr aded</w>
dest ined</w>
concent rated</w>
comedi an</w>
bb on</w>
anke e</w>
amaz ing
ag ency</w>
addre ssing</w>
account s</w>
_ t
Wal ter</w>
Str ange,</w>
S ony</w>
Ris es</w>
P C</w>
Off ici
Obamac are
N ice,</w>
Mes sage</w>
MA ,</w>
M an,</w>
Lo ck
K en</w>
Identi fy</w>
Gre atest</w>
G az
Fla ke</w>
Fe w</w>
Da vi
Asi a,</w>
Anth ony:</w>
@ro bert
@e mily
@d u
@W endy
@W arren
@S ir
@M ad
@E rin
@AG Schneider
@ sc
6 pm</w>
# NewYork
# Me
us an
tru ck
tr a</w>
tir omo</w>
t ours</w>
stop ,</w>
soci alist</w>
sleep ing</w>
sh opping</w>
sc ary</w>
s es,</w>
re moving</w>
qu o</w>
qu it,</w>
pl ate</w>
persist ence</w>
pat ter
ount ain</w>
or ies</w>
moti vate</w>
me mo</w>
margin s</w>
im withyou</w>
hi b
h h
ght ers</w>
g ru
f lies</w>
er /
dou bling</w>
disav ow</w>
dis like</w>
dic t</w>
defic it,</w>
de cade
dau ghters</w>
compu ters</w>
c ted,</w>
c and
ates Law</w>
appro ach</w>
air ,</w>
aff ec
advan cing</w>
ac tion,</w>
_ 1:</w>
You Tour
YouTour 2016</w>
Te a
TER S</w>
T ICE</w>
Sc and
Saud is</w>
REN TICE</w>
Patri ot</w>
Pat rick</w>
Man a
M ir
M en
M IS
Kra ft</w>
Fe b</w>
Fa ith</w>
FL ASH
C ouldnt</w>
Bar tiromo</w>
Ail es</w>
APP RENTICE</w>
@theReal Kiyosaki</w>
@m c
@kyleracci o</w>
@j en
@The Econom
@J B
@Fa ith
@Aberde en
@ Nor
9 1</w>
#VoteTrump SC</w>
#Thank YouTour2016</w>
#POTUS in
#K atesLaw</w>
#C NN</w>
# imwithyou</w>
world wide</w>
wor se,</w>
wom an
we b</w>
vin :</w>
u gg
u a
tou ches</w>
the mat
shback Friday</w>
ri p
pro spe
possi bil
pol is</w>
pa ir</w>
oy aj
oyaj ack
oyajack son</w>
mp 2016</w>
mar k,</w>
m al
lat oyajackson</w>
la shbackFriday</w>
iz ed,</w>
in secure</w>
in fo
hypocr ite</w>
hear ings</w>
gro ws</w>
g d
fol lows</w>
di er
deta iled</w>
con secu
borrow ed</w>
beli ef
bare ly</w>
bab y,</w>
and friends</w>
age :</w>
ag ent</w>
advis er</w>
activ ities</w>
WH O</w>
VI DE
See ms</w>
SUPPOR T</w>
SH I
S id
Me an
MAJ OR
Lear ning</w>
IR E</w>
ING ,</w>
H un
Ent repreneur</w>
E yes</w>
Deb bie</w>
D one</w>
Core y</w>
Co oper</w>
Car l,</w>
CA R</w>
Board room</w>
Bo y,</w>
Blu e
Australi a,</w>
A ppreci
@ric hard
@john rich</w>
@Tim Tebow</w>
@Forbe s:</w>
@F ore
@Drake444444 4:</w>
@ latoyajackson</w>
@ er
@ Netanyahu</w>
@ 9
8 2</w>
6 5
6 1:</w>
4 1:</w>
3 2%</w>
12 ,</w>
$ 200</w>
#VoteTrump Pence16</w>
#F lashbackFriday</w>
y on
week end,</w>
v p</w>
ur able</w>
tu red</w>
ton es</w>
su ites</w>
ster :</w>
speci fic
si mul
si ble</w>
s it
reg ard</w>
read s</w>
re vo
po ol</w>
om bi
off ice
mo ther,</w>
mo b
mb ly</w>
m ens
le b
kis son</w>
je op
ignor ance</w>
hot test</w>
hop es</w>
gra ham</w>
g s
freedom ,</w>
fo ot</w>
emp ha
con c
compu ter</w>
ci a</w>
bo i
aven ue</w>
av y
art :</w>
ar a</w>
ali ke</w>
ag ing</w>
addic ted</w>
ac col
a side</w>
West chester</w>
W on</w>
W ELL</w>
Un der
The Donald</w>
T yl
T old</w>
Start ing</w>
Sta ying</w>
Ren o,</w>
RES S</w>
POR T
NBC s</w>
L an
IL LEGAL</w>
GEN ER
G erman</w>
Euro pe,</w>
Eas y</w>
EN OU
De puty</w>
Bo ys</w>
Apologi ze</w>
@trump tower
@ronmeier 123</w>
@hillary clinton</w>
@Su per
@P I
@L ady
@JUrciuoli 19:</w>
@D oug
@Co ach
@ mb
@ ObamaCare</w>
7 2:</w>
5 8</w>
5 8
5 4:</w>
2 20
#MAKEAMERICAGREAT AGAIN</w>
swe at</w>
sur ging</w>
slea zy</w>
sin sider</w>
see king</w>
school ,</w>
rel ent
reas on:</w>
reas on,</w>
re view
rat es,</w>
rac es</w>
ra y,</w>
pu mp</w>
polic e,</w>
particip ation</w>
over turn</w>
o se
mo ve,</w>
manu fac
m ou
ly )</w>
izz _Li
itor i
issu e,</w>
insul a</w>
ing er
him self,</w>
har sh</w>
gold 19
fac es</w>
f illing</w>
erry gold19
enemi es,</w>
eli gible</w>
e mployment</w>
cti onal</w>
contr actors</w>
ci ous</w>
cap it
ca sts</w>
al d</w>
Youn g
Y u
Win dy</w>
Tro jan</w>
Spe ak</w>
Spa in</w>
SUCC ESS</w>
S wa
S ing
S ign</w>
R um
Primar ies</w>
Melb ourne,</w>
Hosp ital</w>
Gir l:</w>
ESP N</w>
Connectic u
CLINT ON</w>
CAR SON</w>
CAN NOT</w>
CA USE</w>
Business es</w>
Ber ger
Ander son</w>
@se ank
@real D
@piersmor gan:</w>
@k errygold19
@bri thu
@bdean 14
@Z ac
@R izz_Li
@E mily
@Best Berger
@2014_ vince:</w>
3 /
$1 7
ys is</w>
w g
tu be</w>
tri gger</w>
treas ure</w>
tou rism</w>
thou se</w>
sma vs</w>
seas on
ro gue</w>
respon d
repe aling</w>
renc y,</w>
recor ds,</w>
re ne
ra vel
r t
pre e
ol f</w>
mo squ
mexic an</w>
m er:</w>
ll s</w>
le e</w>
la dies</w>
l y:</w>
ire land</w>
ignor ant</w>
i g</w>
i _
hi ke</w>
h eck</w>
gi a</w>
for th</w>
finish ed,</w>
er adic
ent repreneurial</w>
dop es</w>
do b
dec ade</w>
de au</w>
d ads</w>
cou l
circumst ances</w>
certi fied</w>
bureaucr ats</w>
buffal o</w>
ath er,</w>
apologi es</w>
any ones</w>
anal ysis</w>
al ago</w>
Z ucker</w>
Vir gin</w>
Tru deau</w>
Toge ther</w>
T rad
Si x
S lo
S entin
ObamaC are
Ma fi
M ILLIONS</w>
Gran ite</w>
GRO W
Fu n</w>
Fal se</w>
F LIGH
Ex tre
Ex plain</w>
Dar k</w>
Cor ps</w>
Comm erce</w>
Ar kansas</w>
AF TER</w>
A wa
@dalla smavs</w>
@Mr s
@Mar co
@Kate plusmy8</w>
@JustinRose 99</w>
@GovMike Huckabee</w>
@Golf week
@David_ Cameron</w>
@BuzzFe ed</w>
@Branden Roderick</w>
@ ell
#trump 4
#2 A</w>
# team
yper ry</w>
witnes sing</w>
we ather
w/ you</w>
v an</w>
tu re
traff ic</w>
tra ined</w>
ton ite</w>
t r</w>
stand point,</w>
sho es</w>
ship s,</w>
sever al</w>
s ound
restle mania</w>
re tired</w>
publish ed</w>
prev ent
or gan
n on</w>
lin _
in s
in ev
hand s,</w>
han g</w>
h ower</w>
g li
for tune
f inger</w>
extre mis
endor ses</w>
en rich</w>
deleg ates,</w>
d ry</w>
commit te
ble eding</w>
ber g:</w>
b ounds</w>
awa reness</w>
auth or
at ers</w>
ant ar
ak es
aT antar
_ b
Val ues</w>
Th rough</w>
T wee
T OLD</w>
S ER
Re pub</w>
Quest ions</w>
Pro f
Philadelphi a,</w>
OHI O</w>
OB AMA</w>
Le is
K n
HR C</w>
FRE E</w>
Ex cept</w>
Ebol a,</w>
C lo
C ame</w>
Ba gh
Ar my
An nu
AS E
@ste ph
@st even
@m acy</w>
@kat yperry</w>
@k yle
@its Ryan
@greta :</w>
@br and
@PeteRose_ 14</w>
@M ichelle
@John ny
@Jim _
@JenniferJJacob s:</w>
@H el
@Ber nie
@Andre aTantar
@ Washing
9 9%</w>
$4 00
$25 ,000</w>
win e</w>
vil le
umb ia</w>
u h
trans ition</w>
thurs day</w>
th or
te ar</w>
t _
stor y
some what</w>
ra geous</w>
r r
pi o
ol low
o s:</w>
nam e,</w>
mu ch
mon um
mb a
ly Address</w>
low ens</w>
ll is</w>
lev d
las vegas</w>
la h</w>
k night</w>
k elly
k _
istr ic
int en
gu tt
gre es</w>
gh me
f /
es ser:</w>
ep it
eli zabeth</w>
e gy
dise ase</w>
descri be</w>
deb ating</w>
de grees</w>
d nc</w>
cour t
co ck
attend ance</w>
af rican
a ghme
Week lyAddress</w>
Vot er</w>
U T
Tal ks</w>
Resol ve</w>
Res ul
OFF IC
Nebra ska</w>
N AME</w>
Me lissa</w>
Mat ti
J _
IT ION</w>
Hou se
Fin ance</w>
ES S
ES 2017</w>
Donald s</w>
Donald Trumps</w>
Detro it,</w>
Dem and</w>
D istric
Campa ig
CRU Z</w>
C rown</w>
Bru ce</w>
Bro ther
Bec k
Again st</w>
@thebla ze</w>
@terrel lowens</w>
@seank esser:</w>
@litt levd
@k ing
@g lenn
@fits news</w>
@bri an
@bo ston
@The View</w>
@P r
@N H
@ wa
@ ak
3 50</w>
25 ,000</w>
12 :
10 3</w>
* *
#St and
# ask
# WeeklyAddress</w>
y es:</w>
w en
vic h:</w>
tri ump
telepromp ter</w>
st able</w>
sex ting</w>
ro b
ristot le</w>
prosecu tor</w>
pre existing</w>
p lo
or y:</w>
off ense</w>
mor ning
memor able</w>
kas ich</w>
k elly</w>
jo ins</w>
h ill</w>
h es
gg er
fac e,</w>
extr at
ex pressed</w>
ex erci
es e
embarra ssing</w>
ear liest</w>
deleg ate</w>
darl ing</w>
cus sing</w>
critic ism</w>
cont :</w>
concer ns</w>
can cel
c ops</w>
by e</w>
ber g,</w>
bb as</w>
any one,</w>
ak a</w>
ac hel
W y
W illi
S n
Ric ardo</w>
Re form
Qat ar</w>
Pr act
Patt in
P o</w>
P ls</w>
M IT
L ying</w>
IG N</w>
F our
El len</w>
E specially</w>
Clevel and,</w>
C RA
Bre aking</w>
Atl anta</w>
A ristotle</w>
A bbas</w>
@t l
@b ar
@V al
@The Re
@Sixteen Chicago</w>
@S a
@Rockin Joe
@Knight27 6:</w>
@B et
@ ge
@ extrat
#V A
ut u
u sa
tow n
ste wart</w>
sm iling</w>
sh ore</w>
sal ary</w>
robb ed</w>
rac king</w>
pt Vet
ptVet Af
pri v
ord ination</w>
ob nox
n avy</w>
man d
it ;</w>
inter f
in gre
ingre di
exp an
domin ating</w>
do ses</w>
dism al</w>
deser ter</w>
conne ct</w>
co ordination</w>
co lo
char act
charact ers</w>
bir th
att y
ator :</w>
assi stance</w>
as pe
appe ar</w>
app are
al achi
Wint our</w>
W Gillespie</w>
Thanks and</w>
T He</w>
S hu
R ather</w>
Pro gram</w>
Po int
N ext,</w>
Miam i
McCar th
MA C
I OWA</w>
Cent er,</w>
Can ad
C ool</w>
C TION
@rosannascot to</w>
@megynkell y,</w>
@j u
@M alachi
@Jeb Bush,</w>
@Ed WGillespie</w>
@De ptVetAf
@DHS gov</w>
@Byron York</w>
@ IC
@ En
9 8:</w>
4 :00</w>
/ 2017</w>
#The Ar
#S ave
# Inaugur
x ox
st ant</w>
s j</w>
ri :</w>
re sorts</w>
predic tion</w>
pol it
ph ys
persist ent</w>
omar osa</w>
mis represents</w>
min e
me t,</w>
lea king</w>
lar ge,</w>
k erry</w>
j al:</w>
inv iting</w>
insi sted</w>
iley Cy
hu mble</w>
ham mer</w>
for bes</w>
fir st
fi ghts</w>
ess ential</w>
en gine
el a
dys fun
dre w</w>
count y</w>
count ability</w>
commer ce</w>
claim ing</w>
califor nia</w>
bor ing,</w>
be sides</w>
b an,</w>
ar ming</w>
app er</w>
ann ually</w>
allon Tonight</w>
alleg ations</w>
accomplish ment</w>
a ho
__ __
Wh enever</w>
W ill
Ukrain e,</w>
Ty pical</w>
Tam pa,</w>
TH AN</w>
T ere
T PP
Streng th</w>
Sp en
Sec y</w>
SHI P</w>
Ri o</w>
Re main</w>
RE X
Pe w</w>
PRESIDEN TIAL</w>
N omin
Mun jal:</w>
Mor gan
Moder n</w>
Mc Qu
L ow</w>
L ot
Islam ists</w>
He alth</w>
H ate</w>
Got ta</w>
Gi ving</w>
Fol ks,</w>
FRAU D</w>
F lo
Ex actly</w>
E AR
Dam on</w>
Christma s,</w>
C hampion
C er
C PAC
BRA VE</w>
BE AU
B on
B REX
B ,</w>
Angel o</w>
Ac countability</w>
A P
A J
@j m
@dcexam iner</w>
@Trump Golf</w>
@M ileyCy
@H Munjal:</w>
@F ree
@ son
200 9</w>
1 10</w>
#Deb ate
zel din</w>
yourself :</w>
watch :</w>
vide os</w>
valu able</w>
ur ple
un heard</w>
un :</w>
ta pes</w>
ste in</w>
stac les</w>
sig ned,</w>
sh ould
ses sion</w>
s the</w>
s j
roc ks</w>
roc ked</w>
ri g
ri an</w>
ren ch</w>
reck lessly</w>
re tire</w>
r anks</w>
question ing</w>
promis ing</w>
pr ic
pet ition</w>
penn y</w>
pe y,</w>
pay for
payfor play</w>
p ts</w>
onzale z
mon opo
lo aded</w>
lif es</w>
kind a</w>
in ti
id al</w>
he y,</w>
har vey</w>
gradu ate</w>
ger y</w>
fo rum</w>
fli p</w>
ele ven</w>
con fron
che m
can ada</w>
bi l</w>
bankru p
b ite</w>
aston West
assaul ts</w>
arti f
ann on
ace y
_ A
Z en:</w>
Y ING</w>
Whit estone</w>
We b</w>
St ud
RUSSI A</w>
REA D</w>
Pos itive</w>
P ers
O LO
N un
Me mbers</w>
IMM IGRATION</w>
He aring</w>
Har wood</w>
HE AL
Gad ha
Dum b</w>
De velo
D it
Co ach
CRA Z
Brook lyn</w>
Annu al</w>
Am en</w>
@lee zeldin</w>
@co ol
@c raz
@We Love
@T _
@Mark Halperin</w>
@M _
@H o
@F O
@E astonWest
@D rew
@ ac
@ X
6 T</w>
5 3:</w>
200 1</w>
11 1:</w>
#C NN
x_ sha
wn fan:</w>
vin ce</w>
under way</w>
strate gic</w>
solu tion
sky sc
skysc rap
skyscrap ers</w>
s sm
ren d</w>
part icul
op tion</w>
obses sed</w>
memor ies</w>
livi on</w>
liby a</w>
la ying</w>
ke y,</w>
iz on</w>
iti on
gu y:</w>
fun ny,</w>
fa v</w>
et ings</w>
ec k
cur b</w>
ces sion</w>
c arter</w>
bu c
broad casting</w>
bi e
atel y
W ON</w>
Tru e
TU R
TA X
Scot land
S ex
Rober t
Re fu
OF F</w>
O wnfan:</w>
Mom ent
L uck</w>
Krist en</w>
Kather ine
Gum bel</w>
F l
Ent er
E state</w>
E arly</w>
Alex and
AN Y
@t x_sha
@li mbaugh</w>
@ch rist
@_ Katherine
@US AT
@TalismanJohnny A:</w>
@Shar k
@S un
@Natasha Ownfan:</w>
@May or
@ ri
@ President
30 :</w>
3 6:</w>
123 4:</w>
#NY Primary</w>
#Free OurMarine</w>
#C om
# Per
youn g
wh it
vic tim
trou ble,</w>
tran scripts</w>
thre e,</w>
terror ,</w>
ter ing</w>
sur ged</w>
success ful,</w>
struc t,</w>
strong )</w>
ste ve
ss ly</w>
soci ety,</w>
sh all
secur ity
sch :</w>
s oul</w>
s oo
s add
restaur ant,</w>
reci eved</w>
re sa_
ra ge</w>
pre pa
pois oning</w>
pleas urable</w>
play off
per secu
ore illy</w>
one l</w>
oc cur
ob struction
o graph
n as
mo ,</w>
mis represent</w>
ming ton,</w>
min or</w>
m illions,</w>
lu mps</w>
lo ca
loca ust</w>
liter ally,</w>
leag ue,</w>
l tim
job s)</w>
j une</w>
iti ons</w>
ir l
investig ated</w>
inev itable</w>
inaugur ation,</w>
i p</w>
help ful</w>
gu ard</w>
gri p</w>
f lam
f all,</w>
ex cav
every things</w>
er/ Pelosi</w>
ep :</w>
enthusiast ic,</w>
encoura ges</w>
e than
drug s,</w>
dri vers</w>
dr one</w>
disru ption</w>
devalu ed</w>
delusi onal</w>
de mean</w>
d d,</w>
cho ices,</w>
ch unk</w>
ce ter
can t,</w>
bi z
bi shop
be ings</w>
b ills,</w>
b a:</w>
aud ited</w>
ats u</w>
athle te</w>
appro ved,</w>
anL al
amaz ed</w>
al /
ago )</w>
after ,</w>
admi red</w>
acknowled ging</w>
acific Command</w>
ac y,</w>
_ am
W all,</w>
UNIT ED</w>
U n</w>
U L
Twit ter,</w>
ToGet Tough</w>
Ti me,</w>
There sa</w>
TV ,</w>
TR AVE
TRAVE L</w>
Syri ans</w>
Shul kin</w>
Schum er/Pelosi</w>
STR ONG
ST ATES</w>
S outh
S ally</w>
S ;
Rou ge,</w>
Re place,</w>
RU BI
R IC
PROSPER ITY</w>
Os so
Organiz ation,</w>
Ob struction</w>
ON E
OFFIC IAL</w>
NY C:</w>
Mot or</w>
Military /
Military/ Veterans</w>
Man chester</w>
Ma pp</w>
LaV ar</w>
Kom atsu</w>
K A
Ju an,</w>
Jind al</w>
Jer sey,</w>
JE B</w>
J am
In The
Health C
HealthC are,</w>
Gu ter
G lob
G C
FI X</w>
F ake
Emp ire</w>
Ele ction,</w>
Cruz s</w>
Cri me,</w>
Cor ker,</w>
Car son,</w>
COUNTR Y,</w>
Bernard ino,</w>
Be au
Be an</w>
B id
ASE AN
AF TER,</w>
AB C
A C</w>
@trumptower ny</w>
@s un
@m j
@m ichel
@S ur
@S o
@P acificCommand</w>
@L ex
@Kier anLal
@K athy
@J P
@J L
@D ennis
9/8 c</w>
9 6</w>
16 ,500</w>
11 am</w>
( respectful</w>
( including</w>
( enthusiastic,</w>
( 30
$6 ,000,000</w>
$1 2</w>
$ 35
#F EMA</w>
# ASEAN
# 1:</w>
webs ite,</w>
we l</w>
temperat ures</w>
ta ined</w>
suic ide</w>
st an
signific ant</w>
sh er
revi val</w>
re mo
remo val</w>
pa thetic
op ter</w>
ol ine</w>
ocr ity</w>
ne v
ne :</w>
medi ocrity</w>
laugh s</w>
jo king</w>
itt y:</w>
ir :</w>
inv ent
ill er
id able</w>
ic opter</w>
gre ta</w>
gre ats</w>
gas oline</w>
g ate</w>
fr acking</w>
form idable</w>
ex it</w>
ester n</w>
es s:</w>
endorse ments</w>
embrac ed</w>
don ors,</w>
di vision</w>
dang er
d ale</w>
contribu ted</w>
consecu tive</w>
car s,</w>
c abinet</w>
bir d
ate red</w>
ant ic
advis or</w>
ab t</w>
ab or
a y:</w>
Wor kers</w>
We ak
W estern</w>
Vot ers</w>
Stre et,</w>
S S
Pl z</w>
Paul a</w>
Palestin ians</w>
P ure</w>
More land</w>
M I</w>
M B
Low ry</w>
Lead er,</w>
Lab or</w>
LA W</w>
L ight</w>
IGG ED</w>
H ill</w>
H ann
Emanu el</w>
Egy pt,</w>
EVERY ONE</w>
D ev
Cor re
Com m</w>
Ch rysler</w>
CL A
CAND ID
Agre ed</w>
@foxandfriend s:</w>
@W W
@USC G</w>
@Rich Lowry</w>
@R ow
@Piers Morgan</w>
@Governor Perry</w>
@F allonTonight</w>
@Ed ward
@Do ctor
@Ber nard
@ tro
@ Univision</w>
30 ,</w>
24 %</w>
( via</w>
# save
# Mi
v ows</w>
un sustainable</w>
ud low</w>
ucker Carlson</w>
tou red</w>
tim es:</w>
tg omer
termin ating</w>
su es</w>
stre ss</w>
spe ed</w>
shar k</w>
sh ining</w>
see med</w>
sche me</w>
s wif
respond ents</w>
rep ly</w>
rell :</w>
rel ated</w>
refu sal</w>
re v
purcha sed</w>
pe t</w>
parti san</w>
p ga</w>
out ing</w>
op i
on ce
of t
mom ent,</w>
micha el</w>
mes :</w>
mer chan
merchan di
merchandi se</w>
ma themat
influ ential</w>
il s,</w>
ick ens</w>
high way</w>
ga ff
es ch</w>
es /
entrepreneur s:</w>
energi zed</w>
egy pt</w>
dra wn</w>
disa bled</w>
destin y</w>
dead line</w>
cra zy
chan ce,</w>
bri gh
br and
b illiona
as sy
and Freedom</w>
_ pe
Snow d
Sho oting</w>
ST AY</w>
S li
Pro p
Po pe,</w>
Pl us</w>
Pi stor
P owell</w>
O H</w>
New t</w>
MaraL ago,</w>
Lot tery</w>
Lin ks,</w>
L ONG</w>
K Y</w>
Jes us</w>
Jeff erson</w>
J ab
IT ,</w>
Hil ton:</w>
H BO</w>
Fre edom
Fil es</w>
F oo
Em my</w>
Du pree
De pression</w>
D ill
Coun c
Conserv atives</w>
Charle ston,</w>
Ca es
C r
C over</w>
C ANT</w>
Bus y</w>
B et
B ase</w>
Att kisson</w>
Ad ams</w>
@theh ill:</w>
@t win
@s l
@ralphre eds</w>
@ch i
@ab c</w>
@Wayne Dupree
@T uckerCarlson</w>
@P M
@LaraLea Trump</w>
@Faith andFreedom</w>
@Cha d
@ busines
7 9
5 M</w>
4 3:</w>
200 1:</w>
#NCGOP con</w>
#Debate Night</w>
w/ the</w>
volunte er</w>
viol ate</w>
ver dict</w>
va 74
va74 36
va7436 6
va74366 57
v s:</w>
trou ble
tor onto</w>
t ender</w>
sing le
sil va7436657
sh eri
sh en
secur ing</w>
se p
re r
re play</w>
r onald</w>
pre viously</w>
po st:</w>
out smart
op poses</w>
of )</w>
no body,</w>
naf ta</w>
mens wear</w>
mee ts</w>
mar riage</w>
luc k,</w>
long ed</w>
li sts</w>
land er</w>
kjm kjm
k u
k o:</w>
k ies</w>
interview s,</w>
ier nst</w>
ic ah
how ever</w>
ha ha
h ino
gradu ates</w>
govern ors</w>
golf ers</w>
follow er</w>
fiel ds</w>
er yl
ep ,</w>
develop ed</w>
d der
ct ors</w>
craz y,</w>
compre h
com e,</w>
c ard
c ad
bra g</w>
ble ssing</w>
bl ue
as sign
arra y</w>
al izes</w>
al ig
ago :</w>
adm in</w>
abo lish
Y A</w>
Wat er
Wa iting</w>
W olf</w>
Vot ing</w>
Tax es</w>
Sto cks</w>
Shar on</w>
Sec ure</w>
Regul ations</w>
Re ady</w>
Qat ar,</w>
Pla y</w>
Pattin son</w>
Pas sion</w>
Ob server</w>
Lu x
LOV ED</w>
L am
Kell y,</w>
Jami e</w>
IN SPIR
Honest ly</w>
GI VE</w>
Fav or
Eisen hower</w>
Cre dit</w>
Cor respondents</w>
Atl anta
A +</w>
@sam c
@r hino
@k iss
@jon iernst</w>
@j silva7436657
@M is
@Jo el
@G Zer
@A ustin
@ YouTube</w>
7 PM</w>
5 8:</w>
5 50%</w>
4 5:</w>
0 9</w>
$1 25</w>
y llis</w>
win dow
vin _
vacc ines</w>
ust in</w>
un matched</w>
travell ed</w>
swe aring</w>
st ats</w>
sh out</w>
se mbly</w>
s lan
russi a,</w>
roll ment</w>
reimbur se
present ation</w>
possibil ities,</w>
out side,</w>
on s
ne sses</w>
low ers</w>
lo st
liber ty
l on
l ac
kno cking</w>
inve stors</w>
inter venti
in gh
http:// www</w>
her ald</w>
hel m</w>
gu ardi
gi ous</w>
gener ate</w>
for d,</w>
en u
deduc t</w>
collu de</w>
chest er,</w>
char ging</w>
bs news</w>
bor n,</w>
bo b</w>
benef its,</w>
bal d</w>
analy st</w>
ah rain</w>
Watch ,</w>
War ner</w>
W illiam
Tor on
TOGE THER</w>
T W
Sub committee</w>
Stew art
So ho</w>
SOT U</w>
SE E</w>
Pla ying</w>
Ph yllis</w>
P ay
Op tim
O re
Mill er
Middle East</w>
Miam i,</w>
Mar ket,</w>
LI ES</w>
LE TS</w>
Jud d</w>
Ivank a,</w>
Indiana polis</w>
H IRE</w>
Gu ardi
Gri ffin</w>
G am
E states</w>
D ue</w>
Childre ns</w>
Ch ev
CON GRAT
Br inging</w>
B ahrain</w>
As sembly</w>
Ar ri
Ange lo,</w>
@t op
@s al
@Rust y
@Pol itic
@P am
@Michael P
@Jo ey
@Howard Kurtz</w>
@Bet sy
@B eli
@An gel
@Aberdeen CC</w>
@ABC 2020</w>
@ ther
@ liberty
@ Greta</w>
7 th</w>
5 9
4 8%</w>
4 7:</w>
y lan
y er
y ard
win ston</w>
wi de
wh eres</w>
vi sas</w>
ve h
u tter</w>
tweet s,</w>
ta pe,</w>
t um
sympath ies</w>
sugge sting</w>
st agn
sing er</w>
sha res</w>
revo ked</w>
public ,</w>
professional s</w>
pract ice</w>
particip ating</w>
one y:</w>
no s</w>
it )</w>
int h</w>
int ed</w>
indust ries</w>
inaugur ation</w>
il :</w>
ic ked</w>
hi kes</w>
h onest,</w>
g er:</w>
ful l
fl a</w>
fif ty</w>
ff er</w>
es n
er d</w>
educ ate</w>
e uro
def ends</w>
de voted</w>
de sign
contro l
conserv ative,</w>
confu sed</w>
bank s,</w>
ay le
andre w</w>
am ong
achie vements</w>
a stron
Y ay</w>
Wind mills</w>
Wh ere
W OULD</w>
Vie w
VE N</w>
Tur n</w>
Sis i</w>
S G</w>
Ro ck:</w>
Rho de</w>
Represent atives</w>
Patak i</w>
P ush</w>
P ower
Nic hol
Moment um</w>
Micha el
Lind a</w>
Lat inos</w>
Jo sh
J i
Islam ,</w>
Ind ust
Histor ic</w>
Hispan ics,</w>
H uma</w>
F t</w>
F :</w>
E AS
Do yle
Cla ss
Cir cu
Br ing
Bi bi</w>
Am bassad
Am b</w>
A rent</w>
@k wr
@gateway pundit</w>
@bahia60 85</w>
@Pe ace
@N J
@N AS
@Lu ke
@Forbe s
8 64:</w>
3 4</w>
25 th</w>
$1 B</w>
# Bring
w/ o</w>
vot ers,</w>
uli ana
uliana Rancic</w>
uc t
tru cks</w>
t ually</w>
t is</w>
t ation</w>
sol ut
so m</w>
snow ing</w>
slea ze</w>
run ch</w>
ri ses</w>
ri ot</w>
rede ema
reco vered</w>
real ,</w>
q ,</w>
path way</w>
p iz
ous ly,</w>
one si
o kay,</w>
ni pi
mun do</w>
mour n</w>
mba i</w>
manipul ator</w>
kne el</w>
ity TV
ityTV B
ityTVB li
ir redeema
ine d,</w>
incompet ent,</w>
im person
good s,</w>
ff s,</w>
ex ports</w>
en o
do :</w>
difficul ty</w>
di spo
destabil ized</w>
dela ys</w>
congre ssional</w>
condem ns</w>
co very</w>
ch opping</w>
bri an</w>
box es</w>
aren dram
ar od</w>
app lau
account ants</w>
Year ,</w>
Wednes day,</w>
War mb
WORK ERS</w>
Vir tually</w>
VI E
Un fair</w>
U R
Tu mp2016</w>
To le
Th ree</w>
Ser ies</w>
San ctu
S ure</w>
S am</w>
S OU
Republic an,</w>
Real :</w>
Quin nipi
Qu ot
Per vert</w>
Part ner
PAC ,</w>
PA Y</w>
P ere
NY T</w>
Mur ray</w>
Mo ines,</w>
Min ist
List en,</w>
LEAD ER
KE EP</w>
Je b,</w>
I vy</w>
H op
Ge ts</w>
Fr ack</w>
For Our
E V
De ath</w>
Dang erous</w>
DO MIN
D ad
D M
D C:</w>
Col umbia</w>
Char ity</w>
C hampionships</w>
Black dog</w>
BE CAUSE</w>
Au th
Al ong</w>
A yrshire</w>
@n arendram
@k enny
@jo e
@brithu me</w>
@Ricardo Rossello</w>
@Real ityTVBli
@O wen
@MittRomne y,</w>
@M itch
@M ic
@Jim my
@Gi ulianaRancic</w>
@CB S</w>
@Bri an
@A ar
@ deb
@ Vote
5 0,000</w>
#Stand ForOur
# fox
# Tump2016</w>
# Th
y e</w>
world class</w>
worl d:</w>
we stern</w>
wa ys
w t
uni fy</w>
trou bled</w>
thom as</w>
tho od</w>
testim ony</w>
surr ounding</w>
supp ly</w>
se c</w>
s ooo</w>
ob jec
negoti ation,</w>
nat i</w>
mon d,</w>
mode l,</w>
mar alago</w>
m art</w>
le dge</w>
la y</w>
la st
insul ted</w>
in nati</w>
igno red</w>
ick y
h s</w>
gn ore</w>
geor gia</w>
ge m</w>
fri ght
fle w</w>
fi fth</w>
educ ation,</w>
disa ster
differen ces</w>
di vid
deman ded</w>
de cre
dd le</w>
d /
cont ent</w>
comp on
com ey</w>
co ol
ci al,</w>
ber gdah
at s:</w>
ann :</w>
adv oc
ac ar
ac :</w>
W OM
WOM EN</w>
US ,</w>
UN ITY</w>
Syste m</w>
ST AND</w>
S mar
S at</w>
Rou ge</w>
Republic an
Repe al
RUBI O</w>
RE ,</w>
Pennsylv ani
Paren thood</w>
PL OR
Orlan do,</w>
ORe ill
Ma sters</w>
Liby an</w>
Li f
Leg al</w>
Lar a</w>
L t</w>
L A,</w>
Jackson ville</w>
IS H</w>
I gnore</w>
HILL ARY</w>
Gu ide</w>
FLIGH TS</w>
F rench</w>
Exclusi ve:</w>
EX C
E ste</w>
Cy ber</w>
Connecticu t,</w>
B ol
Au gu
A ppe
A pp</w>
@p ga
@lou dob
@k a
@extrat v</w>
@Super Bowl</w>
@O prah</w>
@House GOP</w>
@GolfDigest Mag</w>
@George Will</w>
@Beaumont Anthony:</w>
@ at
@ Christian
@ 3
9 8
9 0%</w>
4 5%</w>
19 41</w>
11 2</w>
0 7:</w>
#VoteTrump NH</w>
# Repeal
# MSM</w>
z ar</w>
xon mo
xonmo bil</w>
we st
wan t
wa ve</w>
ve st</w>
unlim ited</w>
un think
un acceptable</w>
tor ture</w>
ti sm
t C
strength ening</w>
sour ces,</w>
sol ving</w>
si ster</w>
ru led</w>
represent ation</w>
re in</w>
pl ants,</w>
ph oney</w>
pack age</w>
pa th,</w>
p raises</w>
ne ll</w>
n h
middle broo
me ;</w>
m all
lifel ong</w>
lem en,</w>
legisl ative</w>
kind ness</w>
k middlebroo
just ice,</w>
investig ate</w>
influ enced</w>
ide as,</w>
happ y
gr ades</w>
fortune ,</w>
form s,</w>
extor tion</w>
es sive</w>
ell vi
domin ate</w>
dis advantage</w>
destro ys</w>
deli ghted</w>
d dy
confir m</w>
comp are</w>
cau ght,</w>
care s,</w>
br illi
boar ding</w>
aspe cts</w>
appro ving</w>
app lying</w>
ano i,</w>
anna Sp
annaSp illy
ag :</w>
af ghan
ack o</w>
ac ul
Vine yard</w>
T ri
Spr ings,</w>
Sch warzenegger</w>
Sad dam</w>
Report :</w>
Re ve
R N
PE ACE</w>
PA OLO
PAOLO MON
PAOLOMON N
P ass</w>
P H
Ot to</w>
ON S</w>
News )</w>
NEW S,</w>
Mel ani
Mar sha
Ke ep
Islam ist</w>
IN NOV
Hypocr ite</w>
H anoi,</w>
G 7</w>
For President</w>
Fo rum
FAM IL
Ema il</w>
Ea stern</w>
ER PAOLOMONN
Dru dge,</w>
De fund</w>
De duc
D V
Count ing</w>
Cater pill
Buil t</w>
Bu re
Be th
BL UE</w>
B ank
Asi ans</w>
Abbot t</w>
@realdonald trump,</w>
@mitch ellvi
@m ik
@glenn beck</w>
@g ar
@ex xonmobil</w>
@esp n
@YankeeRunner L
@Steve Scalise</w>
@Red State</w>
@Pri me
@PI ERPAOLOMONN
@P ray
@Don ny
@De annaSpilly
@Charles Hur
@B rent
@4 kmiddlebroo
0 00</w>
/ Washington</w>
#Trump4 President</w>
#Election 2016</w>
ti onal
ti en
tien hugh
thre w</w>
the ory</w>
th ur
th i
t all</w>
st i
spe cul
sk y:</w>
simp li
sel dom</w>
se less</w>
safet y,</w>
s wear</w>
ri bbon</w>
ret t</w>
re stra
re minds</w>
ra il
play er,</w>
out The
on n
not ch</w>
negoti ates</w>
me l</w>
ke ted</w>
je wel</w>
it ing
individu al,</w>
in version</w>
il ox
idd ich</w>
head lines</w>
ha ust
fre ed</w>
fr ance</w>
foun der</w>
fin i
f iddich</w>
ex haust
et The
ei gh
cr ack
co ordin
co he
c_ org:</w>
as _
artic les</w>
and mike</w>
an n</w>
a im
_pe te:</w>
Warri ors</w>
WAT CH
V IS
To y
TRUMP S</w>
Smi th:</w>
Sch la
S co
R am
Pen ce,</w>
P PE
O VER</w>
Mc Laugh
MONE Y</w>
Lo esch</w>
LI VE:</w>
Incre ases</w>
Ho st</w>
H ence,</w>
GO T</w>
G AN
Fi el
De al
Davi d,</w>
Christop her</w>
Carol inas</w>
Bar rel</w>
B omb
B ain</w>
Auth ority</w>
Ar ch
Ander son
Al len</w>
AN :</w>
A V
@woo fe
@washing ton
@scot tienhugh
@m s
@li sal
@kekse c_org:</w>
@k athy
@johnny 4
@USAT O
@T ele
@Speaker Ryan</w>
@K ath
@De ad
@DannyZu ker:</w>
@D Loesch</w>
@C an
@B la
@Ann D
@A u
@ sen
@ har
@ cur
9 3:</w>
11/8/ 16</w>
0 6</w>
# no
wonder ful,</w>
week ly
ven :</w>
utch ess</w>
u sa:</w>
tomor row
thu g</w>
th le
telepromp ters</w>
su n</w>
str ation</w>
ste st</w>
spons or</w>
so ho</w>
ref erence</w>
quot e:</w>
per form</w>
pe cted</w>
owsk i:</w>
overwhel ming</w>
on T
no ting</w>
nev ada</w>
n ations,</w>
my ers:</w>
manipul ating</w>
main tain</w>
loc ations</w>
l ame</w>
key noting</w>
k im
jer k</w>
it ed
int ent</w>
happ iness</w>
gr ab
gentle man</w>
g le
g ically</w>
for cement</w>
fa stest</w>
ext ended</w>
exerci se</w>
dri ver</w>
dri gue
displa yed</w>
d aniel
cou ld
compas sionate</w>
cheer leader</w>
ca se,</w>
bre ath
brac kets</w>
augh :</w>
ass ment</w>
ad vic
act or,</w>
a a:</w>
Wom en</w>
W /</w>
V o
Un ity</w>
Tur key,</w>
T roll
T rain
S lam</w>
S el
PRI MA
POLL S</w>
Off ic
ON CE</w>
O IL</w>
NAF W</w>
JU DG
Ivank as</w>
Indi a,</w>
H IS</w>
Guter res</w>
Gi ants</w>
Geral d</w>
Fam il
En forcement</w>
E ug
Dis cussing</w>
DU MB</w>
D utchess</w>
D anny
Cor p</w>
C oll
Blue Monster</w>
A_ NAFW</w>
AL ago</w>
AG RE
A tri
A thle
@w sj</w>
@te am
@mboyle 1</w>
@caleb 220
@Law rence</w>
@Jo se
@JB A_NAFW</w>
@DeannaSpilly ard:</w>
@David_ Bossi
@Bill Kristol</w>
@BackOnTrack USA</w>
@BackOnTrack USA:</w>
@Antonio Guterres</w>
@ po
@ col
@ TH
8/ 7
8/7 c</w>
8 6:</w>
7 ,000</w>
50 th</w>
50 s</w>
3 %,</w>
201 1:</w>
/ gallon</w>
#Bring Back
yl or</w>
ward s
wa ves</w>
unt er
tre ats</w>
to o:</w>
tag on</w>
ta ke
sun k</w>
sho ck</w>
secret ly</w>
s c</w>
ri f
ri e
restor ing</w>
r nc</w>
pro posing</w>
pre serving</w>
po sted</w>
pa io</w>
p ace</w>
ope c</w>
obamac are,</w>
no :</w>
n or</w>
mis er
lo w,</w>
lo v
li ve
leb lower</w>
lea k</w>
itz g
itzg erald</w>
institu tions</w>
ik ki
i shes</w>
hoo d,</w>
hol der</w>
h it,</w>
golf :</w>
ffing tonpost</w>
ff :</w>
famil y
eleg ant</w>
eag les</w>
dysfun ctional</w>
dram atically</w>
doub t,</w>
disapp oint
def ended</w>
day )</w>
d ings</w>
critic izes</w>
cra fted</w>
co ff
clo se
civil ized</w>
charlott e</w>
ca ps</w>
c ategory</w>
br ady</w>
bom bs</w>
be s
assi st</w>
an x
ampan ell
accep ting</w>
_ l
Y R
Wor k
Woo dy</w>
W /
S lams</w>
Pl ace</w>
Pen tagon</w>
N one</w>
N C:</w>
MAC YS</w>
Lo sers</w>
JO KE</w>
J en
In c</w>
IM PORT
I ANS</w>
Ho locaust</w>
HI M</w>
H S</w>
Go es</w>
Fri day,</w>
EN CE</w>
De an</w>
C ou
B arack
An ne
Am erci
Agre e
@se an
@m k
@jeb bush</w>
@hu ffingtonpost</w>
@b politics</w>
@Vanity Fair
@T er
@Malachi Nor
@Lord_ Sugar
@Late Show</w>
@H unter
@Governor Pataki</w>
@Go d
@DiamondandSil k</w>
@ man
3 4
2 9%</w>
#Trump Tower</w>
# oscars</w>
you tube</w>
win :</w>
un real</w>
un fair
uck y
tough ness</w>
time less</w>
t )</w>
sta irs</w>
sell s</w>
rememb ering</w>
pro vement</w>
pro be</w>
p raising</w>
out look</w>
ma de
m ack
le ys</w>
l ings</w>
l ack
j en
is m
inst rum
ie f
hil arious</w>
h Abedini</w>
gutt ed</w>
gin s:</w>
ge ar</w>
fre e,</w>
evil le,</w>
ele cting</w>
ed _
dro ve</w>
de Nast
crimin als,</w>
continu es,</w>
conserv ation</w>
conne cted</w>
compet ing</w>
call um</w>
c s</w>
c auti
ate Dept</w>
arent al
al _
aghme hAbedini</w>
Wood s:</w>
Wi reless</w>
Un fortunately,</w>
TPP ,</w>
TI FUL</w>
Sur prise</w>
RE S</w>
R ex
Prie bus</w>
M ight</w>
M ar</w>
Isra els</w>
Gir ls</w>
Geral dR
G lo
Eng lish</w>
Christian ity</w>
Ch er
C S
Bl on
BREX IT</w>
BEAU TIFUL</w>
@tr ace
@ag schneiderman</w>
@a j
@U N</w>
@TrumpNational NY</w>
@T S
@St ateDept</w>
@Sher iff
@O ut
@N aghmehAbedini</w>
@MileyCy rus</w>
@K arental
@Josh ua
@Ivanka Trump:</w>
@GolfDi gest</w>
@Con deNast
@ andy
4 /
12 ,000</w>
0 M</w>
#USS GeraldR
#SC Primary</w>
zz a</w>
w the
v Al</w>
ul u</w>
tweet s:</w>
th in</w>
sty les</w>
sk ins</w>
servic e
scrip t:</w>
request ,</w>
read ers</w>
r illo
pun ches</w>
pl s</w>
oun ce</w>
off ensive</w>
month ,</w>
love :</w>
les son</w>
kev in</w>
im posed</w>
il ey</w>
how s</w>
he m
h l</w>
go :</w>
gg s</w>
ge me
fin e
fiel d
fa re,</w>
f eller</w>
di a</w>
deb ate
da s
chem ical</w>
be st:</w>
are d
apprent ice,</w>
ain e
acc us
a D
_ jo
Z ach
Y ankee</w>
X T</w>
Wein ers</w>
Tur ner
Th re
Stre et
S; P</w>
S k
Rocke feller</w>
Re cent
Pr ice</w>
Pho to</w>
P ort
NE XT</w>
Med al</w>
McConne ll,</w>
M ason</w>
M US
LI F
LIF E</w>
Ku sh
Ke y
Kar za
K er
K ay</w>
He ad
H ud
H ag
Great ly</w>
F IGH
East wood</w>
Da ys</w>
D on,</w>
D aniel
Corpor ate</w>
Co x</w>
Car din
CRAZ Y</w>
C auc
Bla sts</w>
B s</w>
B annon</w>
Ar m
Am er
@s usan
@rhino 84
@rhino84 84
@n ic
@car rillo
@b ra
@W WE
@Tea Party
@MS NBC</w>
@Joe _
@Hou ston
@H BO</w>
@D en
@AplemonLe mon:</w>
2 M</w>
12 pm</w>
10 00
$ 30</w>
#F ox
#CNN Debate</w>
# un
# Obama</w>
wor ds:</w>
woo d:</w>
wa :</w>
vis ed</w>
un constitutional</w>
to day:</w>
sty le,</w>
stud ying</w>
statist ically</w>
sha king</w>
scre am</w>
sch um
sal aries</w>
rev ital
ra d</w>
r al
pho eni
personal ity</w>
p aul
ot :</w>
ob livion</w>
necess ary,</w>
ne ed,</w>
n ail</w>
mot or
ment ed</w>
medic are</w>
lu v</w>
li s,</w>
kk ah</w>
kill ings</w>
instin ct
ge d,</w>
g g</w>
floo ding</w>
ev en,</w>
en rollment</w>
dra wing</w>
domin ated</w>
compreh ensive</w>
comment ing</w>
ch urchill</w>
ca st,</w>
brigh test</w>
bl amed</w>
b s:</w>
ats B
atsB en:</w>
anu kkah</w>
amaz on</w>
al i</w>
activi sts</w>
ab i
_ I
Young stown,</w>
Virgin ias</w>
U B</w>
Tim es:</w>
Tal ent</w>
T oo
T an
SP B
Ro ve,</w>
Resul ts</w>
Pri me
PR OU
PL A
N az
May er
Matt :</w>
Ma kes</w>
MU R
Low est</w>
LI E</w>
L ine</w>
L IN
Ko ch</w>
J enni
He ad</w>
Ham il
Gin sburg</w>
GREA T,</w>
Ch anged</w>
Car ter,</w>
B AL
Ar ling
ARo ds</w>
AN OTHER</w>
A re
@not_that_ actor</w>
@nbc news</w>
@luc as
@h oward
@billma hers</w>
@US A
@Shark Greg
@Red Cross</w>
@R SPB
@M art
@Ke atsBen:</w>
@DNor rell:</w>
@C abinet</w>
@Alex Sal
@ 10
30 th</w>
#USS John
#Never Hillary</w>
# donaldtrump</w>
# Go
your selves</w>
yce Goodman
y ers,</w>
y en</w>
worth less</w>
work er,</w>
wor st,</w>
wild fires</w>
well being</w>
we aker</w>
war ding</w>
w it</w>
visi ons,</w>
viol ations</w>
v ile</w>
up news</w>
un named</w>
uclear ,</w>
toler ate</w>
ti rele
tirele ssly</w>
ti anie
them selves,</w>
sy n
suppor t
succe eded</w>
su ms</w>
state d,</w>
st one</w>
st iff</w>
st ation</w>
sp ray</w>
sound ly</w>
slaugh ter,</w>
slan ted</w>
simpl er</w>
sid er:</w>
si x,</w>
separ ately</w>
selfinspe ct</w>
secu re,</w>
scor ned</w>
sal es,</w>
ru les,</w>
re serv
re rs</w>
ra y:</w>
pun ished</w>
pro vision</w>
princip als</w>
primar ies,</w>
prevent able</w>
pre serve</w>
pha se</w>
particip ated</w>
pa ge,</w>
p ile</w>
p act</w>
over throw</w>
over come</w>
over all</w>
out played</w>
ou ri
or _
oo s
ne e
n uclear,</w>
mur de
mistre ated</w>
me ister</w>
man n
lou isi
lin col
lincol n</w>
lin ,</w>
lem al
lemal kin</w>
lea ving,</w>
lar ger,</w>
landsli des</w>
la sting</w>
kne es</w>
kin s:</w>
kil ea
k ers,</w>
iz e,</w>
it ment</w>
isco ,</w>
is ol
introduc tion</w>
ino s,</w>
ineff icient</w>
in fe
in Prop
inProp P:</w>
ili ation</w>
ig g
id er:</w>
id ated</w>
i fication</w>
hy po
human ity</w>
human itarian</w>
htt p</w>
hero in</w>
h ate,</w>
h at,</w>
gentle man,</w>
gard an
gardan is:</w>
fri sk</w>
fix ed,</w>
fin ed</w>
fav our
fanta stic,</w>
fa th
extremis m</w>
expen sive,</w>
ev ing</w>
ev es</w>
entrepreneur ,</w>
enti rely</w>
ent rance</w>
eng er,</w>
enc es,</w>
eff ici
econom ics</w>
dream s,</w>
drain ed</w>
dow ns</w>
do es
disp ar
decep tion</w>
d ate,</w>
cor i
con fined</w>
compas sion</w>
ch alleng
car l
call ,</w>
bro ken,</w>
bo ther</w>
b rown
att ac
attac ked,</w>
as ons</w>
any ways</w>
announ ced,</w>
amp ed</w>
americ a,</w>
all upnews</w>
al ready,</w>
al one,</w>
advis ing</w>
adill acc
adillacc hamp</w>
ad vers
acti ons,</w>
_E as
YOU RS</w>
WIN ,</w>
U ltim
U :</w>
To dd,</w>
TOT ALLY</w>
TAX ES</w>
St ri
St and
Sen ator,</w>
SO ME
Run ning</w>
Ro bb</w>
Reli ef</w>
RE ST
RE DI
REDI BLE</w>
Ph illy</w>
Partner ship,</w>
Page ant,</w>
PGA :</w>
P enn
P OTUS,</w>
Obama :</w>
Norfol k,</w>
NR A,</w>
N J
MIT ED</w>
M id
M VP</w>
Li st</w>
Lear n,</w>
Le ster,</w>
Lat inos,</w>
LI MITED</w>
LE AG
LEAG UE</w>
K am
Ju an</w>
Jer ome</w>
Je ws</w>
Je b
J ason</w>
It ll</w>
INC REDIBLE</w>
I di
Har ris
Har bor
H ER</w>
Goo dell</w>
Git mo,</w>
F az
ED ITION</w>
E G
Dur st</w>
Du b
Den mark,</w>
DEM OC
DE AT
DEAT H</w>
D aw
Con v
Con sid
Con diti
Col ombi
Cha ir</w>
CH AM
C ity
Bet ween</w>
B RO
Ad diti
AC TION</w>
@william gardanis:</w>
@sin tianie
@michel lemalkin</w>
@m ich
@m at
@jimlibertari an:</w>
@itsRyan Hilton:</w>
@g allupnews</w>
@c adillacchamp</w>
@Warren Buffett</w>
@W inPropP:</w>
@VeryOddDo g:</w>
@US S
@TheBig _Eas
@The R
@TM Z</w>
@S ch
@S andra
@Mr In
@M oo
@KieranLal or</w>
@Jo yceGoodman
@Jam ie
@H ot
@H olly
@Apprentice NBC:</w>
@ pers
7 1</w>
24 day</w>
200 9,</w>
2 11:</w>
18 1:</w>
16 th,</w>
16 ,</w>
16 %</w>
15 ,</w>
12/ 3</w>
, 6
( he</w>
$1 84</w>
#Super Bowl</w>
z er:</w>
wild life</w>
ur o</w>
un ions</w>
un grateful</w>
tran sp
t end</w>
star ved</w>
st ically</w>
so ft
so ars</w>
sic k,</w>
se aled</w>
sci ence</w>
re perc
reperc us
pre n
polic ies,</w>
on y,</w>
o ath
oath ,</w>
numb er,</w>
no one</w>
ma r</w>
ke st</w>
j et
int ro</w>
ing ed</w>
in ful</w>
imagin e,</w>
i sa
hoo ds</w>
ge d
fragr ance</w>
exc essive</w>
ers ch
er ity</w>
equ ally</w>
ener gy
employe es,</w>
e 5
du de</w>
dele te</w>
de rek</w>
d ),</w>
cu r</w>
coo lest</w>
con ceived</w>
con ce
comment ator</w>
col orado</w>
clo set</w>
civil ian</w>
c up</w>
butt on</w>
break fast</w>
be e
appe ared</w>
again )</w>
accur acy</w>
aband on</w>
Who ever</w>
W ant
U K:</w>
Tou rism</w>
Time pieces</w>
Th ought</w>
TR ILLION</w>
Se eing</w>
Sand ers
Sa eed</w>
S TRU
Ro ad</w>
Re id</w>
R IGGED</w>
Prosp erity</w>
Pri vate</w>
Per ry,</w>
POL ICE</w>
P arent
Octo ber,</w>
OU TS</w>
Mu sic</w>
Mis sed</w>
L ies</w>
Ke ith</w>
Just in</w>
J ong</w>
In clu
IN S</w>
Hon ol
Her itage</w>
H IC
Five Star</w>
E T
D al
Colum bus,</w>
Cinc innati</w>
Ag enda</w>
AT T
A broad</w>
@tim kaine</w>
@puppyslu g:</w>
@p at
@ny t
@mike andmike</w>
@jsilva7436657 2:</w>
@j or
@fox es
@busines sinsider</w>
@Z ach
@P R
@M AR
@Cla re
@ fl
7 9</w>
7 5</w>
200 4,</w>
10 :30
10 3
1/ 2</w>
, the</w>
#POTUS Abroad</w>
#NH Primary</w>
zer o,</w>
yor k,</w>
wre ck</w>
wr ite
what so
weap on
wall ace</w>
wa g
uni fied</w>
un willing</w>
un solved</w>
ul se</w>
tro phy</w>
syri an</w>
su ppre
stor s,</w>
steel workers</w>
sovere ign</w>
situ ations</w>
sion ing</w>
sign age</w>
sens itive</w>
sar ca
s me
s lowest</w>
ry an
rott en</w>
ro ast</w>
ris is</w>
ri g</w>
report ing,</w>
re solute</w>
r ound
round table</w>
purcha ses</w>
program s,</w>
pre fer
pol lu
pa ge
op :</w>
oll s</w>
o tism</w>
neg le
nam ent</w>
nail ed</w>
mil es,</w>
mi sh
mexic o,</w>
mean ing
ll :</w>
line up</w>
like wise</w>
land scape</w>
key e</w>
iver a</w>
iti ous</w>
inter rup
ing e</w>
incre asing</w>
in frastructure,</w>
id ent
i Phon
http s:</w>
ho stage</w>
ho pefully,</w>
happ ily</w>
hap s,</w>
h enry</w>
gener als,</w>
g lam
f ascinating</w>
execu ted</w>
eral dor
eraldor ivera</w>
entrepreneur ship</w>
el len</w>
easi est</w>
earth qu
dis da
dep lo
dat a,</w>
cur rency,</w>
cre ator</w>
controver sy</w>
cont ext</w>
comm it</w>
clo su
cli ps</w>
ch ick
car p
c ity
bo :</w>
big ger,</w>
ber to
additi on,</w>
ad missions</w>
ad a:</w>
a pe
a ks</w>
Wil mington,</w>
Trump _
Tour nament</w>
Snowd en,</w>
S even</w>
Row anne</w>
Re ce
REMEMB ER</w>
Pro gress</w>
Ph one
Perf ec
POW ER</w>
P ulse</w>
P ickens</w>
McC ain
Ma ster</w>
List ening</w>
Li ves</w>
Le ban
Jud ges</w>
Hun dreds</w>
Hou ston,</w>
HISTOR Y</w>
HEAL TH
H IGH
Georgi a,</w>
G ard
Fo ot
ENOU GH</w>
De als</w>
D ID</w>
D C,</w>
Commit te
Clear ly</w>
Cha ir
Cauc us,</w>
Caes ars</w>
C risis</w>
Brav o</w>
Bo one</w>
BUS IN
B old</w>
Ar seni
Ail sa</w>
AR D</w>
AL ,</w>
@mboyle 1:</w>
@g eraldorivera</w>
@be l
@Thom as
@T ony
@Se th
@R ay
@K rist
@GZer vs:</w>
@Frank lin_
@DannyZu ker,</w>
@DRUDGE_REPOR T:</w>
@D u
@ tri
@ tra
@ pr
@ REAL
8 00,000</w>
77 77
6 2%</w>
3 1,000</w>
25 %,</w>
2 1st</w>
11 :
1 :30
, who</w>
$7 00,000</w>
$1 6T</w>
$1 ,000</w>
# Ro
zz y
w er
vac ations</w>
ure d,</w>
unlea shes</w>
tt e</w>
tou rists</w>
top ic</w>
the ories</w>
sp li
spli t</w>
sell out</w>
s N
religi on,</w>
refuge es,</w>
profess or</w>
pro hib
privil e
poll :</w>
poc ket</w>
pl um
pipe lines</w>
ou ts</w>
oo vin_
norm ally</w>
ni er</w>
neg ative,</w>
multi ple</w>
monopo ly</w>
lo we
le ans</w>
l ining</w>
k ers
je welry</w>
issu ing</w>
ious ly,</w>
inj ured,</w>
in fil
im ,</w>
illi e
identi fied</w>
golf ing</w>
gg ers</w>
gam e
g ary</w>
ful filled</w>
fre qu
fair ,</w>
f red</w>
ele v
e instein</w>
e go,</w>
doz en</w>
dish onest,</w>
di :</w>
decade s,</w>
de signs</w>
cour t:</w>
commod ity</w>
col m</w>
c unning</w>
c itys</w>
back :</w>
at ing
ani el</w>
and um</w>
analy zing</w>
ampanell i</w>
admi rer</w>
accol ades</w>
ac a
_ O
Z og
Wor se</w>
VOT ER</w>
Univer se,</w>
Un fortunately</w>
Te o</w>
T EX
S ide</w>
Re ceived</w>
Q s</w>
PR IC
OBAMA CARE</w>
Mu ir</w>
Memor andum</w>
Mar ino</w>
Mar co,</w>
Mana fort</w>
Mal colm</w>
MAJOR ITY</w>
M H
LO S
L ines</w>
Krav is,</w>
Juli an</w>
In competence</w>
IL L</w>
Ge e
FAIL ED</w>
D ra
D _
Congratul ation</w>
Celebr ate</w>
C ash
Ass ange</w>
@ta ylor
@s ar
@mo oovin_
@da ily
@d p
@Y oun
@Spe cial
@Ro sie
@Pray forme
@N ot
@Mar tha
@L au
@D C
@Ch er</w>
@ ap
9 0:</w>
11 th,</w>
00 7:</w>
$1 T</w>
# president
z an
y all</w>
withdra wn</w>
wi res</w>
wh e
we ars</w>
w illiams</w>
u se,</w>
tra it
trait or,</w>
thank s
t il
t am
suic idal</w>
spo kes
sh ark
s ong
s F
run )</w>
rela x
re visit</w>
re s:</w>
r dy</w>
qui et
prospe cts</w>
ph ants</w>
p m,</w>
od ds</w>
oc cupy</w>
ob stacles</w>
o h
mes sing</w>
low life</w>
loop holes</w>
ke Up
keUp America</w>
it s)</w>
interventi ons</w>
insi st</w>
incredi ble
in i:</w>
immigr ants,</w>
ha bit</w>
h er:</w>
gett able</w>
gent lemen,</w>
fron ting</w>
for gettable</w>
foot print</w>
first ever</w>
even ings</w>
ess ence</w>
eral d
er c
ene ws</w>
doz ens</w>
displa y</w>
disman tle</w>
declar ing</w>
da vis</w>
conqu er</w>
concer n</w>
ch ess</w>
cau ses</w>
c hamp</w>
business people</w>
bra vest</w>
bor ing)</w>
boo t</w>
b ines</w>
az z
att ack
argu ments</w>
any :</w>
am endment,</w>
al e,</w>
al bert</w>
al )</w>
air ing</w>
afghan istan</w>
addre ss,</w>
ad o</w>
ab lo
_ Mitch</w>
Yor k
Wa keUpAmerica</w>
Wa Po</w>
W AN
Ver izon</w>
Tur bines</w>
TO M
THE M</w>
Sy rac
Stewart (</w>
St ation</w>
Sh ouldnt</w>
ST ER</w>
SI R</w>
S ince
Ry der</w>
Res erve</w>
Pra y</w>
Poll ing</w>
Pol s</w>
Po st:</w>
Part icip
Oak land</w>
Nor man,</w>
NY C
Mari ano</w>
M ick
Like wise</w>
Lad ens</w>
LE AD</w>
Kenne th</w>
JUDG EMENT</w>
J are
Iraq is</w>
H ere,</w>
Glen fiddich</w>
F F</w>
Eug ene</w>
De V
D ick</w>
Ce dar</w>
COR RU
C ry
C P
BB C</w>
B ene
@sam my
@m ad
@k o
@ericleeb ow:</w>
@ell en
@d aniel
@Team _Mitch</w>
@T ha
@S hop
@Media ite</w>
@I ri
@H i
@Donald Trump
@Colin S
@Bill Rancic</w>
@An thony
@A li
@ tw
@ sir
@ lar
7: 15</w>
4 Trump:</w>
3 M</w>
12 9:</w>
10 %,</w>
1 :00</w>
, you</w>
$ 9
# WakeUpAmerica</w>
ye tt
ye ,</w>
wit ness</w>
webs ites</w>
we ather,</w>
veh ic
uni form</w>
un insured</w>
un cle</w>
ud :</w>
tech ni
sus pen
surr ounded</w>
spe ed
soldi ers,</w>
so ar</w>
shi pped</w>
s man
ru s:</w>
ro ber
ris en</w>
review ing</w>
reci pi
re ps</w>
rap h</w>
r are</w>
qu its</w>
po ore
perman ently</w>
ount ain
one ;</w>
ne d
me ful</w>
lux ur
like wise,</w>
light we
leg als</w>
leag u
le ver
le i
law rence</w>
kill ing,</w>
k at
just ,</w>
jer sey</w>
isc ope</w>
instin ct</w>
h tt</w>
h ate
guarante ed</w>
gre t</w>
gra phic</w>
gol fla</w>
git mo</w>
gi l</w>
fig ures</w>
fel d</w>
fact :</w>
ex tension</w>
est ,</w>
epit om
eng agement</w>
en ah
emer gency</w>
elect oral</w>
eas ily,</w>
dy Buffalo
dot com</w>
dire ction,</w>
dge at
dgeat Doonbeg</w>
de ter
de preci
d ent</w>
crow :</w>
cro ssing</w>
consist ently</w>
commun ism</w>
clu bs</w>
ca p</w>
by ter
ban king</w>
ball :</w>
ation Day</w>
ari o</w>
ari ety</w>
apprent ice
app lied</w>
angel 864:</w>
ang ers</w>
andre w:</w>
af fairs</w>
a p</w>
a b</w>
_ r
Woo d:</w>
W ake</w>
V I</w>
TI M
TIM ES</w>
T our</w>
STRU CTION
S ick</w>
S OL
S EL
Reve rend</w>
Rand y</w>
Que en</w>
Po ints</w>
Ph q</w>
Ph illy
P ac
OW N</w>
OB STRUCTION
Mean while,</w>
Mat thew
Mat t,</w>
M anti</w>
M EN
K ing,</w>
K id:</w>
J ul
In no
Ham burg</w>
Great er</w>
Goo gle</w>
Gadha fi</w>
G s
G all
F an</w>
F OUR</w>
Extre me</w>
Educ ation</w>
EXCLUS IVE</w>
E p
Du ba
Doyle 12</w>
D N
Con do
Chri st</w>
Broad way</w>
Bi z</w>
Ber nie,</w>
Al i</w>
Ad d</w>
AC CE
@w ood
@trump golfla</w>
@pe te
@m iles
@kwr crow:</w>
@kiss angel864:</w>
@ch ef
@carrillo _pete:</w>
@c b
@_Katherine Webb</w>
@Trump Philly
@The G
@Tele mundo</w>
@Sam Doyle12</w>
@S no
@Pol iti
@Lo dgeatDoonbeg</w>
@Kat y
@K in
@In dyBuffalo
@Gov Abbott</w>
@BestBerger Ever:</w>
@Be th
@AF Phq</w>
@ russi
@ lawrence</w>
@ News
; )</w>
9 p</w>
200 5</w>
2, 300</w>
1 77
1 30</w>
$$ $$</w>
$ 9</w>
#USAat UNGA</w>
#TrumpV ine</w>
#Trump forpresident</w>
#G 7
# Iran
yon d,</w>
x y
w acky</w>
viol ated</w>
ve z</w>
u v
tra sh</w>
tou ri
ter m,</w>
te ous</w>
ta s,</w>
t v
t able,</w>
swif tly</w>
swi ft</w>
sta ge,</w>
st rom</w>
si st</w>
se ats</w>
sa p</w>
s ink</w>
s ing,</w>
ric ul
restor ation</w>
re am
rap id</w>
prote cts</w>
premi eres</w>
pre f
pic ture,</w>
over turned</w>
outsour cing</w>
ot s:</w>
not ices</w>
ne ck
n V
mp ing</w>
movi es</w>
motiv ates</w>
mo on</w>
mat ches</w>
man sion</w>
man _
mad ness</w>
ma sters</w>
low ly</w>
lo ck
leyR hon
laugh ing
laughing stock</w>
l pa
je ff</w>
j f
itu al</w>
ist en</w>
ira q,</w>
ir anda
in s,</w>
id er
har y
ha d
gu ide</w>
gh teous</w>
gener ally</w>
ge e
g en</w>
fla g
fin ally,</w>
expan sion</w>
empha size</w>
e go
e g
don :</w>
do g:</w>
dis respected</w>
cu tt
constru cted</w>
confir ms</w>
clear ance</w>
che ating,</w>
c k,</w>
c hampion
bu s
bu ff
bra gging</w>
bl ers</w>
be yond,</w>
be loved</w>
bas ket</w>
asmus sen
apologi z
ani an</w>
an cy
ah _
ag ricul
_ 4
W yn
US TED</w>
UN T</w>
Tru th
Tou re</w>
Taylor :</w>
T N</w>
SA Y</w>
Ric hi
Resear ch,</w>
R ide</w>
Proble ms</w>
Pocahon tas,</w>
Pen insula</w>
P on
P at</w>
Ol lie
My Vote</w>
Mar th
Man y,</w>
Lat ino</w>
Lat in</w>
Kn icks</w>
Karza i</w>
K ing:</w>
K han</w>
K NO
J lpa
J CO
JCO PE</w>
Inst itu
Ind onesi
Im us</w>
I ma
HO A
Fi re
FAC T</w>
F ans</w>
F acts</w>
F T</w>
Er in</w>
El i</w>
EN ED</w>
Donald Trump,</w>
Do g</w>
DREA M</w>
D CL
DCL isten</w>
Cur tis</w>
Comm unity</w>
Co le</w>
Chin es
Cha vez</w>
B IG
An sw
Afric a,</w>
@w we</w>
@s j
@realD B
@real Ollie
@n or
@miss universe</w>
@lance armstrong</w>
@d ans
@bl u
@W r
@The_ Open</w>
@T rav
@S av
@Row leyRhon
@Ro ss
@RealPro4 Real:</w>
@R asmussen
@PGA _
@NewYork Observer</w>
@M iranda
@M I
@Jeff Jlpa
@Gov Walker</w>
@G ra
@G in
@Forbes Inspector</w>
@E li
@Car r
@B lake
@AndreaTantar os</w>
@00 7
21 20:</w>
0 3:</w>
$ $$</w>
#fox andfriends</w>
#Mar ine
#Make DCListen</w>
#G ot
# love
y G
woo d,</w>
wom en
we eting</w>
wa y:</w>
w acko</w>
vi br
ve rely</w>
van cou
ucci :</w>
u ke
transpa rent</w>
to ying</w>
thri ving</w>
tele ct</w>
super b</w>
su re,</w>
side s,</w>
seg ments</w>
se verely</w>
reg ain</w>
recru itment</w>
re pa
ra ud
r ant
pla inti
p acific</w>
ou x</w>
ol a:</w>
o was</w>
nam e
n h</w>
mou th,</w>
mic ro
mi st</w>
m ountain</w>
lic en
lea st,</w>
lab or,</w>
kin s
is ha
ir st
i a:</w>
hispan ics</w>
her o,</w>
guest rooms</w>
gla sses</w>
g y:</w>
fore ig
fe at</w>
ey es
establish ment,</w>
est ar
disman t
deport ation</w>
deal making</w>
deal makers</w>
dan 48:</w>
custom er</w>
cot t
confid ence,</w>
comm and</w>
colle cted</w>
choo sing</w>
certa int
certa in
ceil ing
c pac</w>
bo oth
bli p</w>
benefici ary</w>
awes om
ational ,</w>
ati vity</w>
athle en
associ ates</w>
ar row</w>
any more
altern ative</w>
ales dan48:</w>
al ities</w>
aff iliated</w>
add y:</w>
ad or
_ le
Ye ah</w>
Wood ward</w>
WINN ING</w>
W hi
Val ley</w>
VER NM
VERNM ENT</w>
TRU LY</w>
Spe ech
Smar test</w>
Six teen</w>
Si oux</w>
Scand al</w>
San ctions</w>
ST E
SPE E
S ki
S as
Ro drigue
Presiden telect</w>
Pittsbur gh,</w>
PRE S</w>
PLOR AB
PLORAB LES</w>
Optim ism</w>
NE GO
NEGO TI
Mafi a</w>
MP H</w>
L ane</w>
KE N</w>
K ES</w>
Jack son:</w>
J une
I stan
I owas</w>
I g
How ards</w>
He at</w>
H ed</w>
H ands</w>
Gabri el</w>
GO VERNMENT</w>
G ,</w>
Endor ses</w>
Distric t</w>
DE PLORABLES</w>
D AT
Count ries</w>
Con cer
Co ol
Char lie</w>
CE O:</w>
C au
C ant
Bur nett
B EN
@s alesdan48:</w>
@o h
@ny mag</w>
@j _
@br it
@boston herald</w>
@b ur
@b lake
@Trump TO</w>
@Ti me
@The Fix</w>
@Team Trump</w>
@S C
@Pat ti
@Mac Millers</w>
@Justin Trudeau</w>
@J er
@DNor rell</w>
@CNN S
@C arl
@ ut
6 %,</w>
5 pm</w>
3 8:</w>
21 ,</w>
2 12:</w>
00 0:</w>
( at</w>
#S uc
# RI
zabe th
yst al</w>
yno on
ynoon anny
ynoonanny c</w>
us _
unthink able</w>
un funny</w>
toler ant</w>
ta ,</w>
t ary</w>
subsidi ze</w>
str y,</w>
state ment
st w
spe edy</w>
sil i
sign ings</w>
ro bo
re ment</w>
re ign</w>
re cession</w>
r ation</w>
promot es</w>
produc t,</w>
pr ices,</w>
po sts</w>
par king</w>
out come</w>
om s</w>
ob serv
mor tg
minut es,</w>
manufact ured</w>
ke tt
jo e:</w>
it zer
ist :</w>
isi s,</w>
intel le
int ense</w>
in ch</w>
ici ans</w>
how ard</w>
hom et
har ms</w>
go es,</w>
gg ynoonannyc</w>
geme iner</w>
gain ing</w>
fe ar
f ford</w>
escap ed</w>
end lessly</w>
ef he
de tro
de mented</w>
de cor
cul ated</w>
cr ystal</w>
contribu te</w>
constitu tion</w>
con s</w>
comple ted,</w>
comfor t</w>
cauti ous</w>
bur d
boy cot
bo s
beau ty
b and
ar ro
appro x</w>
and ering</w>
ali e</w>
admir als</w>
ad ds</w>
ack :</w>
a o</w>
a hu
X X
VE T
US :</w>
T yr
Ste el
Seni or</w>
ST UP
SI ceBucketChallenge</w>
S C
Re le
R oll</w>
Pfi zer</w>
Op en,</w>
Oli via</w>
ObamaC ares</w>
OR T</w>
N ine</w>
Mc Au
McAu liff
Mag :</w>
MIL IT
MILIT ARY</w>
MA C</w>
M ine</w>
Lux ury</w>
Lu ke
Lo bby
Lau der
La dies</w>
L AND
J P
Fol lowing</w>
Faz io</w>
FA KE
FA BR
FABR IC
F err
F UN
Ex peri
Entrepreneur ship</w>
Dit ka</w>
Classi c</w>
Call s</w>
C o</w>
C AM
CAM PA
Blumenth al,</w>
BR ING</w>
B ox
ARo d,</w>
AN K
AD A</w>
@v p</w>
@se cu
@ry an_
@pe ll
@k ings
@eli zabeth
@WS J
@Trump Rink</w>
@Pe ggynoonannyc</w>
@PIERPAOLOMONN I</w>
@P atty
@NH GOP</w>
@L yn
@Katy Tur
@K aren
@DonaldJTrump Jr:</w>
@Chris C
@C andy
@Beli efhe
@B J
@A dri
@4kmiddlebroo k:</w>
@ rac
@ one
@ 0
40 00</w>
200 8,</w>
198 0</w>
15 th</w>
14 0</w>
#BringBack OurMarine</w>
[...]
