#version: 0.2
t h
i n
r e
a n
o n
a l
e r
U N
UN K
UNK ></w>
< UNK></w>
o u
in g</w>
th e</w>
a r
r u
o r
e n
t o</w>
a t
a t</w>
ru m
i l
i t
i c
e r</w>
o n</w>
s t
i s</w>
an d</w>
rum p</w>
e d</w>
i n</w>
v e</w>
h a
s t</w>
o f</w>
on al
T h
o r</w>
l e
T rump</w>
o u</w>
e s</w>
re al
a m
o m
a n</w>
a c
onal d
l i
y ou</w>
n o
@ real
r o
b e
n e
l o
g o
th e
s i
p e
f or</w>
l y</w>
r i
l e</w>
w h
D onald
t i
s e</w>
Donald Trump</w>
a l</w>
@real DonaldTrump</w>
s h
g re
d e
i t</w>
w a
o l
e l
il l</w>
en t</w>
k e</w>
ou r</w>
e n</w>
b e</w>
g h
ar e</w>
d i
o p
th at</w>
a d
v er
ha ve</w>
n t
p re
s a
l d</w>
e s
t s</w>
gre at</w>
u r
at i
g e
w ill</w>
s e
c ou
m a
b u
er e</w>
o t
a b
m e</w>
d a
it h</w>
ou t</w>
c h
l a
go ing</w>
er ic
si d
w ith</w>
on e</w>
an t</w>
w or
u n
u c
gh t</w>
pe op
v er</w>
c om
w e</w>
al l</w>
m e
r a
Th e</w>
t a
t rump</w>
c on
peop le</w>
o w
ou ld</w>
a s
i r
in g
A m
i s
er s</w>
u st</w>
r y</w>
b am
an k</w>
a s</w>
a g
k no
at e</w>
on t</w>
Am eric
k s</w>
no t</w>
wa s</w>
s ,</w>
in t
y ,</w>
the y</w>
th is</w>
cou nt
rum p
ic e</w>
d s</w>
il l
j o
A n
p p
v i
a u
k ing</w>
sid ent</w>
s o</w>
da y</w>
O bam
f or
ge t</w>
m y</w>
i g
t o
h e</w>
W e</w>
k e
n t</w>
o w</w>
t t
2 0
ver y</w>
e x
f u
ar y</w>
d o
c e</w>
Th e
d o</w>
p ro
T rump
N e
on s</w>
b y</w>
d ont</w>
w e
m o
m an
count ry</w>
R e
o d</w>
y e
r e</w>
li ke</w>
h i
u s
W h
ati on</w>
An d</w>
f a
t e
y our</w>
w ould</w>
a d</w>
y s</w>
onal d</w>
C h
ha s</w>
m or
i ght</w>
th ing</w>
th er</w>
b o
t h</w>
ab out</w>
p u
s u
20 1
it y</w>
w s</w>
at s</w>
v e
in k</w>
i m
p ol
p a
ac k</w>
ro m</w>
f f
an d
j ust</w>
kno w</w>
en t
Th ank</w>
y ou
s s</w>
f rom</w>
wh at</w>
bu t</w>
it s</w>
G re
i d
Y ou</w>
e c
w ant</w>
i d</w>
s p
on e
il li
d onald
u s</w>
ar d</w>
s pe
m ent</w>
el l</w>
e v
lo o
h e
donald trump</w>
t er
e le
wh o</w>
uc h</w>
al ly</w>
Obam a</w>
p l
@real donaldtrump</w>
P re
g i
ti me</w>
an ks</w>
m b
w ere</w>
i r</w>
th ink</w>
an s</w>
a r</w>
b i
ma ke</w>
B u
p o
pre sident</w>
p pre
p er
a in</w>
t r
en d
f o
c an</w>
D e
mor e</w>
D onald</w>
g e</w>
201 6</w>
go od</w>
I m</w>
ar t
s om
v ot
c i
au se</w>
g u
b r
u p</w>
ppre nt
ti on</w>
man y</w>
b ack</w>
es s</w>
ne w</w>
@ M
at e
ar s</w>
n ing</w>
on g</w>
fu l</w>
ne ver</w>
f i
ill ary</w>
le a
@ B
be c
c re
h is</w>
p or
ac k
ru n</w>
the m</w>
al l
ne ed</w>
m uch</w>
ing s</w>
ati on
M a
wa y</w>
ad e</w>
Americ a</w>
i f</w>
Bu t</w>
b le</w>
d er</w>
th ank</w>
l l</w>
no w</w>
y ing</w>
c e
bec ause</w>
S t
g o</w>
bi g</w>
The y</w>
lo ve</w>
be en</w>
t al
m in
Pre sident</w>
b l
t ru
g r
t er</w>
i es</w>
t ur
se e</w>
ar t</w>
a m</w>
sh ould</w>
ou n
e re
l int
th an</w>
sa id</w>
Gre at</w>
d y</w>
t ed</w>
q u
ou s</w>
vi e
am e</w>
ver y
c h</w>
s in
real ly</w>
d er
o ther</w>
o o
n o</w>
c or
A pprent
st r
wh en</w>
H illary</w>
ri ght</w>
the ir</w>
H e</w>
c ant</w>
an y
con t
J o
y re</w>
com e</w>
Th anks</w>
st or
f ri
g h</w>
be st</w>
R E
o ver</w>
S o</w>
en d</w>
it ic
ac e</w>
t on
re d</w>
e t
d ,</w>
0 0</w>
k ed</w>
l u
jo b
m an</w>
in a</w>
m one
w ,</w>
at es</w>
w at
I ts</w>
d nt</w>
ou gh</w>
sa y</w>
go t</w>
I t</w>
ow n</w>
i c</w>
an n
ev en</w>
m p
it e</w>
le ad
C lint
bo dy</w>
loo k</w>
t ,</w>
c o
c a
f in
es ,</w>
L e
illi on</w>
v ing</w>
h ow</w>
be li
int er
C on
e ,</w>
e very
s o
u l
vot e</w>
it ed</w>
e ve</w>
i a</w>
ir st</w>
e ver</w>
on ly</w>
ha d</w>
U n
la st</w>
mone y</w>
el l
d ing</w>
bu il
ha pp
# Trump
b le
ta ke</w>
w in</w>
bl ic
pu blic
@ C
Ne ws</w>
ye ars</w>
we e
som e
p r
am eric
E R
s :</w>
I f</w>
s m
w in
at ed</w>
mb er</w>
s on</w>
tt er</w>
a z
ic h</w>
lo t</w>
en ds</w>
at t
c t</w>
jo b</w>
e p</w>
hi m</w>
wor k</w>
wor ld</w>
it t
a f
pol itic
inter vie
h er</w>
sh e</w>
s c
@ F
m s</w>
f e
t ot
in e</w>
s si
b ad</w>
th ere</w>
su pp
@ S
e l</w>
com p
Americ an</w>
sh ow</w>
bu sin
ati ons</w>
kno w,</w>
N o
to day</w>
ation al</w>
s er
f ac
job s</w>
a ,</w>
ag ain</w>
do ing</w>
M A
ab le</w>
er ,</w>
ur e</w>
ch an
Clint on</w>
m ust</w>
Apprent ice</w>
the yre</w>
be tter</w>
U S
de al</w>
w i
an y</w>
an k
N B
b or
i st
al s</w>
c tion</w>
por t
le g
G o
de b
in to</w>
c r
h on
sh i
mo st</w>
tt ing</w>
e st
supp or
a in
A g
Ne w</w>
you re</w>
b er
di d</w>
h o
beli eve</w>
a y</w>
it i
ol d</w>
fri ends</w>
p la
s ed</w>
e d
wa ys</w>
I C
lea se</w>
st o
th ats</w>
c u
st e
ou r
th ings</w>
stor y</w>
ar ack
ag o</w>
s ing</w>
f irst</w>
ro w
ti m
pe n</w>
w ard</w>
ton ight</w>
w an
m ade</w>
cou ld</w>
h el
o ff
c an
Re public
me di
be ing</w>
@ D
RE A
s el
ro o
M r</w>
u p
ig n</w>
p ri
e t</w>
n ight</w>
Ch ina</w>
n u
v es</w>
#Trump 2016</w>
h es</w>
wh ere</w>
M y</w>
com m
@ J
the se</w>
am az
R o
d one</w>
T H
T o
c t
Ag ain</w>
si on</w>
Th is</w>
s uc
th ou
e con
ir e</w>
w ell</w>
gi ve</w>
ing ,</w>
n i
on ,</w>
es s
T R
c am
L i
d own</w>
@ A
en ti
f f</w>
u r</w>
en er
an ,</w>
@ m
v ed</w>
happ en
en ce</w>
t re
amaz ing</w>
t w
re al</w>
c are</w>
f e</w>
es nt</w>
M ar
si g
som e</w>
wh ich</w>
A M
gh t
ou se</w>
en ts</w>
pro ble
W ere</w>
r ic
J ust</w>
NB C</w>
@B arack
ha p
t ell</w>
a pp
re s</w>
h ard</w>
fo x
a gre
di dnt</w>
lo w
A N
I n
w on
d onald</w>
cou r
for ward</w>
do esnt</w>
pl ace</w>
ag ain
ele br
n ice</w>
ru n
st er</w>
@ fox
ol l
fa il
ne ws</w>
u t
busin ess</w>
G REA
re ad
o re
econ om
u m
d re
intervie w</w>
il it
I ve</w>
al ways</w>
the n</w>
e st</w>
e ds</w>
m on
o x
op e</w>
@ T
@ Trump
th anks</w>
e very</w>
o k</w>
ac t
GREA T</w>
suc c
ke ep</w>
om e</w>
tru e</w>
americ a</w>
, 0
ig r
cam pa
Americ a
id ,</w>
o bam
m igr
wh y</w>
a p
ci al</w>
U S</w>
mo cr
ro w</w>
ver n
lo w</w>
c lu
s ol
I S
t rump
1 0
illi ons</w>
ne x
le t</w>
s s
com ing</w>
Wh at</w>
y :</w>
I N
I N</w>
1 :</w>
sa id,</w>
a re
W ill</w>
A l
nex t</w>
c ur
ye ar</w>
n ed</w>
Un ited</w>
@ j
ri ble</w>
pu t</w>
@ n
w r
Gre at
ne eds</w>
gu y</w>
AM ER
ow er</w>
in cre
i l</w>
o se</w>
AMER IC
shi p</w>
il e</w>
TR U
m illion</w>
I n</w>
on g
m ar
Obam a
go l
k ,</w>
c all
ow ,</w>
f am
as on</w>
af ter</w>
oun d</w>
@F ox
tal k</w>
au ti
for e</w>
,0 00</w>
st er
@fox and
wat ch
a ke</w>
di sa
ne y</w>
medi a</w>
ta x</w>
f ol
l ong</w>
G O
C ar
O ur</w>
K E</w>
re spe
re cor
re pre
int ere
ent ,</w>
Wh y</w>
@Barack Obama</w>
@foxand friends</w>
@ P
v ic
im migr
i z
I s
O T
t om
k es</w>
I r
an ds</w>
tim es</w>
b ig
sto p</w>
L oo
c ot
w om
k ill
C are</w>
u e</w>
le ss</w>
a k</w>
s y
u st
tot al</w>
O n
again st</w>
a ve</w>
A r
il y</w>
d e</w>
be fore</w>
st ing</w>
wat ch</w>
h ere</w>
# Ma
ag e</w>
# C
tr ade</w>
m is
re n
an ta
campa ign</w>
an other</w>
n ational</w>
read y</w>
or k</w>
G A
me ,</w>
W a
#Ma ke
n er</w>
l dnt</w>
B e
da ys</w>
tw o</w>
at ing</w>
cont )</w>
( cont)</w>
no thing</w>
wa it</w>
Great Again</w>
ic e
l and</w>
t ra
m ilit
#Make America
loo king</w>
w ar
wor king</w>
R us
ge tting</w>
AMERIC A</w>
M e
der ful</w>
TRU M
ex ic
Th ats</w>
an ce</w>
M exic
De mocr
H ouse</w>
v en</w>
i m</w>
hap pen</w>
#MakeAmerica GreatAgain</w>
suppor t</w>
i on</w>
e p
wan ts</w>
tom or
I ll</w>
hon or</w>
Wh en</w>
pro te
ele ction</w>
br ing</w>
h ope</w>
an g
il leg
auti ful</w>
some thing</w>
me mber</w>
L o
u se</w>
@ b
im port
sh ing
al so</w>
won derful</w>
J e
R om
@Fox News</w>
roo ked</w>
per son</w>
f t</w>
O N
l y,</w>
hel p</w>
u ally</w>
Y ou
St ates</w>
di s
pre sid
or s</w>
i ver
@ K
B i
gh ts</w>
th ose</w>
p t</w>
c k</w>
S he</w>
so on</w>
obam a</w>
di d
g in
P e
d uc
hi gh
N o</w>
Rus si
G ol
gol f</w>
tur e</w>
de f
N N</w>
cour se</w>
di sc
le ,</w>
S en
st ic</w>
s en
deb ate</w>
buil d</w>
p art
to o</w>
c lo
de st
ge st</w>
E n
Obama Care</w>
itt le</w>
ec h</w>
ter r
tot ally</w>
gr at
I S</w>
it ,</w>
Jo h
c row
can did
run ning</w>
p lease</w>
tomor row</w>
ele b
ta x
i e
pol l
s ure</w>
sel f</w>
ar d
A f
str ong</w>
s ur
you ,</w>
ou d</w>
be autiful</w>
A L
S cot
go ti
sm art</w>
st and</w>
c la
l or
chan ge</w>
th r
V er
Ne w
d oll
u d
ma king</w>
p h
mb ers</w>
am p
A GA
w ont</w>
milit ary</w>
fa r</w>
grat ul
V ia</w>
spe ech</w>
B us
re ,</w>
disc us
recor d</w>
tal king</w>
US A</w>
da y,</w>
as ed</w>
ha mp
a pprent
c ol
t or
fu l
is h</w>
ate st</w>
C om
y n
ic k
pa y</w>
t on</w>
jo y</w>
c ted</w>
MA KE</w>
ann oun
l ittle</w>
y ed</w>
end ing</w>
H ow</w>
in t</w>
go vern
@ H
AGA IN</w>
N or
pol l</w>
o b
st art</w>
ru z</w>
in e
g y</w>
o ff</w>
li fe</w>
m illions</w>
S e
ri st
ow a</w>
o ,</w>
l l
@ R
se en</w>
I nt
politic i
t e</w>
anta stic</w>
me et
TRUM P</w>
do es</w>
me an,</w>
sa ying</w>
wi th
uc k</w>
O R
N Y
di ff
s on
c er
en e
t y</w>
c ri
h ig
D ont</w>
proble m</w>
F or
vi a</w>
The yre</w>
P o
Republic an</w>
ou th</w>
mor ning</w>
econom y</w>
s uch</w>
re e</w>
@ L
R u
elebr ity</w>
f r
@ E
GO P</w>
doll ars</w>
a v
ne goti
Rom ney</w>
Apprent ice
@ k
us ed</w>
Ir an</w>
pr oud</w>
p as
E N
c ti
any thing</w>
o th
a w
bo ok</w>
pol ic
N ational</w>
Americ ans</w>
Republic ans</w>
2 :</w>
d ic
Bi g</w>
re por
c ame</w>
ssi ve</w>
li ve</w>
in d</w>
k er</w>
gratul ations</w>
N ow</w>
W at
i str
Obam as</w>
H e
cont in
M i
al th
to p</w>
agre e</w>
di ble</w>
illeg al</w>
ic ago</w>
or der</w>
3 :</w>
Ver y</w>
enti al</w>
b ab
# trump
min istr
lo st</w>
a st
f un
wh o
ou ldnt</w>
import ant</w>
bor der</w>
Y ork</w>
m i
T ru
ma j
@ d
a st</w>
g g
repre ne
m end
hi story</w>
ch ar
er ship</w>
ye ster
un der
@ Apprentice
ati ve</w>
lo b
call ed</w>
eleb Apprentice</w>
ex c
st art
it ing</w>
g ave</w>
A ll</w>
m ,</w>
T i
id d
en s</w>
gre atest</w>
Y O
Ma ke</w>
Wa shing
spe cial</w>
W or
i de
one st</w>
an s
pre ss</w>
buil ding</w>
1 9
en ing</w>
al i
P ol
ou t
h or
every one</w>
wh ats</w>
w ent</w>
to ge
or al</w>
h ot
succ ess</w>
Th ink</w>
disa ster</w>
mend ous</w>
E S
I owa</w>
com pe
f antastic</w>
se ,</w>
st s</w>
C rooked</w>
it ies</w>
M o
A d
wee k</w>
terr or
c ar
T a
ch o
A R
watch ing</w>
A T
he ar</w>
@Apprentice NBC</w>
le s</w>
ic k</w>
immigr ation</w>
st ate</w>
t ough</w>
1 0</w>
r at
at ,</w>
Mexic o</w>
Th at</w>
qu est
respe ct</w>
G e
S ec
end or
act ually</w>
v en
ter rible</w>
ell ,</w>
v ank
nu mbers</w>
fo c
incre dible</w>
E R</w>
V e
er :</w>
s ands</w>
c all</w>
w ed</w>
sin ce</w>
Trump ,</w>
en n
sol u
s es</w>
th in
fo re
apprent ice</w>
st ill</w>
happ y</w>
ri es</w>
a k
cont ro
r y,</w>
every body</w>
sh o
h u
it e
No t</w>
H es</w>
@ The
sh es</w>
@ I
s h</w>
ma g
0 0
diff ere
N E
re ad</w>
an t
C ruz</w>
lead ers</w>
for m
M c
f ight</w>
F o
h ,</w>
Democr ats</w>
se ason</w>
s ame</w>
K e
st up
y ers</w>
wor st</w>
w all</w>
ar ound</w>
a way</w>
o ver
V ot
I ra
p s</w>
p m</w>
de als</w>
b ad
D o
h ell</w>
ac h</w>
tre mendous</w>
tru th</w>
sa ys</w>
ma ssive</w>
Pe op
Ch icago</w>
IS IS</w>
nu mber</w>
Go od</w>
w on</w>
l ine</w>
every thing</w>
con f
l ar
Wh ite</w>
mp lo
off ice</w>
the y
kno ws</w>
c ent</w>
Nor th</w>
idd le</w>
h er
sh ow
k en</w>
c es</w>
b illion</w>
se e
d ers</w>
@M itt
m r</w>
it y
un der</w>
Peop le</w>
S u
St ate</w>
Pre sid
ou ght</w>
el se</w>
thr ough</w>
F ake</w>
ou nt
m ents</w>
F lor
fri end</w>
ac t</w>
st ate
le ft</w>
in es</w>
i se</w>
an ia</w>
pl an</w>
Trump :</w>
B o
la r</w>
ation ,</w>
t old</w>
or t</w>
ic al</w>
@ G
c ed</w>
thou sands</w>
po ssi
un e</w>
wom en</w>
Con gratulations</w>
fam ily</w>
govern ment</w>
sid e</w>
compe t
you r
se cur
lo s
K ore
S ta
Bus h</w>
yester day</w>
poll s</w>
fa v
ta king</w>
in clu
wa y,</w>
reprene ur
h ar
I L
ic i
ministr ation</w>
vi sion</w>
b ot
B ec
count ries</w>
fail ing</w>
F irst</w>
a :</w>
ac e
ou gh
d ed</w>
@ c
sy ste
OT US</w>
S outh</w>
M on
b y
@ W
ser v
hig h</w>
YO U</w>
rat ings</w>
toge ther</w>
comp an
big gest</w>
u gh
y be</w>
r ad
ur ing</w>
st ru
dest ro
ad v
in ve
4 :</w>
i ous</w>
c y</w>
Ch rist
D o</w>
g as</w>
IN G</w>
n ation</w>
crow d</w>
ke t</w>
i st</w>
F or</w>
meet ing</w>
P art
lead er</w>
$ 1
id a</w>
@C NN</w>
e ar
succ ess
ate ly</w>
po s
l uck</w>
h illary</w>
A C
thou ght</w>
P lease</w>
sp on
s k
G A</w>
wh ile</w>
tur n</w>
tax es</w>
r y
Th ere</w>
On e</w>
li sh
v il
TH E</w>
t ri
re member</w>
att ack</w>
le ar
b a
ye ar
M is
happen ed</w>
W ith</w>
A s</w>
politic al</w>
st and
spe a
be come</w>
win ning</w>
@ Re
l an
S y
lead ership</w>
l and
with out</w>
Le ts</w>
ful ly</w>
tr ying</w>
wr ong</w>
@n y
sig n</w>
proble ms</w>
ac are</w>
it u
wor k
er s,</w>
L E
S te
any one</w>
a y
intervie wed</w>
re t
re spon
h it</w>
i ve</w>
e as
D oral</w>
politici ans</w>
bab ly</w>
@ p
d um
b ir
maj or</w>
for m</w>
t ing</w>
Washing ton</w>
su l
ti ve</w>
be at</w>
discus sing</w>
@Mitt Romney</w>
B e</w>
le ar</w>
Con gre
de ci
T o</w>
fa st</w>
an ts</w>
Russi a</w>
S ch
B ill</w>
sa d</w>
tru ly</w>
T e
a th
G et</w>
ic e,</w>
n s</w>
H app
ener gy</w>
to ok</w>
7 :</w>
st ates</w>
al ,</w>
te ly</w>
pr om
You re</w>
he ad</w>
wor se</w>
com es</w>
N O
app ro
uc k
peop le,</w>
syste m</w>
or e</w>
sa w</w>
L I
ye t</w>
te le
e :</w>
ch il
sa ve</w>
0 %</w>
: 00</w>
secur ity</w>
sh ire</w>
re fu
oth ers</w>
il ity</w>
Car ol
Joh n</w>
w /</w>
al most</w>
candid ate</w>
vic tor
fi x</w>
C ount
wan ted</w>
g er</w>
N ow,</w>
ec t</w>
c k
B er
ist s</w>
m at
al low
@ s
iti on</w>
ha ving</w>
compan ies</w>
Gol f</w>
gr ou
at or</w>
st u
Scot land</w>
ge ts</w>
Sy ri
C u
b ro
u m</w>
A S
1 1
Me di
E x
pl ac
ac ys</w>
pro bably</w>
E nt
C elebrity</w>
De b
ra is
ou s
@ N
fa ir</w>
sh onest</w>
ex p
de n</w>
W e
T ower</w>
En joy</w>
Is ra
o il</w>
Loo king</w>
ill y
m y
un ited</w>
w el
#C elebApprentice</w>
op p
you ve</w>
Fo x</w>
I d</w>
Flor ida</w>
m ent
se t</w>
fac t</w>
8 :</w>
Li ke</w>
Ira q</w>
su b
el ly</w>
O n</w>
n ame</w>
hamp ion</w>
c lint
sp ent</w>
ong er</w>
la w</w>
ma y</w>
li st
l y
P ro
wor l
O N</w>
in d
o :</w>
al ready</w>
Bec ause</w>
stup id</w>
5 0</w>
p le
success ful</w>
t we
b c</w>
ti l</w>
bad ly</w>
li es</w>
p ar
wor ds</w>
he ard</w>
E very
beli ev
Kore a</w>
d uring</w>
li c</w>
o pen</w>
hot el</w>
fi ght
ar y
a il
P ri
Happ y</w>
some one</w>
W ow,</w>
r an
5 :</w>
ti es</w>
Wat ch</w>
fin d</w>
k ay</w>
g es</w>
fu ture</w>
comp le
re le
1 2
no body</w>
d on
ann ity</w>
v in
under stand</w>
st a
ne w
americ an</w>
l am
b ra
pu b
re ason</w>
clo se</w>
per i
h ome</w>
he alth
er man</w>
happen ing</w>
spe ak</w>
bot h</w>
er ry</w>
differe nt</w>
start ed</w>
mo ve</w>
is ,</w>
gh t,</w>
6 :</w>
sa y,</w>
prote ct</w>
chan ce</w>
er s
I T
ener al</w>
O U
po lo
P E
n ce</w>
inclu ding</w>
count ry,</w>
W ell,</w>
b ack
@ se
ad s</w>
No ,</w>
fore ign</w>
fac t
Je b</w>
is m</w>
th day</w>
vi si
c ess</w>
lo c
De al</w>
@real Donald
vi d
st ed</w>
Trump s</w>
de c
bo o
ce ment</w>
ter ans</w>
fail ed</w>
Go vern
t wee
gi ven</w>
h al
H amp
ec k</w>
fi c</w>
ti ons</w>
Un iver
p ower</w>
ad ing</w>
comm un
m ess</w>
se con
le ad</w>
s ch
h ouse</w>
bu y</w>
s ent</w>
V E</w>
c ra
di shonest</w>
d ou
New s
un til</w>
who le</w>
m en</w>
C ol
f ic
foc us</w>
a h
ac h
ma kes</w>
loo ks</w>
e ma
en ough</w>
p an
@ gre
@ me
lob al</w>
k i
W i
tr illion</w>
a go
kno w
f ra
me an</w>
ne ss</w>
g ra
Ent repreneur
Ke ep</w>
can not</w>
u ne
pla y</w>
solu tely</w>
ta ken</w>
econom ic</w>
er ing</w>
3 0</w>
n ,</w>
Ar t</w>
ve l</w>
a polo
n am
in ing</w>
C ant</w>
w ish</w>
al th</w>
S un
bi o</w>
deb t</w>
I s</w>
hor rible</w>
il s</w>
s nt</w>
es ome</w>
m ing</w>
contin ue</w>
busin ess
cor re
Jo in</w>
p ic
m ary</w>
T r
ve ,</w>
T ed</w>
en ,</w>
on ce</w>
inve st
w ouldnt</w>
sh ed</w>
in sp
P M</w>
fam il
possi ble</w>
el s</w>
c ent
m ist
we ve</w>
roo m</w>
ric an
clint on</w>
Sen ate</w>
wee k
Y our</w>
st ay</w>
z e</w>
M ic
Carol ina</w>
p er</w>
b re
h ur
ri s
h at
@ the
contro l</w>
an i
pub lic</w>
ow er
Int er
re public
@ V
fa ke</w>
fight ing</w>
p ra
O B
sig ned</w>
gi ving</w>
be gin
Ge or
ro ss</w>
lo se</w>
is nt</w>
Tru e</w>
g row
# MA
en tion</w>
sp ending</w>
D i
#trump 2016</w>
allow ed</w>
M any</w>
fe el</w>
ca re
Lo ve</w>
Part y</w>
mon th
Wor ld</w>
kill ed</w>
min d</w>
ha m
pro duc
lea ving</w>
de sp
p art</w>
@ Jo
st ,</w>
F ri
ce ,</w>
o f
g ame</w>
Medi a</w>
c o</w>
sm all</w>
secon d</w>
la ugh
fol ks</w>
Ta x</w>
f re
T ur
D ay</w>
uc lear</w>
cla ss</w>
d it</w>
on es</w>
bu d
A F
ma ybe</w>
u es</w>
polic y</w>
t ers</w>
Ti me</w>
ad m
C o
si ve</w>
s ing
repor t</w>
m om
1 6</w>
i on
re sul
thin king</w>
kill ing</w>
an h
ri d</w>
ab solutely</w>
at h</w>
it y,</w>
g yn
your self</w>
sen se</w>
h ate</w>
g an
l ed</w>
ni e</w>
Hamp shire</w>
#MA GA</w>
any body</w>
a se</w>
Joh n
pl an
in v
G o</w>
E S</w>
as k</w>
r ace</w>
at ur
tele vision</w>
t ell
in s</w>
S h
Entrepreneur s:</w>
@I vank
y er</w>
cer ta
ne g
we ak</w>
a ir
c iti
M el
you n
w it
ca p
re l
De ms</w>
n uclear</w>
g lobal</w>
lo sing</w>
D a
G od</w>
@Ivank a
ans w
gu l
won der</w>
v is
some body</w>
ti c</w>
f an</w>
k ind</w>
health care</w>
C an</w>
de al
the res</w>
k new</w>
gyn k
2 0</w>
th er,</w>
TH AN
on al</w>
i ke
@me gynk
F A
cu t</w>
wa r</w>
t a</w>
sp o
th ree</w>
y ment</w>
fact or</w>
ar ing</w>
th re
po int</w>
ate ,</w>
Th ank
Se e</w>
9 :</w>
pe al</w>
in ste
hal f</w>
ne s
me mb
en i
man u
gr ats</w>
presid ential</w>
C an
any more</w>
@ny times</w>
si ons</w>
v al
j e
Mis s</w>
in ner</w>
f our</w>
ge ,</w>
g one</w>
Y e
Po st</w>
P al
N Y</w>
Isra el</w>
at ors</w>
ren g
h and
H o
e f
jo in</w>
chil dre
victor y</w>
A L</w>
watch ed</w>
h un
le ts</w>
Re member</w>
NB C
p hon
j ud
in st
f al
u lar</w>
en se</w>
f ree</w>
elebr ity
O ff
T u
P ar
H ar
The se</w>
gre at
sh ing</w>
si mp
politic s</w>
B r
om e
one ,</w>
no w,</w>
l in
cre ate</w>
z y</w>
intere sting</w>
lea ve</w>
e b
r ac
S I
Loo k</w>
per cent</w>
is su
e ther</w>
mplo yment</w>
d ro
Ch in
@megynk elly</w>
M it
buil t</w>
ut e</w>
d ge</w>
C NN</w>
t ro
c au
b s</w>
spea king</w>
for get</w>
aw esome</w>
EN T</w>
st e</w>
y s,</w>
lea st</w>
Obam acare</w>
job s,</w>
ex pe
1 1</w>
s ha
ac tion</w>
f l
def ic
Ch ar
o s</w>
ore illy
b an</w>
r ich</w>
F O
S o
tur ned</w>
ca se</w>
bor ders</w>
la w
fi red</w>
T im
year s,</w>
G ra
z ing</w>
so ,</w>
re ce
ir gin
ter ri
er ous</w>
de li
om in
B ar
ous ly</w>
hi o</w>
part y</w>
ic es</w>
as ked</w>
sing le</w>
v el
ch e
us ing</w>
al ong</w>
m iddle</w>
en joy</w>
@ jo
n a</w>
are nt</w>
sur pri
gg ed</w>
O r
op port
R ight</w>
sa fe</w>
@se anh
ra ise</w>
Wh o</w>
S o,</w>
Congre ss</w>
wom an</w>
te am</w>
d :</w>
famil ies</w>
@ oreilly
g ed</w>
ppre ci
opport un
re as
n ber
@ g
ic s</w>
gu ys</w>
go tt
fav or
p le</w>
one st
month s</w>
eas y</w>
win d</w>
Clint ons</w>
me ans</w>
t ough
fin ally</w>
re nt</w>
comp any</w>
@ An
vot ing</w>
Sun day</w>
win ner</w>
G u
@seanh annity</w>
wel come</w>
s ent
an a</w>
N C</w>
C lu
th at,</w>
at es,</w>
L O
R O
ce pt</w>
youn g</w>
wee ks</w>
u al</w>
cor ru
E D</w>
ere nce</w>
ust ice</w>
citi z
m er</w>
intere sts</w>
im medi
at ri
re port
F B
Gol f
lead ing</w>
b al
s end</w>
work ers</w>
a ir</w>
mis s</w>
Ru bio</w>
st reng
l onger</w>
fu n</w>
I m
deci sion</w>
apolo gi
W al
Syri a</w>
oo l</w>
Count ry</w>
re gul
R es
hel p
l v
cho ice</w>
b ur
cre dit</w>
f ar
ab lish
@Ivanka Trump</w>
cou ldnt</w>
all ,</w>
t une</w>
r ally</w>
Sta r</w>
th er
presid ent,</w>
i ons</w>
o d
al low</w>
C O
li ves</w>
G eneral</w>
In di
Deb ate</w>
E le
T I
am a</w>
ve ment</w>
Sec ret
a ppreci
w al
do m</w>
Af ter</w>
vie w</w>
o red</w>
S and
ad a</w>
a ge
ra in
@oreilly factor</w>
m es
W E</w>
fi ve</w>
F r
ill s</w>
e mb
AL L</w>
vot es</w>
en for
@ r
pla ying</w>
J ap
ar i
P u
z er
ec u
ago ,</w>
M in
T ex
s al
S pe
ev ening</w>
fa ir
col le
Com m
t ry</w>
C our
fu ll</w>
bir thday</w>
am p</w>
v al</w>
Vot e
d y
announ ced</w>
show s</w>
c ha
ad ministration</w>
3 0
cu ts</w>
visi t</w>
@ O
m ent,</w>
@Re al
iz e</w>
H ot
Ber nie</w>
E M
p ur
d ru
1 2</w>
li e</w>
P er
ver y,</w>
state ment</w>
sy lv
e ff
lo ved</w>
@ w
T O</w>
pre dic
c li
P en
fol low</w>
L in
Ad ministration</w>
M iddle</w>
lo ves</w>
enn sylv
20 0
our s</w>
@ t
in compet
co st</w>
bud get</w>
A B
Inter national</w>
war ming</w>
de ,</w>
childre n</w>
S how</w>
R iver
pa ying</w>
str ong
P P
tur ing</w>
Secret ary</w>
r is</w>
Ne ver</w>
V irgin
b s
Sec ur
corre ct</w>
O hio</w>
c elebrity</w>
pro per
d ol
b ar
f il
B est</w>
# F
in ,</w>
rele ased</w>
intere st</w>
NY C</w>
lo ts</w>
fin an
fi ed</w>
rad ical</w>
Pol itic
S T
insp ir
v ir
polic ies</w>
A ma
wh ite</w>
th ,</w>
) ,</w>
stand ing</w>
ide a</w>
en g
n or
THAN K</w>
D A
de ser
begin ning</w>
pa st</w>
pp ed</w>
ev ent</w>
Ve gas</w>
vot ed</w>
ve lo
ablish ment</w>
ch eck</w>
@ Ch
c as
ar l
sm art
S tr
th ing,</w>
ac ross</w>
g an</w>
big ger</w>
am es</w>
Tu es
R ic
Mel ania</w>
am s</w>
ed uc
O kay</w>
# Vote
ter m</w>
st ra
V OT
or ,</w>
ut es</w>
On ly</w>
$ 5
mat ter</w>
A N</w>
believ able</w>
phon y</w>
FB I</w>
t u
b illions</w>
high est</w>
ep is
pre mi
C ent
me et</w>
s our
$ 1</w>
they ve</w>
endor se
ct or</w>
wa snt</w>
C hampion</w>
1 3
tur b
@ Ro
neg ative</w>
lam ic</w>
10 0%</w>
wa ste</w>
wh ether</w>
g s</w>
ven tion</w>
T V</w>
Christ i
no t
une mployment</w>
pa id</w>
is pan
con cer
az ine</w>
sa ge</w>
ou l
b all</w>
a ke
g la
fe w</w>
thou ghts</w>
in form
r an</w>
grou p</w>
cti ons</w>
Univer se</w>
m ention</w>
Govern or</w>
ma x
r ate</w>
h tt
sp end</w>
go es</w>
ti me,</w>
all y,</w>
po st</w>
ma s</w>
v ate</w>
incre ase</w>
end ment</w>
fac turing</w>
fol low
H A
we ight</w>
i ght
se cre
happen s</w>
a head</w>
inste ad</w>
favor ite</w>
ou ch</w>
s ort</w>
comm on</w>
ch ina</w>
are ,</w>
quest ion</w>
memb er,</w>
ar k
immedi ately</w>
ri gged</w>
st ar
de mocr
H ill
wor d</w>
cou ple</w>
S ome
le x
on a
Americ as</w>
A t</w>
los ers</w>
ta kes</w>
de fe
li g
H ave</w>
es :</w>
Mc C
Mi ke</w>
re gi
pos iti
g y
ist er</w>
au l
( and</w>
week end</w>
W eve</w>
I R
or ity</w>
e y
E ast</w>
# D
gott en</w>
ci ally</w>
in ed</w>
d ow
# 1</w>
candid ates</w>
P OTUS</w>
ke ep
ca st</w>
c rooked</w>
th u
ack ed</w>
s an
comple te</w>
g ener
ema ils</w>
list en</w>
W S</w>
d ang
sid er</w>
wi fe</w>
off ici
Th en</w>
Jo e</w>
sa f
ES T</w>
le vel</w>
e i
di re
vi ol
im p
b b
atur day</w>
again ,</w>
ab ility</w>
#C elebrity
v o
qu i
T ough</w>
ve ts</w>
O h,</w>
re nt
z z
laugh ing</w>
de velo
zer o</w>
ur y</w>
as king</w>
mag ine</w>
s ell</w>
dum b</w>
t un
serv ice</w>
M an
et y</w>
ac ks</w>
wor ks</w>
th ough</w>
en cy</w>
ve terans</w>
nber ry</w>
ing ing</w>
in c
er al
To day</w>
endor sed</w>
P ennsylv
AN D</w>
re :</w>
for ce</w>
Sen ator</w>
@Barack Obamas</w>
respe cted</w>
los er</w>
enti re</w>
tr ou
ar y,</w>
ver ,</w>
cri me</w>
D C</w>
@M acys</w>
answ er</w>
wa iting</w>
u nt
P RE
resul ts</w>
hat ers</w>
@E ric
Re ally</w>
d am
n er
Wh ite
T A
ver age</w>
an ke
te st</w>
R U
wor th</w>
st ar</w>
n y
fi el
or d
htt p
cou ra
high ly</w>
n y</w>
ex peri
an s,</w>
M ag
k :</w>
de ad</w>
F L</w>
Vot e</w>
li f
b as
0 :</w>
pro f
N N
t s,</w>
lear n</w>
#Celebrity Apprentice</w>
b ri
b it</w>
fal se</w>
I G
art ic
A ri
S p
Ru n</w>
Ti me
r ated</w>
no ,</w>
dre ds</w>
li ght
twe en</w>
m il
be tween</w>
S er
E T</w>
re et</w>
@ ch
sh ouldnt</w>
the m,</w>
Tim es</w>
start ing</w>
fr ont</w>
b ank
vie ws</w>
ton ,</w>
ann y
@ h
B a
H ispan
E L
P A
b ol
E ven</w>
tre ated</w>
h ol
fri end
fac t,</w>
M E</w>
V ER</w>
n ing
W est</w>
No body</w>
hap s</w>
c elebr
Tex as</w>
L a
tell ing</w>
no w
P ut
ar ri
terri fic</w>
mo ving</w>
ve ly</w>
cr itic
Con grats</w>
@C elebApprentice</w>
republic an</w>
F i
destro y</w>
O K</w>
S hes</w>
vi de
plac es</w>
pp ing</w>
all en
Clu b</w>
mar ket</w>
e f</w>
d ri
g un
G et
ac comp
grow th</w>
L Y</w>
us li
sp i
s cre
T ra
f er
itt ing</w>
br inging</w>
u e
VOT E</w>
Mon day</w>
pre s
te e</w>
e ach</w>
v ac
n ers</w>
defic it</w>
1 5</w>
stor ies</w>
e d,</w>
vi d</w>
l at
i magine</w>
FO R</w>
sel f
Secur ity</w>
C H
we ap
B ro
hun dreds</w>
to day,</w>
w ire</w>
FA KE</w>
enfor cement</w>
n d</w>
au d
m u
Al ab
negoti ate</w>
@gre ta
id e</w>
t :</w>
op s</w>
manu facturing</w>
campa ig
Le ad
B y</w>
exc iting</w>
B lu
worl d,</w>
ic ha
ele cted</w>
li ed</w>
v ent</w>
p ower
exc ited</w>
C ity</w>
ri c</w>
Virgin ia</w>
ve mber</w>
suppor ters</w>
run s</w>
f ace</w>
es pe
Wat ch
ma ke
A D
@realDonald Trump:</w>
# America
stu ff</w>
an ge</w>
P h
to days</w>
sh ir
rece i
ter min
te d,</w>
de p
you ll</w>
se y</w>
t ow
To Get
1 4</w>
li sh</w>
V ER
ou t,</w>
Wi th
J OB
endorse ment</w>
der al</w>
S ,</w>
conf id
is con
Off ice</w>
S to
Mar co</w>
tt y</w>
ne id
e ch
we bs
Bus in
li ber
h onest
char ity</w>
me t</w>
b ought</w>
O F</w>
s il
vil le</w>
Re ag
hon ored</w>
an :</w>
s itu
qu ick
is s
f ire</w>
W all</w>
@M ike
ct ing</w>
z :</w>
s ac
st opp
hu ge</w>
c le
see ing</w>
ecu tive</w>
d d
certa in</w>
we st</w>
c over</w>
T er
Hot el</w>
T S</w>
z on
on d</w>
j ect</w>
Af ric
j ec
ex amp
@ White
re lease</w>
C or
l s</w>
new s
pri mary</w>
Tur nberry</w>
M or
terror ist</w>
on na</w>
pri vate</w>
o l</w>
t y
g ar
br ought</w>
af ra
int el
re it
i al</w>
espe cially</w>
comm it
: /
3 3
#America First</w>
wa shing
the m
d s,</w>
D ON
Le t</w>
g ir
immigr ants</w>
conf erence</w>
n ations</w>
cre ated</w>
NE WS</w>
m it</w>
e li
N AT
Is lamic</w>
w /
@ NY
Mit t</w>
@b arack
in ce</w>
_ :</w>
S aturday</w>
re tur
pla yed</w>
hi m
z a
2 5
le tt
ie ce</w>
appreci ate</w>
out side</w>
ke t
op in
b ill</w>
and ,</w>
O L
H ope</w>
# Time
Y or
The y
p e</w>
min utes</w>
Tues day</w>
t en</w>
l ic
ber t</w>
M ac
bank ru
cra zy</w>
c ity</w>
o de</w>
un believable</w>
ir d</w>
con serv
@ trump
2 5</w>
afra id</w>
at or
Pennsylv ania</w>
% ,</w>
l ing</w>
e mplo
Geor ge</w>
G i
Christ mas</w>
h n
201 7</w>
pra yers</w>
S ome</w>
Mi am
pas s</w>
ne ed
c ing</w>
repre sent
pu tting</w>
illi ona
they ll</w>
dis gr
read ing</w>
lob by
cri min
twe et
mes sage</w>
Obam a,</w>
p iece</w>
o t</w>
V i
F e
A u
2 nd</w>
it ter</w>
h ours</w>
F in
vic ti
n omin
#Time ToGet
adv ice</w>
E bol
re build</w>
ac hi
g :</w>
I vank
y r
turb ines</w>
p i
p un
au l</w>
la ws</w>
ine se</w>
est ablishment</w>
L as</w>
A re</w>
c ities</w>
p ot
iz ed</w>
p op
b ene
ad d
Every one</w>
h onest</w>
d u
f el
pre me</w>
ac y</w>
Put in</w>
rais ed</w>
l ate</w>
SI D
@ _
4 4
k s,</w>
clu b</w>
ate ver</w>
B ig
v ation</w>
terror ists</w>
shi ps</w>
Da vid</w>
invest ig
Presid ent,</w>
s on,</w>
be h
quest ions</w>
low er</w>
TRUM P
ne t
a sh
@ Y
pol ice</w>
n at
c ru
uck y</w>
re co
gu ess</w>
y ork</w>
fav or</w>
en jo
@ i
man ,</w>
s in</w>
politici an</w>
high er</w>
lo g</w>
Col le
i gh
201 2</w>
da s</w>
c ess
sel ves</w>
H ur
twee ts</w>
trou ble</w>
streng th</w>
desp er
D u
po or</w>
S w
S al
reit b
ei ther</w>
W iscon
re ma
oun d
mo vement</w>
pa red</w>
lo y
tal ks</w>
re st</w>
Ari zon
# S
ver s</w>
bo d
sto ck</w>
mon d</w>
call ing</w>
# make
ot ing</w>
obam acare</w>
m ight</w>
R y
our n
contin ues</w>
gu n</w>
announ ce</w>
@ l
de fin
Sto ck</w>
E very</w>
agre at
lo tt
def ense</w>
@White House</w>
en ces</w>
News max
sho t</w>
p en
A n</w>
pr ice</w>
mist ake</w>
pl ans</w>
on :</w>
N AF
M usli
Jap an</w>
1 4
#make americ
ene m
we alth</w>
st ated</w>
report ing</w>
he alth</w>
f all
bene f
in f
b ility</w>
Ro ve</w>
Pol l</w>
who s</w>
ra ther</w>
@S en
@D an
vot ers</w>
s or
no on</w>
cor ding</w>
Ye ar</w>
PRE SID
No vember</w>
c hampion</w>
Ch ris</w>
B ri
b ly</w>
b ased</w>
@greta wire</w>
gi ves</w>
corru pt</w>
f y</w>
The res</w>
Sand ers</w>
1 3</w>
epis ode</w>
M S
w ill
situ ation</w>
on to</w>
#makeameric agreat
s ell
ph en
fail ure</w>
en ed</w>
ear ly</w>
cti on,</w>
up ,</w>
1 8
pe fully</w>
To ge
#makeamericagreat again</w>
W IL
Sch neid
ke ,</w>
twee t</w>
sc ot
W ar
da y
ser ious</w>
et c</w>
vide o</w>
To day,</w>
supp o
J r</w>
ol s</w>
ha m</w>
@F L
1 5
webs ite</w>
beh ind</w>
no ther</w>
A nother</w>
@ US
ang el
2 4
so ci
hamp ion
artic le</w>
H is</w>
GO P
C U
i shed</w>
gre at,</w>
Car son</w>
@ GOP</w>
opportun ity</w>
in ts</w>
t able</w>
c at
Ama zing</w>
announ cement</w>
S aud
wr it
mo de
in er</w>
af ter
s ity</w>
n on
illiona ire</w>
Presid ential</w>
le :</w>
Ma y
Alab ama</w>
1 st</w>
educ ation</w>
G r
De part
se ly</w>
K as
D E
spe ech
re place</w>
Am endment</w>
i ously</w>
on y</w>
@S te
e dom</w>
:/ /
tw itter</w>
o ts</w>
jo ke</w>
f ir
dou b
Al ways</w>
it al</w>
gre ss</w>
de ath</w>
@fox news</w>
ne st
M O
ni ghts</w>
#TimeToGet Tough</w>
ef for
ble ss</w>
power ful</w>
W ould</w>
OU R</w>
C ali
t v</w>
fa ther</w>
anke es</w>
N FL</w>
al e</w>
A s
@D a
terror ism</w>
he art</w>
Li ber
wor k,</w>
ha vent</w>
fin al</w>
per f
g onna</w>
dep end
incompet ent</w>
b om
Mic hig
M ilit
Ve terans</w>
Reag an</w>
Re al
I A</w>
pr ices</w>
P AC
@ ro
an ti
Cu ts</w>
Chin a,</w>
S uc
Ma ybe</w>
pre tty</w>
al la
adv anta
o kay</w>
Al l
ere s</w>
a uc
pro cess</w>
@A lex
stru c
loo ked</w>
V E
fin e</w>
t ower</w>
p m
ic ally</w>
mon th</w>
7 7
y _
Ebol a</w>
per son
WIL L</w>
u ary</w>
si on
fr ank
al lies</w>
act ly</w>
Go v
m ur
illi ant</w>
es p
1 6
u ms</w>
th is,</w>
rel ation
ke y</w>
il i
dang erous</w>
Min ister</w>
N O</w>
Arizon a</w>
w ell,</w>
n :</w>
fiel d</w>
suppo sed</w>
s ad
@Trump Doral</w>
un fair</w>
L E</w>
bu l
Be li
Ivank a</w>
go o
Busin ess</w>
s old</w>
ri bu
br and</w>
inv ol
est ate</w>
@Eric Trump</w>
i :</w>
L u
# c
discus s</w>
T ake</w>
J u
6 0
ti red</w>
st age</w>
mone y,</w>
Donald ,</w>
an _
Pri mary</w>
P aul</w>
u t</w>
Toge ther,</w>
1 7</w>
1 00</w>
victi ms</w>
ll ed</w>
fo od</w>
M ore</w>
ss es</w>
thu si
re peal</w>
Beli eve</w>
oun ds</w>
o we</w>
nam ed</w>
boo ks</w>
gh an
ab o
@barack obama</w>
Le a
m er
loo k,</w>
dre ss</w>
You ve</w>
P r
tal ent</w>
reitb art
lar ge</w>
it or
be half</w>
foc used</w>
er to</w>
st ers</w>
ill ary
ic ul
ch allen
G ive</w>
ton i
ad es</w>
I T</w>
A c
hi stor
g in</w>
lu x
To o</w>
de red</w>
: 30</w>
re form</w>
e y</w>
H all</w>
ri ed</w>
ri dic
ren cy</w>
man y,</w>
d r
3 r
y st
u ro
u res</w>
m ed</w>
Pre s</w>
need ed</w>
min e</w>
y l
st er,</w>
ho st</w>
Democr at</w>
ce p
Saud i</w>
ki ds</w>
Ar ab
sol di
defe at</w>
desp ite</w>
NO T</w>
Ge tting</w>
pic ture</w>
simp le</w>
positi ve</w>
S econ
Ch inese</w>
win ,</w>
B ir
$ 4
win s</w>
commun ity</w>
Pri me</w>
F u
M ed
He alth
u s,</w>
lar gest</w>
inspir ation</w>
coura ge</w>
Thank s,</w>
M acys</w>
ind ust
experi ence</w>
S a
icha el
g ing</w>
th ird</w>
ridic ul
Wiscon sin</w>
real ity</w>
Miam i</w>
reas ons</w>
Cour t</w>
6 0</w>
st on</w>
le y</w>
ha z
en thusi
Sta y</w>
light weight</w>
li ving</w>
c op
@ Donald
W ow</w>
Su preme</w>
su ff
call s</w>
ac i
T wit
J ustice</w>
ser ve</w>
politic ally</w>
d ra
ang ry</w>
W H</w>
T ouch</w>
Do es</w>
intel lig
To m</w>
ex cept</w>
Re member,</w>
wh atever</w>
B I
1 1:</w>
re li
om en
li st</w>
D id</w>
recei ved</w>
hur t</w>
Jo bs</w>
For d</w>
C la
in no
Char lott
prom is
Le tt
ing s,</w>
ent repreneur
wr ite</w>
Mar ket</w>
spo ke</w>
respon si
da ugh
d on</w>
agre e
W IN</w>
H u
de leg
g eni
ent ed</w>
River s</w>
on ed</w>
ic en
buil d
ex actly</w>
inform ation</w>
re cent
av y</w>
n ice,</w>
s ending</w>
fi x
business es</w>
Y es,</w>
W ell</w>
Rom ne
ter ms</w>
Wh ile</w>
C B
in di
gun s</w>
T on
@n bc</w>
the re,</w>
wor ked</w>
per haps</w>
grou ps</w>
quick ly</w>
i ers
gan iz
bor n</w>
pre ss
bor der
as s</w>
cor d</w>
advanta ge</w>
DA Y</w>
Le ag
ati c</w>
ar ra
qu ot
h om
de v
the tic</w>
ch ,</w>
ar ly</w>
M ill
A b
stru ction</w>
re turn</w>
por t</w>
shi p
Every body</w>
nest y</w>
c ruz</w>
business man</w>
A M</w>
wi se</w>
u d</w>
br illiant</w>
Sw amp</w>
S H
por ts</w>
cam er
C E
fun d
S uch</w>
0 ,000</w>
# USA</w>
si r</w>
Tr ade</w>
TH E
DON AL
issu e</w>
PRESID ENT</w>
prom ise</w>
h ou
citiz ens</w>
Secon d</w>
@D anny
nat ure</w>
le n</w>
en sive</w>
dre am</w>
ap pe
struc ture</w>
@P OTUS</w>
si e</w>
ble ,</w>
accomp lish
ro le</w>
ra p
leg al</w>
fe at
up er</w>
ri t</w>
ide as</w>
ch ie
Th x</w>
Te a</w>
St reet</w>
He ading</w>
vie w
ou nt</w>
Schneid erman</w>
Fri day</w>
ing :</w>
I re
k ill</w>
s s,</w>
ne cess
cor por
Li by
Blu e</w>
wor ry</w>
ite ly</w>
S um
str onger</w>
cla im
S an
ar l</w>
@b ill
regul ations</w>
re duc
pro sp
pla yers</w>
Hur rican
A t
sa ved</w>
ru les</w>
Mar k</w>
E ric</w>
@gre ta</w>
@ f
Ne v
p ick</w>
bra ve</w>
ac cur
saf ety</w>
g row</w>
h old</w>
es si
ene my</w>
b er</w>
S uper</w>
S an</w>
R T</w>
H a
@ da
W r
McC ain</w>
S ad</w>
Bu sh
B ad</w>
@ al
pro vi
h ard
end ed</w>
thin ks</w>
Michig an</w>
it or</w>
P at
Mi das</w>
Fri ends</w>
a L
T or
@A B
ff al
S m
Kas ich</w>
an e
vir on
enem ies</w>
doub t</w>
spea ks</w>
icen bc</w>
W A
loc al</w>
en ce,</w>
busin es
y es</w>
r :</w>
for d</w>
en :</w>
confid ence</w>
Lin ks</w>
Af ghan
w il
sh ort</w>
c y
apologi ze</w>
Scot t</w>
dol lar</w>
rain The
pas sed</w>
finan cial</w>
Cali for
#D rainThe
h ands</w>
colle ge</w>
P l
ter ,</w>
Cent er</w>
perf ect</w>
W E
win d
ridicul ous</w>
meet ings</w>
ex pla
d es</w>
mo ti
ere d</w>
an ne
O pen</w>
pla yer</w>
h its</w>
con gratulations</w>
bi ased</w>
as ,</w>
R I
le y
@ Newsmax
on s,</w>
after noon</w>
them selves</w>
surpri se</w>
he aring</w>
ct ac
P oll
N ice</w>
m c
ber de
Mag azine</w>
A tt
J Trump
ve red</w>
tr ack</w>
terr or</w>
Q u
sig ning</w>
eas ily</w>
ur s
u red</w>
apprent icenbc</w>
expe cted</w>
con sider</w>
F re
sc ri
po ints</w>
k ers</w>
do ,</w>
O f</w>
Ira q
deb ates</w>
as es</w>
am ount</w>
Int l</w>
st ands</w>
ho sting</w>
Y es</w>
C ha
state ments</w>
for tune</w>
M as
B en</w>
1 8</w>
s y</w>
our ing</w>
oo d
de duc
$ 2</w>
suc ce
le ag
fra structure</w>
dru gs</w>
@Newsmax _
http s
de m
D O
n ia</w>
c al
@Donald JTrump
l :</w>
el ,</w>
J ames</w>
m ate</w>
J O
f li
ati onal
ex tre
examp le</w>
NE VER</w>
Mic ha
spi rit</w>
e a
ant ly</w>
Re peal</w>
eng haz
thre at</w>
destro yed</w>
j ust
fin ished</w>
Wh ats</w>
u g
gr ound</w>
arri ved</w>
peri od</w>
me mbers</w>
B al
#DrainThe Swamp</w>
ist an</w>
NO W</w>
@ NBC
s cho
fac ts</w>
enjo yed</w>
cau ght</w>
P ence</w>
tri p</w>
ha c
Z u
lat er</w>
chan ged</w>
Washing ton,</w>
@ apprenticenbc</w>
# Trump</w>
republic ans</w>
o int
hel d</w>
s n
us b
P la
Bir thday</w>
@Trump Chicago</w>
@ John
ve y</w>
strong ly</w>
pa rent
gol f
cur rent</w>
A :</w>
ro om
T O
P age
smart ,</w>
ne t</w>
en viron
Pu erto</w>
l ong
Milit ary</w>
C ri
@ Golf
pop ular</w>
Wh ere</w>
Politic s</w>
P i
Loo k,</w>
sm ar
M at
00 ,000</w>
T ER
f la
Par is</w>
y ond</w>
tr ans
op ening</w>
n n</w>
deci sions</w>
a di
Pal m</w>
Lett erman</w>
A ,</w>
Twit ter</w>
A pp
te st
gla d</w>
sur ance</w>
self ,</w>
maj ority</w>
f ound</w>
f all</w>
@ eric
po sed</w>
g ar</w>
def end</w>
bor ing</w>
O P
un i
n ing,</w>
war ds</w>
DONAL D</w>
recor ds</w>
e k
I ON</w>
tweet ing</w>
O ld</w>
y s
premi ums</w>
cour ses</w>
w ro
pu shing</w>
e mp
off er</w>
g eneral</w>
ctac ular</w>
Ch uck</w>
@Jo e
weap ons</w>
dis gu
con tr
comm ents</w>
@ De
L ou
3r d</w>
se tt
p ouring</w>
co sts</w>
clu e</w>
keep ing</w>
j ustice</w>
h usb
Med ic
@J eb
3 5
o wa
enghaz i</w>
disgr ace</w>
Suc cess</w>
O PE
F la
E uro
c ell
sol ve</w>
gu y,</w>
char ge</w>
1 %</w>
ful ,</w>
emb arra
crow ds</w>
@M iss
rais ing</w>
know le
star ts</w>
a bu
So cial</w>
@B reitbart
$ 5</w>
ti on,</w>
ex ecutive</w>
T A</w>
E gy
Ch eck</w>
1 3:</w>
re cent</w>
St ates,</w>
@jo hn
#trump v
wro te</w>
it z
in :</w>
Ric o</w>
recent ly</w>
dro pped</w>
ch ec
care er</w>
Indi ana</w>
D on</w>
n ast
be t</w>
li kes</w>
R oo
ill ed</w>
a h</w>
wat er</w>
st ep</w>
mom ent</w>
p t
cont ribu
Musli m</w>
worl ds</w>
s le
man :</w>
cor e</w>
PA C</w>
Mon ster</w>
r al</w>
d ying</w>
comm er
b att
ad y</w>
ac king</w>
shir ts</w>
he ad
G er
#Vote Trump</w>
mom ent
d inner</w>
Russi a,</w>
RU N</w>
A D</w>
presid ency</w>
is :</w>
he res</w>
g er
IG H
tal ked</w>
respon se</w>
i si
for ced</w>
of ten</w>
All Star</w>
ha snt</w>
end a</w>
daugh ter</w>
pos ition</w>
know n</w>
fe deral</w>
am ong</w>
B ed
democr ats</w>
Ste ve</w>
in ly</w>
ec tive</w>
Mo st</w>
@B ill
re pe
le tter</w>
cur rency</w>
c ure</w>
att acks</w>
S AF
@ Am
7 5
eleb apprentice</w>
de l
YO U
hi m,</w>
Thank s
Clint on,</w>
no t,</w>
Mexic an</w>
J une</w>
@Da vid
tun ed</w>
s un
be au
S C</w>
#trumpv log</w>
lan tic</w>
la u
dest ru
W OR
@K arl
cou nt</w>
b lo
BI G</w>
sch ool</w>
il ing</w>
h and</w>
diff icul
con st
C hi
stup id
proper ty</w>
loy al</w>
Sal mond</w>
Mar ch</w>
@DonaldJTrump Jr</w>
ri ght,</w>
pas sion</w>
ke ts</w>
cre ating</w>
aw k
art er</w>
S E
ven ue</w>
opin ion</w>
J on</w>
Al so,</w>
p tion</w>
SAF E</w>
un less</w>
t ic
him self</w>
@bill ma
f ans</w>
cti on
Th urs
tro ops</w>
en nes
E li
A ct</w>
i es,</w>
conserv ative</w>
cle an</w>
Af rican
@FL OTUS</w>
sour ces</w>
fo x</w>
differe nce</w>
contro lled</w>
NAF TA</w>
May or</w>
f ig
Li ve</w>
ex t</w>
de ta
de al,</w>
M ust</w>
stor e</w>
l ines</w>
Int ere
mode l</w>
deli ver</w>
care ful</w>
s ick</w>
LO VE</w>
son :</w>
sa y
re st
gra m</w>
Bar ack</w>
The ir</w>
T ic
@Danny Zu
yst one</w>
develo p
y a</w>
al :</w>
aci fic</w>
a il</w>
opp on
201 4</w>
speech es</w>
defin itely</w>
am nesty</w>
F L
J er
Arab ia</w>
th ers</w>
retur ns</w>
i da
col lu
ag es</w>
Go ing</w>
o s
ning _
@ St
tri ed</w>
mo re,</w>
exc ell
_ _
Re cord</w>
JOB S</w>
w o
re ly</w>
over se
Geor gi
sch ed
la m</w>
Con vention</w>
@M r
see ms</w>
s )</w>
p ath</w>
fo ot
ar ds</w>
al ity</w>
J an
Can ada</w>
H annity</w>
@C NN
st re
or t
lobby ists</w>
d ate</w>
ni fic
Sen ators</w>
v s</w>
S ha
201 6
r ys</w>
or ney</w>
Re form</w>
B l
# P
tre at</w>
con vention</w>
x :</w>
c lear</w>
Mar aL
Tru th</w>
Lu ther</w>
l ucky</w>
iers mor
us a</w>
g y,</w>
de la
bo y
ar ys</w>
any where</w>
Ma g</w>
s li
r ing</w>
refu ses</w>
her o</w>
real ize</w>
he ading</w>
TA X</w>
e z
Americ a,</w>
pro ven</w>
pe ace</w>
Russi an</w>
D ou
Afric a</w>
t ou
geni us</w>
2 %</w>
tra de,</w>
do cu
Is nt</w>
me x
we ak
Ne t
st y
ge ant</w>
bod ys</w>
be gin</w>
ace ful</w>
Ma y</w>
M uch</w>
Califor nia</w>
7 :00</w>
con si
@ te
fac tor
Bed min
A berde
@p iersmor
soldi ers</w>
prof essi
k ic
R A
L y
H ow
H ou
# US
l ab
inter national</w>
in si
al one</w>
adm it</w>
S P
v ol
ru ssi
help ing</w>
end ,</w>
De m
si t</w>
nor th</w>
hand le</w>
er ry
M u
destro ying</w>
Nev ada</w>
@m ike
refu ge
i er</w>
Tor onto</w>
pa thetic</w>
p age</w>
invol ved</w>
:// t</w>
comm ish</w>
@S e
# N
tim es,</w>
spe ctacular</w>
repre sent</w>
mex ic
hampion ship</w>
mo der
@M or
li fe
NAT O</w>
Mexic o,</w>
trump ,</w>
h :</w>
Sh ould</w>
OPE C</w>
C ,</w>
sta ur
2 1</w>
vi l</w>
suppor ted</w>
ni ght
B rad
su it</w>
st ri
pre s</w>
certa inly</w>
it es</w>
fl commish</w>
bab y</w>
T une</w>
S ter
s outh</w>
commun ities</w>
bro ken</w>
bec ame</w>
b all
t en
great ly</w>
com b
angel ic
@H illary
@Karl Rove</w>
S har
AB C</w>
st af
p ers</w>
govern or</w>
V A</w>
They ve</w>
indust ry</w>
h our</w>
d ue</w>
bo ard
IS IS
ric k
desper ate</w>
Y M
Depart ment</w>
B enghazi</w>
suppor ting</w>
lo west</w>
in frastructure</w>
ag enda</w>
o c
An dre
2 2
TH ING</w>
se x
exp ensive</w>
cu se</w>
An th
A ir</w>
@ ke
they d</w>
be yond</w>
pot ential</w>
pe y</w>
show ed</w>
op er
lux ury</w>
expe ct</w>
crimin al</w>
S or
Ire land</w>
succe ed</w>
@Alex Salmond</w>
dev ast
ail able</w>
Univer sity</w>
H as</w>
su e</w>
cour t</w>
F rom</w>
Chin as</w>
201 3</w>
sk y
ound ation</w>
S A</w>
Con ne
s us
dec ades</w>
Ma j
D NC</w>
@ e
staf f</w>
sho oting</w>
sen i
L A</w>
Je ff
Bo b</w>
wee t</w>
man i
fra ud</w>
a king</w>
T re
S U
S T</w>
ro ll
pl us</w>
at es
ac cording</w>
@ y
19 7
lo ss</w>
fair ly</w>
f ur
ell y
T ower
Be ach</w>
@n flcommish</w>
wal k</w>
s qu
ici p
comp la
S ad
histor ic</w>
go p</w>
c ause</w>
I owa
C H</w>
her o
di ed</w>
c ul
bre ak</w>
N u
su m
stand ard</w>
oul d
illi on,</w>
T ennes
pa pers</w>
il le
ho sp
au th
B re
year ,</w>
us es</w>
@Ch ris
201 5</w>
pro gress</w>
c ts</w>
@Jeb Bush</w>
tough ,</w>
thr ough
repor ter</w>
my self</w>
mag azine</w>
le ss
gg ing</w>
al s,</w>
No thing</w>
IC YM
AR E</w>
re staur
do ct
R i
D on
se cure</w>
relation ship</w>
imp act</w>
est er
Sch um
A l</w>
secre t</w>
po or
overse as</w>
ke y
ation s,</w>
Po int</w>
G E</w>
pro gram</w>
VER Y</w>
Hispan ics</w>
H on
@ a
pre pared</w>
lan ville</w>
en s
co verage</w>
camer as</w>
B illionaire</w>
@ Le
ri ghts</w>
pri son
in side</w>
ent er</w>
ti e</w>
Iraq ,</w>
@ re
lear ned</w>
contin u
IL LI
@billma her</w>
@M a
pur po
pm E</w>
le m
dro p</w>
beau ty</w>
au di
N ext</w>
vir t
ver s
p acked</w>
ow ard
go al</w>
Fr ance</w>
@m ar
refu sed</w>
fun ding</w>
R ad
Page ant</w>
@j im
# W
ro c
mis sed</w>
fol ks,</w>
b es</w>
s sed</w>
ex cuse</w>
enthusi as
be coming</w>
J ust
@M ichael
wor ds,</w>
Th om
N ation</w>
K elly</w>
At lantic</w>
run ,</w>
me an
form er</w>
fa il</w>
don ors</w>
av ailable</w>
K en
we ar</w>
illeg ally</w>
da h
val ues</w>
stopp ed</w>
migr ation</w>
i on,</w>
fr on
c ir
an t,</w>
H ad</w>
G la
tough er</w>
k a
g ur
d iti
s hap
itu de</w>
con grats</w>
Pre ss</w>
Ele ction</w>
E D
sol ute</w>
ati ves</w>
S ar
Gra ham</w>
t ar
land ,</w>
ell o</w>
be tt
z ed</w>
thre at
or ad
liber al</w>
fun ny</w>
chil d</w>
Gre ta</w>
@W S
wi shes</w>
us h</w>
j ourn
disgu sting</w>
con struction</w>
emplo ye
a ther</w>
T ER</w>
9 /
reprene ur</w>
claim s</w>
sto od</w>
d d</w>
am ing</w>
Rad ical</w>
8 %</w>
oun ded</w>
off ers</w>
is l
ho li
Watch ing</w>
I A
F ail
10 :</w>
1 7
wo od</w>
nast y</w>
h n</w>
ch icago</w>
val u
p atri
ong ,</w>
ber g</w>
wr itt
ir an</w>
be ating</w>
W as</w>
W all
@ ste
tru e,</w>
off ic
de man
in come</w>
ad dress</w>
V an
Sum mit</w>
P acific</w>
C ome</w>
stra ight
entrepreneur s</w>
An y
go ld</w>
O sc
husb and</w>
goo d,</w>
celebr ate</w>
appro val</w>
all time</w>
agre ed</w>
Hill arys</w>
po int
p ho
necess ary</w>
e ing</w>
W ork</w>
plan e</w>
om ney</w>
m att
de le
Georgi a</w>
D is
ham ed</w>
bu ying</w>
Tra in</w>
Afghan istan</w>
@F r
tell s</w>
ser iously</w>
san ctions</w>
repor ted</w>
investig ation</w>
cu ban</w>
be ,</w>
am es
Egy pt</w>
ministr ation,</w>
ic h
count rys</w>
Mo ore</w>
33 ,000</w>
str ate
cre di
We iner</w>
Comm it
shap e</w>
pu l
ing ly</w>
Con f
#Vote Trump
wh ose</w>
per s
li es,</w>
l ying</w>
hor ri
and ing</w>
@C B
poor ly</w>
oll y
issu es</w>
i ans</w>
ent er
e ver,</w>
build ings</w>
Go v</w>
B order</w>
@ In
2 3:</w>
ev ents</w>
as se
Ro ber
@Hillary Clinton</w>
ton post</w>
qu awk
le s
Ke ystone</w>
un iver
se tting</w>
help ed</w>
a _
C L
@Mor ning_
ple as
in depend
US T</w>
ou ther
comp li
big ,</w>
Mar ine</w>
Intere sting</w>
# Im
p pe
ti me
kill er</w>
im possible</w>
Str ong</w>
@realDonald Trump,</w>
provi de</w>
mis s
in surance</w>
bu sh</w>
st ic
one y</w>
off ice,</w>
ar an
ad d</w>
@ washing
ca res</w>
ac c
T ot
J ack
ISIS ,</w>
$1 50</w>
tal k,</w>
dru g</w>
Bu il
Bo ston</w>
pl ant</w>
job ,</w>
ann ed</w>
Obama C
#Trump For
with in</w>
milit ary,</w>
m enti
not ice</w>
dol ences</w>
O W
Gla d</w>
ES S</w>
sil ent</w>
att acked</w>
ar ,</w>
c low
T al
Flor ida
A ir
st ud
in o</w>
hot els</w>
fin est</w>
de termin
H er</w>
Be ing</w>
@piersmor gan</w>
@T e
13 th</w>
ver ing</w>
sh ut</w>
ni ght,</w>
V ie
Ta x
: )</w>
tal ented</w>
negoti ating</w>
i er
disa pp
ba i</w>
W el
S c
rema in</w>
Un der</w>
In ste
C NBC</w>
AR od</w>
wa ges</w>
te m
parent s</w>
jud ge</w>
in a,</w>
deal ing</w>
Ton ight</w>
Re al</w>
dec id
al ed</w>
N avy</w>
@Breitbart News</w>
1 2:</w>
re no
possi bly</w>
ent ly</w>
e m</w>
Re place</w>
vil le,</w>
th at
ket s:</w>
as hamed</w>
Su gar</w>
O h</w>
C A
@Morning_ Joe</w>
you d</w>
re am</w>
mar k</w>
gu il
americ ans</w>
Comm on</w>
C oun
@A r
# 2016</w>
s w
phen omen
g a
d oral</w>
accomplish ed</w>
ac count
T ow
it ch</w>
g or
cas h</w>
$ 6
s itting</w>
5 0
st at
ri ous</w>
ran di
ele c
cau sed</w>
W H
un t</w>
sel ff
r s</w>
pri or</w>
esp ite</w>
an o
Har vey</w>
D espite</w>
@Newsmax_ Media</w>
el ing</w>
c ar</w>
b ank</w>
B E
responsi ble</w>
re g
on line</w>
intellig ence</w>
@M ark
# Big
ul tim
tru st</w>
do g</w>
Le ar
L ast</w>
5 00</w>
Ch ic
stu dy</w>
room s</w>
lead er
enthusias m</w>
ment al</w>
fil ed</w>
cour se,</w>
S ep
S O</w>
EL AN
pur cha
il ly</w>
er son</w>
back ,</w>
follow ing</w>
V ide
B less</w>
@m it
wh at,</w>
prote cting</w>
oint ed</w>
bul ous</w>
ast ro
IGH T</w>
@ li
19 9
sh ar
d ly</w>
s m</w>
resul t</w>
ne arly</w>
ge ous</w>
d en
Leag ue
6 %</w>
secre t
roo ke
pu ts</w>
pa y
p :</w>
or ig
orig in
cu tting</w>
board room</w>
Iowa ,</w>
Ho pefully</w>
@M ELAN
sell ing</w>
great er</w>
With You</w>
F air</w>
Chi ef</w>
ter :</w>
str ic
ro ad</w>
ri pping</w>
press ure</w>
MaraL ago</w>
An them</w>
un ding</w>
through out</w>
ex clu
Mas sive</w>
2 4</w>
2 2</w>
writt en</w>
moment um</w>
bad ,</w>
With out</w>
N ight</w>
E l
E d
B ur
m a</w>
https ://t</w>
ge t,</w>
e qui
w ell
sa s</w>
over rated</w>
N ations</w>
@DannyZu ker</w>
3 5</w>
pro jec
effor t</w>
T ell</w>
K S</w>
viol ence</w>
orad o</w>
excell ent</w>
ct ly</w>
# A
se cu
par ts</w>
list ening</w>
cli mate</w>
Tower NY</w>
Micha el</w>
L ar
@ bo
2 1:</w>
sc and
or ganiz
ho od</w>
for man
bri d
W oo
Loo ks</w>
$ 6</w>
#Im WithYou</w>
opportun ities</w>
dou ble</w>
Tic kets:</w>
Great ,</w>
p ati
l ,</w>
c ars</w>
P LE
Ne goti
wa sting</w>
s pre
per c
go od
ent y</w>
S ig
H i
ru bio</w>
Or der</w>
@B randi
ex t
an a
Some times</w>
AMERIC AN</w>
@MELAN IA
vo ice</w>
tra vel</w>
dum my</w>
c er</w>
T P
Com ey</w>
@J on
F ace
@m cuban</w>
@M att
@ NBC</w>
za be
i th
i owa</w>
boo k,</w>
tr illions</w>
op pos
invest ment</w>
f lo
b c
N H</w>
H er
D alla
@F or
pro ve</w>
bankru pt</w>
ap art</w>
Te am
M erry</w>
@Brandi G
Liby a</w>
ru le</w>
land sli
am ,</w>
M an</w>
Lin col
#Big League
@Fr ank
gu ts</w>
g ment</w>
ele ction,</w>
al ing</w>
Par k</w>
H ere</w>
EM ENT</w>
@Trump TowerNY</w>
@ pe
Jo an</w>
Je ff</w>
gi ft</w>
fel t</w>
con dolences</w>
ac ti
B U
to m</w>
p on
o h</w>
is is</w>
c old</w>
Ster n</w>
CO UN
@R ick
go v
Thurs day</w>
some times</w>
show ing</w>
ship ,</w>
corpor ate</w>
att ention</w>
Be autiful</w>
@An n
sh are</w>
nomin ation</w>
do ing,</w>
develo p</w>
deser ves</w>
con sid
a kes</w>
f ought</w>
ener gy,</w>
en ni
Wal ker</w>
F antastic</w>
F OR
abo ve</w>
B EST</w>
ri ght
ri er</w>
mis sion</w>
import ant
bl ed</w>
Go t</w>
li ke
gu est</w>
de e
T om
will ing</w>
so cial</w>
person al</w>
pa per</w>
ab solute</w>
T V
Ste w
S now
Florida ,</w>
@M ac
so called</w>
leag ue</w>
k ore
in a
c lear
Medic are</w>
B lo
( or</w>
per forman
keep s</w>
con om
@BrandiG lanville</w>
#BigLeague Truth</w>
pres sed</w>
fore ver</w>
angelic als</w>
Str ange</w>
O ver</w>
Lou isi
y a
sched u
outher n</w>
concer ning</w>
commit ted</w>
cla ssi
U p</w>
Me mor
v es,</w>
obam as</w>
illeg als</w>
fo o
Presid ent
F ran
@Trump Golf
4 0</w>
re sort</w>
miss ile</w>
il ,</w>
foot ball</w>
fam ous</w>
benef it</w>
au gur
ain ,</w>
Ter rible</w>
Ger many</w>
C ra
@A G
@ sh
wi f
toni ghts</w>
ter s,</w>
sp ir
selff unding</w>
pre z</w>
plac e,</w>
ar ch
C am
@NBC News</w>
toge ther,</w>
re qui
re member,</w>
g dah
bal an
M ob
F ame</w>
virt ually</w>
mo ved</w>
b ills</w>
am i
@ be
re views</w>
ma y
li ght</w>
g ri
fre edom</w>
Anth ony</w>
P ho
Cu t</w>
b ru
as sa
8 :00</w>
sac ri
s er</w>
ha ir</w>
go d</w>
di r
c ool</w>
a h,</w>
Le g
K ing</w>
In cre
En g
@washing tonpost</w>
vi ous</w>
rap id
kill s</w>
ca vin
P L
NBC ,</w>
MO V
wor ker</w>
qu ali
p ush</w>
hu man</w>
er i
car ol
Commit tee</w>
follow ers</w>
d one,</w>
bir th</w>
appro ved</w>
and er
T :</w>
ur ch
t ouch</w>
sig n
W ar</w>
D or
An y</w>
@m ark
professi onal</w>
cti ve</w>
Th ou
TRU E</w>
the re
solu tion</w>
sa v
ma ster
k i</w>
incre ased</w>
he re,</w>
e qu
deser ve</w>
TP P</w>
H eres</w>
win ners</w>
i an</w>
credi bility</w>
at er
ail y
De m</w>
#TrumpFor President</w>
un ch</w>
on y
offici als</w>
gre e</w>
dow n
ad ,</w>
19 8
stopp ing</w>
pho to</w>
L as
10 0
rele v
l in</w>
d om
ble s</w>
K now</w>
@M e
3 %</w>
pun d
n ership</w>
n bc</w>
lo ve
P OL
@AB C</w>
mil es</w>
hur rican
he art
di vi
apolo gy</w>
An g
@M ar
9 %</w>
su mer</w>
stra ight</w>
p h</w>
k ins</w>
indi vid
concer ned</w>
ar ious</w>
ac ts</w>
Vi et
E conom
v ice</w>
sor ry</w>
clo sing</w>
ci l</w>
appro ve</w>
JOB S,</w>
B ow
AS E</w>
ug ly</w>
offic ers</w>
mexic o</w>
C ore</w>
se ven</w>
re store</w>
b anks</w>
te mber</w>
s en</w>
accur ate</w>
V P</w>
Fre edom</w>
A T</w>
po ver
mo ther</w>
mar ks</w>
man ag
gi c</w>
fo ol</w>
co m</w>
ce 16</w>
cap able</w>
ar s,</w>
Th ose</w>
@ bu
20 ,000</w>
# G
Su per
Jan uary</w>
C :</w>
si x</w>
mo ore
m m
ent repreneur</w>
a id</w>
W ed
IC E</w>
u ally,</w>
ilit ies</w>
ho pefully</w>
enti ally</w>
ann a</w>
Face book</w>
A MA
mu ch,</w>
t own</w>
sub st
onal ly</w>
oll ing</w>
m ach
fur ther</w>
any way</w>
T w
Syri an</w>
rac ist</w>
oppos ite</w>
nu mb
di es</w>
are a</w>
af ford</w>
S her
L D</w>
B E</w>
Andre w</w>
@ politic
z e
sh own</w>
ni e
in o
immigr ant</w>
deb ate,</w>
co al</w>
challen ge</w>
ch ed</w>
River a</w>
@Mitt Romne
simp ly</w>
see m</w>
se e,</w>
allow ing</w>
Ly in</w>
@Y ankees</w>
3 6
#Trump Train</w>
ro l</w>
l atest</w>
illi ams</w>
c al</w>
Ro bert</w>
Charlott e</w>
COUN TR
@C ar
tax es,</w>
respon d</w>
pen al
equi p
t ens</w>
sh ow,</w>
prison ers</w>
f are</w>
ch oo
Lead er</w>
@Te am
so li
proper ly</w>
Ve g
@j ack
ho st
fi re
negoti ators</w>
li ked</w>
P et
New s:</w>
Christi e</w>
ot h</w>
go als</w>
ci vil
R onald</w>
sta ying</w>
gr ate
c us</w>
Ir ani
CH AN
Att orney</w>
9 :00</w>
o h,</w>
m it
j on
ex ist
ci als</w>
bro ther</w>
Col orado</w>
@Ste ve
leg isl
knowle dge</w>
ho sted</w>
fun d</w>
ema il</w>
dire ction</w>
F U
@WS J</w>
m o</w>
it self</w>
fig ure</w>
da ys,</w>
bom b
bl ame</w>
an ity
an ch
Pre z</w>
th ank
surpri sed</w>
itz er</w>
i a,</w>
contr act</w>
as si
O b
ER S</w>
B ru
AT E</w>
@Se an
@ br
performan ce</w>
h op
#c elebapprentice</w>
plan ning</w>
i ra
g ,</w>
ac tions</w>
E st
qu ality</w>
p hi
f le
citiz en</w>
prom ot
nam es</w>
f ed</w>
Wed nes
CB S</w>
Bri an</w>
@ to
pe st</w>
auc us</w>
EM A</w>
$ s</w>
u re
th am
m ul
m :</w>
a ff
H igh
B ills</w>
@c nn</w>
@H oward
yl er
tomor ro
th an
ser ver</w>
row n</w>
produc t</w>
ould ve</w>
ir ing</w>
he ads</w>
con diti
b la
Fe deral</w>
E X
An ge
5 %</w>
t op
mist akes</w>
econom y,</w>
cat astro
A w
A venue</w>
# ICYM
suppor ts</w>
smar test</w>
re k</w>
pa geant</w>
agre e,</w>
Hurrican e</w>
wr iting</w>
se t
ow ner</w>
g n
f lor
di e</w>
be ls</w>
Re ad</w>
F ox
De tro
worl d
th ings,</w>
pr act
for president</w>
ex per
decid ed</w>
On ce</w>
LI VE</w>
For ce</w>
C ru
tax pa
on ic</w>
destru ction</w>
Pol ice</w>
D ru
@ THE
ru m</w>
ro ad
on be
de st</w>
REA L</w>
gir l
g es,</w>
Govern ment</w>
su per</w>
ot a</w>
Democr atic</w>
C E</w>
A R</w>
4 th</w>
vis ited</w>
sub ject</w>
op en
h ow
d den</w>
comm ent
L au
Fr ank
w ide</w>
u ff
it s
i di
deleg ates</w>
d man</w>
F am
Dalla s</w>
7 :30</w>
k er
I D
Du bai</w>
un able</w>
r or</w>
quot e</w>
im pre
Y ester
Mis s
B en
A chie
the w
promis ed</w>
campaig n,</w>
S top</w>
Cour se</w>
@Dan S
gu aran
clo sely</w>
T H</w>
P a
M M
r on</w>
important ly,</w>
Hispan ic</w>
C ap
@mit tr
secret ary</w>
i red</w>
con vin
cer ti
agre es</w>
MOV EMENT</w>
M oney</w>
IN G
B ack</w>
vac ation</w>
lin ks</w>
d omin
bankru pt
P atri
Inste ad</w>
An d
8 00</w>
20 0</w>
s ound</w>
s is</w>
report ers</w>
mag nific
intere st
conf lic
S pr
Hill ary,</w>
HA PP
B ob
@ Gov
tur ning</w>
li e
ke pt</w>
ick la
grate ful</w>
fall ing</w>
ce an</w>
adv is
O val</w>
I ,</w>
@ an
: 30
t our</w>
h an
far ms</w>
W in
Coun cil</w>
2 3</w>
w n</w>
border ,</w>
Mill er</w>
K ing
@A l
ust in
te ch
sha me</w>
s ,
inno cent</w>
ho le</w>
g ent
at rump</w>
op tim
offici al</w>
gar b
Lincol n</w>
IT N</w>
wa ys,</w>
pl ants</w>
li ke,</w>
kore a</w>
comple tely</w>
NO THING</w>
fin ish</w>
cent er</w>
bro ad
Kore a,</w>
pl enty</w>
incre ases</w>
Di re
se :</w>
p at
or ders</w>
We ek
IT Y</w>
Aberde en</w>
4 5</w>
rooke d
ine :</w>
fa bulous</w>
enter ta
deduc ti
com pared</w>
ann a
ad ed</w>
Res pon
zabe th</w>
urch ill</w>
reco very</w>
n atur
m el
ear th</w>
consi dered</w>
PE OP
G E
Cent ral</w>
2 7
# GOP
vic ious</w>
stor y,</w>
si c</w>
reli gi
ne ar</w>
fo re,</w>
en sure</w>
da ily</w>
at el
K E
Ber gdah
yester day,</w>
h all</w>
com e
You ll</w>
Y ES</w>
N ash
ser vic
se qu
eral do
believ es</w>
Sep tember</w>
ON LY</w>
AN S</w>
wa y
t in
str ous</w>
ris k</w>
r ace
achi eve</w>
Democr at
Congre ss
washing ton</w>
pu t
immigr ation,</w>
ill ,</w>
hero es</w>
dow n,</w>
W il
Re gi
Lea ving</w>
@DanS cavin
20 %</w>
t s
fund rais
Pho eni
G ar
@al ex
@K en
@B ar
your s</w>
say ing,</w>
mani pul
kno ck</w>
endor se</w>
@ Z
w n
refuge es</w>
he ar
fre e
fo ols</w>
dem and</w>
deal s,</w>
bu n
an ce,</w>
Ste ph
St u
G D
Brad y</w>
@NY Mag</w>
dum best</w>
T ,</w>
African American</w>
#F ITN</w>
# Team
tow ard</w>
om ine
mar k
bl ue</w>
a c</w>
PLE ASE</w>
st reet</w>
repor ts</w>
es sions</w>
Pen ce16</w>
Ma h
@S quawk
2 3
me dic
lo s</w>
honest ly</w>
S ir</w>
Ne ed</w>
M UST</w>
E v
C oul
C arter</w>
7 pm</w>
wa sted</w>
up coming</w>
re qu
ra z
collu sion</w>
busines s,</w>
ObamaC are,</w>
Ex ecutive</w>
4 0
sig nature</w>
schedu le</w>
s and</w>
ac cess</w>
H ER
As k</w>
@MELANIA TRUMP</w>
ti on
te mp
state ,</w>
l er</w>
compet ition</w>
b ,</w>
Rober ts</w>
LE AD
C NN
2 2:</w>
smart er</w>
s ounds</w>
f l</w>
ar ily</w>
TI ME</w>
Schum er</w>
Roo m</w>
O W</w>
Colle ction</w>
@ Gre
wee k,</w>
se d,</w>
s we
l it
he at</w>
garb age</w>
Y oun
Nu mber</w>
# Deb
we ather</w>
tra vel
s k</w>
ri se</w>
i ,</w>
campaig ning</w>
appro pri
Wel come</w>
Tennes see</w>
O c
20 :</w>
thr illed</w>
st :</w>
poll ,</w>
lif e,</w>
landsli de</w>
g ni
g ames</w>
far m</w>
carol ina</w>
Tw o</w>
Li ght
@S cot
$ 20</w>
qu it</w>
natur al</w>
ct uary</w>
Vie w</w>
TRUMP :</w>
J ourn
Is lam</w>
or y</w>
land ed</w>
ba se</w>
ac cep
a ward</w>
X i</w>
D ec
Bu ffal
s kills</w>
rapid ly</w>
intere sted</w>
dele ted</w>
c ard</w>
att acking</w>
Wor l
S ince</w>
IS T
@V anity
@Fox News
assa ul
W ish</w>
To p</w>
Snow den</w>
GD P</w>
A si
tre at
pa ys</w>
o v
le v
Or lan
s and
or ing</w>
me ly</w>
audi ence</w>
Fu ll</w>
Con st
re n</w>
Wall ace</w>
H unt
@n bc
we rent</w>
pre sent</w>
is m,</w>
P O
F ind</w>
@Ann Coul
wa ke</w>
un like</w>
se y
m es</w>
f it</w>
Yor k,</w>
HAPP Y</w>
F al
ther hood</w>
straight en</w>
predic ted</w>
negoti ation</w>
disa strous</w>
di o</w>
Tom or
Russi ans</w>
K ING</w>
Ac cording</w>
refu se</w>
ph one</w>
inf lu
hol ding</w>
Ry an</w>
K erry</w>
He y</w>
@AG Schneiderman</w>
5 0%</w>
19 6
weak ness</w>
ssi on</w>
ri p</w>
flor ida</w>
ab le,</w>
5 th</w>
sur vi
ste el</w>
s ong</w>
pro ject</w>
je al
inf o</w>
employe es</w>
ath er
Mit ch</w>
Lo ved</w>
La w</w>
@mittr omney</w>
tra itor</w>
scot land</w>
in j
i ff
U K</w>
Fo cus</w>
De f
$ 10</w>
y es,</w>
ro ck</w>
gir l</w>
compe te</w>
add ition</w>
C PAC</w>
A ct
se as
scho ols</w>
inste in</w>
in ation</w>
ickla us</w>
har der</w>
G C</w>
C ould</w>
Au str
2016 ,</w>
trump s</w>
soci ety</w>
pe ct</w>
mon y</w>
achi e
Res ort</w>
B oo
AC K</w>
ut y</w>
ou s,</w>
ne ver,</w>
in e,</w>
am endment</w>
10 :00</w>
lau gh</w>
fli ghts</w>
extre mely</w>
adm ire</w>
Ch ange</w>
w ow,</w>
see k</w>
h y
el la
ad ded</w>
So H
P att
$5 M</w>
ve d,</w>
s a</w>
no te</w>
dis respect</w>
cop ies</w>
asse ts</w>
agree ment</w>
Sh ow
P ra
r ating</w>
pl an,</w>
ount s</w>
of ,</w>
in ce
fe ar</w>
apologi zed</w>
ang er</w>
am ounts</w>
Tr ans
Sad ly,</w>
S O
I I
or ities</w>
mis sing</w>
jo ining</w>
equip ment</w>
@ch uck
@G eraldo
ster n
od es</w>
i re
be at
a verage</w>
W ALL</w>
Stew art</w>
F I
Ama z
@J ack
# T
represent ing</w>
prote cted</w>
onbe g</w>
g il
,0 00,000</w>
w all
toni ght,</w>
are n
Ir an,</w>
Euro pe</w>
De rek</w>
@realDonald Trumps</w>
prosp er
dam n</w>
d uty</w>
@Squawk CNBC</w>
19 :</w>
wa i
lo ws</w>
el se
divi ded</w>
con gratul
bankrupt cy</w>
ac h,</w>
Per haps</w>
L ittle</w>
How ard</w>
H ome</w>
Bush ,</w>
Bu t,</w>
ex ecu
bett er,</w>
ac cept</w>
Sig nature</w>
S i
ON E</w>
Im migration</w>
@ am
$4 00</w>
honest ly,</w>
ge or
d ar
be auti
b :</w>
R un
K arl</w>
G eral
B la
suff ering</w>
m outh</w>
incompet ence</w>
es s,</w>
Z ER
@ le
vot er</w>
moti vation</w>
epis odes</w>
e k</w>
cri me,</w>
N R
Memor ial</w>
I ON
F IR
@ Th
s ite</w>
k a</w>
h moore
f ab
@te d
@ wh
# The
y don</w>
sty le</w>
pund its</w>
n am</w>
k ne
g ain
NE W</w>
G oo
E ast
Cra zy</w>
4 7
we alth
premi ere</w>
lead er,</w>
e e
con vers
chan ging</w>
bo y</w>
S en</w>
S A
PEOP LE</w>
K ev
@ Li
tra in</w>
s sing</w>
grow ing</w>
desper ately</w>
bo ard</w>
ag ed</w>
Aw esome</w>
se par
loc ation</w>
i ma
fix ing</w>
clo ck</w>
bod y,</w>
accomp lish</w>
New Yor
G row
E r
si on,</w>
offici ally</w>
me mor
m en
choo se</w>
ce :</w>
ani a,</w>
P an
Ex c
COUNTR Y</w>
Ar my</w>
@ Wa
# Tax
# Debate</w>
ha n</w>
en ry</w>
M R</w>
H ell</w>
w :</w>
le vel
Un i
Light weight</w>
J ud
@Re p
@P e
strong ,</w>
k id
inve st</w>
il la
chan ge,</w>
PE C
st ig
rece ive</w>
hamp shire</w>
exp lo
deb t,</w>
R E</w>
Osc ars</w>
Con serv
C hampionship</w>
u li
re building</w>
pe line</w>
mo vi
ar ance</w>
Liber ty</w>
K ate</w>
J erry</w>
ultim ate</w>
sta yed</w>
r ound</w>
magnific ent</w>
l ack</w>
k er:</w>
ev angelicals</w>
difficul t</w>
cri sis</w>
b ow
ation :</w>
a red</w>
I ca
@L ord
5 1</w>
z ,</w>
si ze</w>
ly mp
ge ment</w>
disapp ointed</w>
bot tom</w>
R al
O lymp
MS M</w>
Health care</w>
C ON
relev ant</w>
re turned</w>
menti oned</w>
lett ers</w>
hosp it
a be
Carol ina,</w>
@MittRomne ys</w>
v arious</w>
te ,</w>
sid es</w>
pu shed</w>
elebrity apprentice</w>
co vered</w>
RE D</w>
M U
H unt</w>
D J
@L ate
st ance</w>
si vely</w>
purcha se</w>
pe ,</w>
in de
do ctor</w>
appe arance</w>
W ay</w>
B L
spo t</w>
prote ction</w>
ple dge</w>
origin al</w>
in sul
ele ct
defic its</w>
air ports</w>
DA Y
D um
@An dre
proble m
je b</w>
happen ,</w>
enni fer
doll ars,</w>
bas sad
Obam ac
Est ablishment</w>
t g
sid ed</w>
crimin als</w>
K a
Jap an,</w>
Blo om
@politic o</w>
@Miss Universe</w>
@Geraldo Rivera</w>
@B ret
@ de
y le
ex ist</w>
bo ss</w>
G L
F ol
B oth</w>
ss i</w>
ra u
m ac
leader ship,</w>
expla in</w>
environ mental</w>
br ings</w>
W itch</w>
S ur
R a
CU TS</w>
@Le e
@ ma
pre t
1 6:</w>
pla y
pl ic
om o</w>
for m,</w>
av u
Wor king</w>
W AR
Dire ctor</w>
@J im
yn e</w>
re ck
r allies</w>
il e,</w>
const antly</w>
b illionaire</w>
ab ly</w>
ab in
SoH o</w>
@Jo an_
@ U
3 8
victor ies</w>
up set</w>
univer se</w>
ta in</w>
sa ving</w>
re y</w>
jo hn</w>
ig h</w>
high ,</w>
h ire</w>
fla g</w>
corru ption</w>
ce iling</w>
c :</w>
be fore,</w>
Wr ong</w>
J on
E VER</w>
@ke vin
# I
disa ster,</w>
ad ver
Lead ership</w>
D r</w>
Christi an</w>
@d on
@B e
gov t</w>
dec ide</w>
begin s</w>
ZER O</w>
Lear n</w>
Bu ff
sle ep</w>
re negotiate</w>
le tting</w>
jeal ous</w>
cri mes</w>
be gging</w>
batt le</w>
T ig
Count y</w>
@H uff
1 9</w>
sho ot
re bels</w>
j u
is cal</w>
ine ff
holi day</w>
guil ty</w>
ch rist
S :</w>
Fail ing</w>
#F ake
# L
scho ol
reduc e</w>
law suit</w>
feat ures</w>
docu ment
appreci ated</w>
add iti
O Re
Ch urchill</w>
@Lord _
st ly</w>
russi a</w>
pre sent
plac ed</w>
phenomen al</w>
l ands</w>
W est
S TR
@ mor
n a
l yn
exp and</w>
all er</w>
M er
LE D</w>
L on
I C</w>
8 th</w>
re view</w>
prote sters</w>
pri mar
matt ers</w>
hmoore ssi</w>
Lo ts</w>
su l</w>
sh ort
s ar
n er:</w>
dri ving</w>
b an
OT US
O p
L ind
He y,</w>
C as
B O
Americ an
@The Real
z i
tur ns</w>
s ary</w>
r ates</w>
iti ve</w>
ey es</w>
e vid
de ep</w>
b low</w>
ann iver
C a
1 4:</w>
# V
go v</w>
end ary</w>
bb ons</w>
abu se</w>
Tot ally</w>
L or
Do onbeg</w>
ver sion</w>
val ue</w>
oth er
n ard
con sequ
clow n</w>
K ent
H or
G ary
Fla g</w>
@ Ne
7 0</w>
# H
to ol</w>
ti onal</w>
spre ad</w>
inc id
for gotten</w>
exc ite
every day</w>
er y</w>
de signed</w>
cop y</w>
appropri ate</w>
ac qu
@S am
00 ,</w>
sal es</w>
re fer
min ds</w>
fair ness</w>
do pey</w>
U k
Hurrican e
AT ION</w>
AS T</w>
@E d
w is
ssi onal</w>
oth ers,</w>
it ted</w>
gla s</w>
e ge</w>
colle ction</w>
b or</w>
ac ious</w>
ab il
R and</w>
P R
P GA</w>
Detro it</w>
@eric b
@J ennifer
w all,</w>
vac c
tem per
strate gy</w>
ri es,</w>
peop les</w>
oo o
li ar</w>
et ,</w>
eff ective</w>
ea si
car ds</w>
W om
ON G</w>
O s</w>
Bedmin ster</w>
8 8:</w>
x ,</w>
th row</w>
ch :</w>
ard :</w>
S t</w>
OU T</w>
Eli zabeth</w>
B T</w>
An d,</w>
Afric an</w>
yr s</w>
promis es</w>
po se</w>
l en
be l
app lic
And Mike</w>
@Mike AndMike</w>
rau tham
effor ts</w>
ed om
dir ty</w>
Wednes day</w>
THAN KS</w>
S ay</w>
2 ,000</w>
#c elebrityapprentice</w>
ve :</w>
sac ol
min ute</w>
independ ent</w>
cot t</w>
al ia</w>
W ind</w>
S am
Mc Conne
D ay
A m</w>
#GOP Debate</w>
th :</w>
respe ct
ho a
ex act</w>
ev ent
Wh ether</w>
H E
C RI
@Joan_ Rivers</w>
@Am Spe
ver t</w>
r in
pl anned</w>
k ick</w>
he re:</w>
ess entially</w>
OR E</w>
@ v
za Gi
sen ate</w>
se ctor</w>
scre en</w>
p ow
ic ,</w>
frank ly,</w>
cla ss
certi fic
S essions</w>
P OR
Louisi ana</w>
Const itu
A ward</w>
@bo b
ti sh</w>
real ly,</w>
negoti ator</w>
mo re
medi a,</w>
hurrican e</w>
chan ges</w>
Some body</w>
Apprent ice,</w>
@i vank
@Vanity Fair</w>
reco gni
anniver sary</w>
abin et</w>
W on
Irani an</w>
Can adi
st ates,</w>
pro gr
omine e</w>
numb ers,</w>
foo lish</w>
de ath
d at
Re port</w>
Negoti ation</w>
Ma c</w>
H ard</w>
ve ter
th ur</w>
stat us</w>
on i
ber t
ath le
L ist
J im
F oundation</w>
@p enn
7 :
t ari
subst anti
requi res</w>
quali fied</w>
ma ker</w>
ira q</w>
ir man</w>
inst on</w>
el ite</w>
critic al</w>
W inston</w>
H il
E N</w>
C avu
stupid ity</w>
sc am</w>
g en
el se,</w>
ap art
P aul
A be</w>
@Trump New
@B ob
w ounded</w>
ton :</w>
ro g
on gest</w>
lab or</w>
hou se
g t</w>
eli min
ch ris</w>
b in
au gh</w>
at :</w>
ani el
Hi story</w>
Br it
# Hurricane
wit ch</w>
s ca
reno v
pover ty</w>
k y
Viet nam</w>
T U
John son</w>
AN D
@V P</w>
@Lee zaGi
@D i
#trump forpresident</w>
mor on</w>
ili pp
gan g</w>
ec ted</w>
cre d
ble w</w>
L yn
Ch anne
@Bret Ba
nu m
me as
kic ked</w>
guaran tee</w>
fir ing</w>
d ge
c ked</w>
ator s,</w>
al e
Every thing</w>
E d</w>
CHAN GE</w>
@CB S
5 7
ro ss
li er</w>
il y
c le</w>
an sas</w>
an a,</w>
Con sumer</w>
Bu sey</w>
@chuck to
#Fake News</w>
#C rooked
seni o
p ence</w>
ma in</w>
ham p</w>
embarra ssed</w>
bl ing</w>
H onest
G ener
Conf erence</w>
A ra
1 7:</w>
#Trump Pence16</w>
vis iting</w>
to ,</w>
pleas ure</w>
p al
m us
low ing</w>
inst ream</w>
g am
can cell
Regi ster</w>
Exc ited</w>
C l
App le</w>
@jim my
w h</w>
su its</w>
st on
regul ation</w>
for tun
ele ctions</w>
V al
TI ON</w>
Mo sul</w>
Lo s</w>
Gre en
E ma
E a
@k rautham
@S ar
@Howard Stern</w>
sh oo
regi me</w>
re ve
ra dio</w>
bar a
ac count</w>
Vide o:</w>
Van cou
E instein</w>
Bow l</w>
8 5:</w>
10 0,000</w>
la p
char ac
Ro sie</w>
F erry</w>
Colle ge</w>
@Scot t
t y,</w>
http ://
for ms</w>
en c
clear ly</w>
O ut
@T O
# Miss
wor ried</w>
pas sing</w>
le f
inclu des</w>
de valu
_ B
Gra ydon</w>
Car l</w>
pic ked</w>
over ,</w>
or :</w>
m strong</w>
it al
ch ing</w>
any ah
Ro se
Pro te
Or ganiz
M ING</w>
Je wish</w>
A W
@Sean Hannity</w>
@ z
5 ,000</w>
$1 00</w>
k in
excite ment</w>
count ry
bom b</w>
be d
ack ,</w>
Las Vegas</w>
12 3
o int</w>
ing )</w>
crow d,</w>
am ent</w>
Su pp
Poll s</w>
s es
re ss</w>
iti es,</w>
fix ed</w>
conflic t</w>
and y
adm itted</w>
Thanks giving</w>
CE O</w>
@Ro sie</w>
@ st
9 0</w>
sh it</w>
o lo
la s</w>
k ing,</w>
j ail</w>
itor ial</w>
ing ton</w>
fab ric
def ending</w>
d ope</w>
co /
bal ance</w>
answ ers</w>
Respon ders</w>
F il
D ann
@ bl
qu e</w>
intervie ws</w>
ilipp ines</w>
g ain</w>
R at
M y
H el
An dy</w>
@W WE</w>
@ o
si r
life time</w>
dri ve</w>
Journ al</w>
I l
Grow th</w>
F a
@r on
@Re d
9 PM</w>
y u
vi ously</w>
une mplo
tu res</w>
legisl ation</w>
hac king</w>
er g
catastro p
am ond</w>
Tre mendous</w>
Tomor row</w>
O cean</w>
ILLI ON</w>
B AD</w>
ve gas</w>
sig ns</w>
is co</w>
inspir ing</w>
gener als</w>
G in
@ted cruz</w>
@j eff
8 4
s lea
promot e</w>
p il
lo ser
con test
bro ke</w>
be comes</w>
San to
H E</w>
9 9:</w>
11 /
writ er</w>
r ough</w>
pp er</w>
poll ing</w>
ou th
it :</w>
im pressed</w>
deducti bles</w>
de sign</w>
c king</w>
adver ti
V ince</w>
Tru st</w>
Sor ry</w>
RE S
Mc Mah
Democrat s,</w>
Cla ss</w>
@I an
un ning</w>
sp or
quest ion
poll s,</w>
moder n</w>
man s</w>
mach ine</w>
jud gment</w>
iz ation</w>
il lett
el and</w>
der ,</w>
che a
cas es</w>
J ones</w>
F ed</w>
@P at
wh ere
s sel
p st
mur der</w>
el :</w>
act or</w>
ac hes</w>
Youn g</w>
R NC</w>
Mob ile</w>
HER O
G lobal</w>
Bal ti
Al bert</w>
ti es,</w>
evid ence</w>
dou bled</w>
compli ment</w>
ad ill
@ 1
# TRUMP</w>
j am
do or</w>
cli p</w>
Wal ters</w>
U P</w>
Obama Clinton</w>
M :</w>
@N R
w ow</w>
solu tion,</w>
qu ite</w>
ow ned</w>
it ll</w>
go ,</w>
deli vered</w>
da m</w>
contribu tions</w>
ca de
anyah u</w>
#Crooked Hillary</w>
wi se,</w>
stud ents</w>
secur ity,</w>
pl ace
invest ments</w>
ema il
c t,</w>
as ing</w>
an da
ab and
S ol
Hon ored</w>
DJ T</w>
Com man
Channe l</w>
C ute</w>
Bro therhood</w>
wil d</w>
st in
ka y,</w>
fa ith</w>
e ast</w>
back ed</w>
_ R
W illiams</w>
Politic ians</w>
Kent ucky</w>
CNN ,</w>
@ivank atrump</w>
your self,</w>
v ast</w>
st am
k la
inform ed</w>
ig nor
for d
f iscal</w>
e ight</w>
cur rent
count ries,</w>
ch es</w>
Sp itzer</w>
Pen sacol
O R</w>
New s,</w>
Jer sey</w>
H enry</w>
@Ken ya
@AmSpe c</w>
shi re,</w>
sh e
prosper ity</w>
pro per</w>
oppon ent</w>
o le
i fy</w>
hat red</w>
d or
conf ir
bre aking</w>
arch it
OB AL</w>
NE ED</w>
M ade</w>
H al
GL OBAL</w>
C OR
Bloom berg</w>
@Trump _
@ ab
2 8:</w>
19 5
w ouldve</w>
fe eling</w>
ca uc
M Y</w>
Cavu to</w>
tr ad
t our
s outhern</w>
s bur
point ,</w>
lit er
l er
ex press</w>
de ms</w>
dam age</w>
c on</w>
c ks</w>
Wi shing</w>
G ary</w>
201 6:</w>
wor th
wel fare</w>
sid y</w>
se le
scand al</w>
perc ent,</w>
per son,</w>
penal ty</w>
oun d,</w>
net work</w>
du mp
doct ors</w>
co de</w>
as su
UN GA</w>
O r</w>
JO Y</w>
G ET</w>
EN JOY</w>
Christi ans</w>
Be ach,</w>
B ACK</w>
@Trump Scotland</w>
@TO DAY
12 3:</w>
su dden</w>
public ity</w>
le st</w>
clo ser</w>
ann ual</w>
amp s</w>
St or
MA N</w>
201 1</w>
# Super
si de
le s,</w>
l ou
impre ssive</w>
exp anding</w>
dire ctly</w>
A G</w>
@Real DonaldTrump</w>
2 8</w>
# trump</w>
vi gil
v ital</w>
se ball</w>
le ct
law yer</w>
i k
h en
deli vering</w>
ca :</w>
c oo
att itude</w>
as :</w>
W IT
Ta hmooressi</w>
L at
@krautham mer</w>
@ericb olling</w>
@Trump SoHo</w>
@ stern
9/ 11</w>
sy ri
st ick</w>
sp ends</w>
ra v
n ominee</w>
ce re
S im
K ,</w>
@s am
$ 4</w>
om b
in augur
ima gin
bu s</w>
Pol ic
Ma king</w>
Ha wai
F ar
Cam pa
@the h
8 ,</w>
sub si
e ts</w>
act ing</w>
St ill</w>
In ve
C s</w>
pu ppe
int e
discus sed</w>
di son</w>
an ge
Y S</w>
Ry an
N L</w>
un de
road s,</w>
p our</w>
ny c</w>
me ant</w>
jud gement</w>
honest y</w>
Syri a,</w>
Oc to
Mo sc
Cu ban</w>
@mike _
@J ud
# TRUMP
will ,</w>
plan et</w>
phon es</w>
n ine</w>
le y:</w>
er s:</w>
classi fied</w>
ar re
Trans Pacific</w>
Scot tish</w>
@ co
1 /
t le</w>
leg end</w>
ine hur
al ized</w>
M art
Isra el,</w>
FIR ST</w>
Bergdah l</w>
Americ ans,</w>
@ scot
war ded</w>
re ach
r or
leg endary</w>
health y</w>
h itting</w>
b i</w>
Gary Busey</w>
Dou glas</w>
Car rier</w>
Ar thur</w>
wom an,</w>
w anna</w>
st ered</w>
part icip
min ers</w>
gu e</w>
continu ed</w>
ce l</w>
at s
Tru e,</w>
Mat t</w>
Kev in</w>
H am
Gr and</w>
ver :</w>
sion ate</w>
h um
gr an
con ne
Te am</w>
Republic ans,</w>
Mor ning</w>
Mi ke
F ive</w>
D O</w>
Co ast</w>
1 ,000</w>
u e,</w>
shoo t</w>
optim ism</w>
my self,</w>
movi e</w>
lev els</w>
idd le
i ki
fi gh
Yester day</w>
T OT
M ur
E ar
@Trump LasVegas</w>
@ us
taxpa yers</w>
stor m</w>
po cr
pers onally</w>
is lamic</w>
ir relevant</w>
friend ,</w>
f ame</w>
exclu sively</w>
en e</w>
certific ate</w>
Ro y</w>
H om
H olly
H igh</w>
E VER
D T</w>
Bedmin ster,</w>
@BretBa ier</w>
@ sp
wif e,</w>
us :</w>
ton Post</w>
re stric
oppon ents</w>
lead ers,</w>
is ra
h oo
form ing</w>
dest abil
border s,</w>
_ S
War ren</w>
S ame</w>
RO SA</w>
P erry</w>
MA ROSA</w>
F our</w>
Com e
@wh ite
@O MAROSA</w>
@LeezaGi bbons</w>
sp ort</w>
rad ic
qu ick</w>
n ice
e h
di um</w>
ce d
N J</w>
Ju ly</w>
Incre dible</w>
Ag ain,</w>
3 3:</w>
under stands</w>
tax ,</w>
pri l</w>
on d
im ated</w>
gr and</w>
ffal ob
enn is
b en
Woo ds</w>
U N</w>
Re view</w>
@stern show</w>
@d c
@bu ffalob
# mag
lead s</w>
Thom as</w>
S il
P hi
McMah on</w>
Hou se,</w>
Do esnt</w>
D inner</w>
8 5</w>
z one</w>
pr in
pl om
j illett
in n
in duc
he y</w>
g ust</w>
ff ,</w>
d ge,</w>
age ment</w>
Wa iki
Rat ings</w>
Min utes</w>
H I
Ab out</w>
@penn jillett
z u
tw ice</w>
suc ks</w>
respon ders</w>
relation ships</w>
har d,</w>
ator y</w>
ad ministration,</w>
Phoeni x</w>
P :</w>
Br ing</w>
@chuckto dd</w>
spi e</w>
sca red</w>
rest le
prote st</w>
p es</w>
ille spie</w>
gr ad
ev en
bru t
beat en</w>
and re
a se
Z ING</w>
Th ings</w>
S ave</w>
Health Care</w>
C IA</w>
Ad ministration,</w>
Achie vers</w>
@TrumpNew York</w>
wis dom</w>
u re,</w>
tr an
sus p
ssi pp
si ssipp
no where</w>
n ation,</w>
gener ation</w>
consequ ences</w>
all on</w>
Re p</w>
L ady</w>
Fran c
F un
Ele ction
Amaz on</w>
Ad kins</w>
A G
@d an
# R
t z</w>
s s:</w>
jon as</w>
grou p
commer cials</w>
citiz en
chec ks</w>
Ste in
Ro se</w>
Pr oud</w>
@TrumpGolf LA</w>
tri bu
termin ate</w>
su g
non sense</w>
mean ing</w>
illi am
f oundation</w>
P as
P RO
G ir
Chic ago,</w>
@Kenya Moore</w>
wealth y</w>
s wee
prin ci
ha ve,</w>
f th</w>
ele ss</w>
WAR MING</w>
Orlan do</w>
D es</w>
@Trump Turnberry</w>
@S ha
@Bar bara
6 6
th is:</w>
solu tions</w>
sen ator</w>
m ess
every where</w>
ac ci
Wh eres</w>
Ph ilippines</w>
PAC s</w>
Maj or</w>
Bal d
@white house</w>
@mar co
@Jo sh
@CNN Politics</w>
wa s,</w>
visi on,</w>
ste al</w>
sal mond</w>
sa :</w>
jo ined</w>
j :</w>
ir a</w>
enn y
dang er</w>
compla ining</w>
and ed</w>
am en
ali st</w>
Wi ki
N ational
Man u
C level
@ny times,</w>
@B r
view ers</w>
ren d
qu ar
in accurate</w>
et ing</w>
ar ies</w>
an al
Phi l</w>
J ack</w>
@buffalob ills</w>
prosp erous</w>
j ack
h ates</w>
de dic
ar r
W HA
WHA T</w>
S gt</w>
Mor gan</w>
9 0
# the
ser ving</w>
sa ys,</w>
ri sing</w>
gy n</w>
factor ies</w>
devast ated</w>
dest a</w>
commer cial</w>
ck :</w>
c es
are as</w>
_ T
M IN
Gra ham
@The _
w ing</w>
up on</w>
me :</w>
m illion,</w>
le vin
jo hn
ing s
her self</w>
democr at</w>
brid ges</w>
J im</w>
G :</w>
C amp</w>
@mark levin
#mag a</w>
#Tax Reform</w>
sto len</w>
respe cts</w>
ma ssi
in san
con gress</w>
ce i
Ter ror
No v</w>
McConne ll</w>
Mag az
Lar ry</w>
Ken ne
I M
Do pey</w>
Ange les</w>
@AnnCoul ter</w>
$ $</w>
st op
s ci
repe aled</w>
mi ke</w>
lar ge
kla hom
ill ing</w>
ici al</w>
f ly</w>
Patt on</w>
Lon don</w>
Je ter</w>
Congre ssional</w>
@Lord_ Sugar</w>
s lo
on ing</w>
hoa x</w>
f ill</w>
congratul ate</w>
ch est
bre ak
ar a
Se c</w>
P A</w>
Int el
Har bor</w>
produc ts</w>
pl ate
negoti ations</w>
le verage</w>
iti z
hi de</w>
don t,</w>
disa gree</w>
di sp
bal lot</w>
at temp
W IN
Pan ama</w>
Di shonest</w>
Def ense</w>
D aily
@y ankees</w>
@P aul
# B
sex ual</w>
regi stered</w>
individ u
com ment</w>
Ru bi
Congre ss,</w>
AMA ZING</w>
@Sar ah
@DanScavin o</w>
# Dem
z z</w>
unemplo yed</w>
restaur ant</w>
rac e,</w>
num erous</w>
insp ire</w>
Jeff rey</w>
East ,</w>
@T im
medic al</w>
examp le,</w>
chie f</w>
challen ges</w>
b on
are na</w>
y an
wan t,</w>
su ed</w>
sh :</w>
qu e
pra y</w>
n ic
lo ving</w>
k er,</w>
iz es</w>
i a
ard i</w>
ali ve</w>
Polic y</w>
Pal est
O f
Do ing</w>
Austr alia</w>
@Ar senio
tu re,</w>
sor ts</w>
se ar
ri al</w>
presid ents</w>
nor m
j our
disgr aceful</w>
current ly</w>
cla im</w>
You d</w>
V I
To dd</w>
T E</w>
S E</w>
Charlott es
Bo eing</w>
with dra
v y</w>
re d
pre ci
lea se,</w>
insp ired</w>
inc ts</w>
il ed</w>
form ed</w>
f er</w>
cap ital</w>
Ral ph</w>
O ur
Mac Arthur</w>
Jim my</w>
Ir ans</w>
Buffal o</w>
Balti more</w>
@R ic
@ ru
tomorro w,</w>
su per
lo an</w>
d )</w>
cour ts</w>
col lap
Di amond</w>
@T race
9 9</w>
tough est</w>
spo ken</w>
m ad
lobby ist</w>
k in</w>
iz z
ion tv</w>
inde ed</w>
ci vil</w>
assaul t</w>
additi onal</w>
Y ,</w>
Ve ts</w>
Un believable</w>
Sun days</w>
@pennjillett e</w>
6 9:</w>
1 5:</w>
you th</w>
ster n</w>
il a
catastrop he</w>
car ried</w>
an u
an s:</w>
Thou sands</w>
TA ,</w>
T E
Ro ger</w>
PP LED</w>
M ON
Leag ue</w>
CRI PPLED</w>
@TODAY show</w>
@S pe
@ news
7 4
2 4:</w>
$ 7
terror ism,</w>
so ft</w>
part ic
partic ular</w>
foc using</w>
elec tr
don ations</w>
der :</w>
de ad
B el
@alex salmond</w>
@THE GaryBusey</w>
@M ari
# No
th x</w>
sol ved</w>
re auc
pp led</w>
p t,</w>
en ce
cere mony</w>
bassad or</w>
as on
Po st
Gol d
Eng land</w>
@C NBC</w>
vol u
un lea
os a</w>
m ic
li m
f aul
doct or,</w>
ate d,</w>
ann e</w>
YOU R</w>
Musli ms</w>
MU CH</w>
@h illary
@Trump Toronto</w>
@R NC</w>
@ Israel</w>
3 1</w>
#ICYM I</w>
ver se</w>
sp in</w>
new s,</w>
moti v
master piece</w>
ic onic</w>
S po
S car
Bro dy
Bi den</w>
@The Brody
@C ah
viol ent</w>
ter n
substanti ally</w>
sh ,</w>
ow ners</w>
ord in
ment s,</w>
ke d,</w>
execu ti
convers ation</w>
b one</w>
ati ve,</w>
GREA T
En ough</w>
C C
Bob by</w>
B ased</w>
@B o
@ ry
st ati
ri pped</w>
meet the
ed Cruz</w>
bu t,</w>
Se an</w>
S SI
Pro ble
Mis sissipp
Ara b</w>
@j on
@j ake
@M s
@ meetthe
@ car
vic a
trans pa
t ex
re sources</w>
lett erman</w>
j r</w>
inclu de</w>
de l</w>
de :</w>
cir cu
atel y,</w>
any way,</w>
anh att
_ Show</w>
S MA
M att
M anhatt
Is lam
IL L
G illespie</w>
Fam ily</w>
F ore
@Late _Show</w>
treat ment</w>
or m
opin ion,</w>
ol f
no thing,</w>
n icklaus</w>
hop ing</w>
h ed</w>
g ay</w>
friend ly</w>
free zing</w>
f our
auti sm</w>
al so,</w>
W ant</w>
T ali
T Y</w>
HA VE</w>
A pril</w>
@Trace Adkins</w>
@B ig
@ ad
war ri
unde rest
um p</w>
tru th
te ams</w>
ta pe</w>
sett le</w>
pu ll</w>
pri vil
gg er</w>
f low</w>
f ice</w>
ac ob
St ate,</w>
ILLI ON
Hamp shire,</w>
D ER</w>
Ang el
00 :</w>
$ 25
wor ry,</w>
wan ting</w>
suppor ter</w>
soli d</w>
sho p</w>
r y:</w>
polic y,</w>
f illed</w>
easi er</w>
defe ated</w>
de part
US A:</w>
S af
Me et</w>
K i
A A
@p aul
@b ri
@J ay
@ Lo
w er</w>
tri al</w>
ro duc
p p</w>
k ing
ineff ective</w>
hor ror</w>
dre ams</w>
consid ering</w>
con cept</w>
ORe illy</w>
M illions</w>
D :</w>
Constitu tion</w>
Com mis
@P GA
tow ards</w>
re sid
pri de</w>
op posed</w>
m ic</w>
h ated</w>
com plic
b il
ar med</w>
am a
ak er
ad illa
ac ted</w>
Won derful</w>
WA Y</w>
IL D</w>
C AR
@T om
3 60</w>
$ 3</w>
sub jec
predic table</w>
mon ster</w>
insan e</w>
h a</w>
embarra ss
eff ect</w>
bo sses</w>
att en
ab out,</w>
T y
Presid ents</w>
Mosc ow</w>
Hawai i</w>
F red</w>
A wards</w>
#Dem Debate</w>
writ es</w>
restric tions</w>
produc tion</w>
op ened</w>
large ly</w>
h il
fight ers</w>
deta ils</w>
dee pest</w>
Sch ool</w>
S ho
P inehur
K :</w>
G al
B at
@meetthe press</w>
@Jud ge
@J ustin
@ iontv</w>
scre aming</w>
sacri fice</w>
regi on</w>
pri me</w>
pol s</w>
leg acy</w>
l unch</w>
inte gr
h er,</w>
gr and
cent ral</w>
Sm all</w>
ST O
Obamac are,</w>
NAF TA,</w>
M illion</w>
Lind sey</w>
F ile</w>
@ Char
1 ,
y r</w>
y ne
sad ly,</w>
projec ts</w>
mor ning,</w>
iz ing</w>
i do
fel low</w>
commun ity,</w>
as sy</w>
Ro d
Pat rol</w>
M C</w>
G I
F ree</w>
@m ichael
@kevin jonas</w>
@J eff
work ers,</w>
we d
ut ers</w>
st amps</w>
row ing</w>
inst incts</w>
fe et</w>
es )</w>
ele b</w>
cancell ed</w>
beli e
Wiki Lea
WikiLea ks</w>
Pu t</w>
O klahom
@m el
@E l
9 th</w>
0 1:</w>
there fore</w>
st ro
regi ster</w>
ra y
pe aceful</w>
o il,</w>
no lo
lo sses</w>
ent s,</w>
commit tee</w>
c hampionship</w>
ates 2016</w>
ar di
W ouldnt</w>
Ro c
Po desta</w>
M ad
Jo int</w>
Al most</w>
@c elebapprentice</w>
@Ste phen
te a</w>
sub scri
spe ci
sour ce</w>
sk a</w>
pre v
no ld</w>
may or</w>
loc ked</w>
it ch
ic h,</w>
i ther</w>
great ness</w>
ful ly,</w>
ev ent,</w>
en ever</w>
We ek</w>
Wa yne</w>
Sar as
Je an
F EMA</w>
An n
@Sen ate
@ Bu
$ 3
y le</w>
vot e,</w>
tar get</w>
sun day</w>
ro ads</w>
pop ul
h at</w>
ex tr
di g
der in
c nn</w>
ber nie</w>
b acks</w>
au ,</w>
Wh ich</w>
VE TER
Pe arl</w>
Medi a:</w>
FO X</w>
Cor ker</w>
Canadi an</w>
9 ,</w>
20 20</w>
ve t</w>
su st
pre par
mo stly</w>
m ills</w>
import ant,</w>
h ello</w>
ge st
fin ale</w>
enn is</w>
ele ct</w>
commun ic
Uni vision</w>
R Y</w>
LEAD ER</w>
@ sa
3 9</w>
weap on</w>
tra ge
pr ou
pa th
p o</w>
nes s,</w>
i sh
fr om
fa ther,</w>
REA L
NewYor k
Intel lig
H i</w>
CU T</w>
@T ig
# GOP</w>
vol unt
v enti
r ance</w>
organiz ation</w>
no bodys</w>
im ate</w>
exper ts</w>
elec ted,</w>
citi es,</w>
Wh o
V et
Me gyn</w>
L ance</w>
B S</w>
Al so</w>
8 /
44 44
2 1
vigil ant</w>
un d
th om
ser ies</w>
ro of</w>
ra ine</w>
ple d
list ened</w>
li ved</w>
gre en</w>
critic ized</w>
broad cast</w>
batt le
Frank lin</w>
De pt</w>
A le
@don lem
@S har
4 5
4 00</w>
$1 9</w>
us ual</w>
ser ves</w>
il e
g ang
fall on</w>
et t</w>
ear lier</w>
as h</w>
announ cing</w>
acti v
Ser vice</w>
N at
M rs</w>
Cha irman</w>
Be tter</w>
A sh
# UNGA</w>
um ,</w>
sky line</w>
pra ying</w>
on er</w>
m ers</w>
leg ally</w>
l oud</w>
it ors</w>
int er</w>
fe els</w>
di st
ct ic
can cel</w>
bu reauc
auth orities</w>
au tom
as s
Part y,</w>
Cu omo</w>
C AN</w>
@marco rubio</w>
@ Con
work force</w>
thre ats</w>
ow es</w>
ol ,</w>
negoti ated</w>
ff s</w>
en a</w>
di d,</w>
charac ter</w>
adilla c</w>
Sor ry,</w>
R e</w>
Q ue
BU ILD</w>
@V ince
@K ing
tra il</w>
s core</w>
retur ning</w>
re quest
open ly</w>
itor ing</w>
f ying</w>
emb race</w>
ac e,</w>
Veg as,</w>
T im</w>
O kay,</w>
@Th is
3 1:</w>
tour nam
s low</w>
s _
re comm
ran ked</w>
pla in</w>
pe :</w>
ow sk
ne igh
mar gin
l ady</w>
j a
hosp ital</w>
grad u
frank ly</w>
ex cep
elect ric</w>
San ctuary</w>
In st
@Barbara J
2 ,
ye t,</w>
th rown</w>
n ur
i ano
clo sed</w>
bas is</w>
S AD</w>
R ick</w>
Part nership</w>
P ot
O F
EVER Y
Congress man</w>
Big gest</w>
B or
3 2</w>
14 th</w>
uck abe
se ver
ro ll</w>
re e
hol ds</w>
head ed</w>
friend s,</w>
f anta
exp ense</w>
environ ment</w>
dire ct</w>
corpor ations</w>
clint ons</w>
b ed</w>
Watch :</w>
U ne
Sec re
R ed</w>
Pen n</w>
C ut
@D or
15 %</w>
y ard</w>
t or</w>
su ing</w>
sacri fic
religi ous</w>
re marks</w>
problem s,</w>
o clock</w>
hi red</w>
h i</w>
con sul
cha os</w>
bir d</w>
as p
ad a,</w>
J ord
Geral do</w>
FU L</w>
F erry
Bo y
B in</w>
B US
@to day
@jack nicklaus</w>
@C o
@AB C
@ not
@ 60
some thing,</w>
sle ep
responsi bility</w>
quar ter
pri son</w>
politic s,</w>
ph ot
gor geous</w>
goo ds</w>
gi f
fac ing</w>
end ment,</w>
art on</w>
P ay</w>
MS 13</w>
Jo b</w>
Inter view</w>
G O</w>
Chic ago
@ mo
2 8
recogni ze</w>
re sign</w>
pro pos
pl at
lo ses</w>
jud ges</w>
hac ked</w>
fal len</w>
ers )</w>
cho ice,</w>
ch er
any more,</w>
ac tive</w>
W AT
Hill ary
Har ry</w>
G il
Dec e
African Americans</w>
@ new
9 pm</w>
war d
tic ket</w>
ren ,</w>
recei ving</w>
k y</w>
ir s</w>
im m
ido l</w>
hor rend
di sh
cli ff</w>
c able</w>
VETER ANS</w>
Un ion</w>
Tues day,</w>
Mo ines</w>
Is land</w>
HERO ES</w>
G ot
G R
@N ick
2 6
# O
th ony
re ach</w>
mo ves</w>
lar ger</w>
journ al</w>
it able</w>
event ually</w>
eral d</w>
endor sing</w>
Z :</w>
S he
C ity,</w>
C all</w>
@n ick
@B illy
quest ion,</w>
op ens</w>
o id</w>
n c</w>
ke :</w>
journ al
er a</w>
bra in</w>
b /
Z er
St ate
Octo ber</w>
NBC :</w>
M ORE</w>
Don ne
C re
B ry
@B en
7 0
spor ts</w>
si st
n ings</w>
min e,</w>
l ine
know ing</w>
it ation</w>
imp lo
adill ac
Ye ah,</w>
Vancou ver</w>
Sar ah</w>
Pi ers</w>
GO D</w>
G H
F ace</w>
A P</w>
@Fox Business</w>
@Dan Am
@CBS News</w>
$ 800</w>
yler acci
sur ren
mar ried</w>
m icha
less ly</w>
law yers</w>
k s
in ep
f ile</w>
come back</w>
a ker</w>
Waiki ki</w>
TO DAY</w>
TH IS</w>
Secur ity,</w>
R ich</w>
N :</w>
Mar i
M ot
Ken ya</w>
For bes</w>
De c</w>
D IS
D ,</w>
@k yleracci
10 %</w>
x el
writ ers</w>
the me</w>
te am,</w>
stam ina</w>
saf et
purpo se</w>
min ister</w>
ll ing</w>
lea ves</w>
docu ments</w>
an e</w>
ag en
T ou
Palest in
M al
L A
Ka ine</w>
I R</w>
@L ou
@Judge Jean
2 7</w>
opp ing</w>
ist s,</w>
int roduc
gott a</w>
for get,</w>
fir m</w>
commit ment</w>
ar gu
amaz ing,</w>
RE POR
Li fe</w>
C y
Br on
B OR
@mike_ pence</w>
8 0
stor s</w>
sir ,</w>
s ons</w>
re ci
manag er</w>
ho t</w>
embarrass ment</w>
di plom
benef its</w>
ag gre
Scot land,</w>
N ight
Mississipp i</w>
L aw
C T</w>
B R
@A P</w>
sa ke</w>
pa per
m ir
k o
it a
in stru
he av
eh ner</w>
dow nt
cas es,</w>
am a,</w>
accur ately</w>
Une mployment</w>
U se</w>
R an
R ally</w>
PAC news</w>
Honest ly,</w>
Gr ou
F ir
C ur
@C PACnews</w>
@BarbaraJ Walters</w>
@ tr
7 8:</w>
6 7:</w>
restaur ants</w>
ough ,</w>
other wise</w>
is co
im ple
hu ff</w>
da d</w>
be ha
b b</w>
ad dre
_ E
Uk raine</w>
They d</w>
Spe cial</w>
Santo rum</w>
Manhatt an</w>
Le w
Ch allen
16 th</w>
# Obamacare</w>
vi or</w>
th ri
pl or
lea ks</w>
id enti
am ed</w>
a u</w>
Ir ma</w>
Bu d
@nbc sn
9 1:</w>
school s,</w>
pro secu
month s,</w>
m manu
i ff</w>
fun ded</w>
email s,</w>
cauc us</w>
V C</w>
Tig er</w>
T ill
Secre t</w>
Q VC</w>
Oklahom a</w>
F ath
Au gust</w>
Ad dress</w>
@jimmy fallon</w>
@ Un
x im
tech nolo
pres s,</w>
one sided</w>
nt ly</w>
gar ding</w>
fre edom
enterta ining</w>
ent it
cat ch</w>
b ar</w>
Organiz ation</w>
Net work</w>
Mic hel
G it
D uring</w>
B ay</w>
@Jennifer 75
# NY
w oo
u se
te red</w>
st om
short ly</w>
s an</w>
ra in</w>
produc e</w>
pre p
o _
ma x</w>
ma instream</w>
lin e,</w>
ha ck</w>
d rain
cul ation</w>
com pu
V :</w>
St and</w>
S ounds</w>
NAT ION
L im
Hu ge</w>
D en
Cu b
@n fl</w>
@FL Gov
@ Ver
8 3:</w>
# Oscars</w>
sig nific
quick ly,</w>
pre vious</w>
op er</w>
mel ania</w>
key note</w>
iano Bec
fail s</w>
cy ber</w>
bu sy</w>
att ack,</w>
al lies,</w>
aband oned</w>
RU D
In depend
I L</w>
Dece mber</w>
C row
Ar mstrong</w>
@P ianoBec
@D RUD
@B er
: 00
8 0</w>
tw o,</w>
stru ction
sear ch</w>
net works</w>
low ering</w>
hun d
elimin ate</w>
be ats</w>
Ye ars</w>
Pro bably</w>
P ower</w>
Ne ver
N ic
H uckabe
En er
D un
Com pan
Br and
@Team Cavuto</w>
@ frank
requ est</w>
ra e
proble m,</w>
pp l</w>
ne d,</w>
h iring</w>
fail ures</w>
con test</w>
ant icip
act ually,</w>
a j
Pal in
Li ke
I I</w>
@Sarah Palin
6 4:</w>
#T BT</w>
ust ere
underest imate</w>
sm en</w>
s /
respect ful</w>
reas on
pr o</w>
min ent</w>
isra el</w>
e th
da y:</w>
an im
St re
S ustere
K ansas</w>
Dem s,</w>
@j d
@A ll
won der
wa st
tin y</w>
ten acious</w>
mark s:</w>
lo :</w>
ic ed</w>
ex tra
e vil</w>
d r</w>
cra p</w>
class y</w>
candid acy</w>
bud get,</w>
as soci
Ma her</w>
L ow
K u
Ho li
@Trump Ferry
@JudgeJean ine</w>
201 2:</w>
tribu te</w>
sm ith
compet ent</w>
They ll</w>
T ING</w>
Pol and</w>
Pinehur st</w>
Liby a,</w>
I D</w>
Holly wood</w>
G or
@donlem on</w>
@Sen T
4 0%</w>
$ 50</w>
#Deb ates2016</w>
s man</w>
li e,</w>
kill ers</w>
inj ured</w>
hand led</w>
be gun</w>
Tr illion</w>
K no
Jo e
D ream</w>
AC E</w>
@ esp
@ ari
( ;</w>
#V P
# t
tur n
re placed</w>
predic ted,</w>
po sing</w>
op ou
omb ardi</w>
mist ake
lo ve,</w>
inno v
ing tonPost</w>
in k
ic s,</w>
fil ing</w>
consi st
ba g</w>
an opou
SSI VE</w>
Re memb
MA SSIVE</w>
L unt
Gin ella
D id
Campa ign</w>
AR S</w>
A K</w>
@m r
@Matt Ginella
@Huff ingtonPost</w>
@DRUD GE
@D M
( I</w>
wa sh
vis a</w>
sto le</w>
se at</w>
s aturday</w>
ren ce</w>
reli ef</w>
j ail
i um</w>
end er</w>
de scri
comm is
V an</w>
TOT AL</w>
M E
Ha ving</w>
F AM
D S</w>
Arab ia,</w>
Ar nold</w>
@S u
@ lo
volunt e
th is
so le
re volu
ra y</w>
po st
mon itoring</w>
in pe
hund red</w>
gr ade</w>
dum p</w>
count ing</w>
corre ctly</w>
compan y,</w>
ca sting</w>
b ble</w>
ant s,</w>
ack inpe
acc id
Sand y</w>
Rus h</w>
Kore an</w>
D U
@f ackinpe
201 8</w>
the ft</w>
syste m,</w>
sa _
neigh bor
mm ys</w>
man agement</w>
in es,</w>
fa shi
extre me</w>
determin ation</w>
celebr ating</w>
atri ots</w>
am ic</w>
achie vement</w>
Vi vica
O Donne
H y
Fi fth</w>
Challen ge</w>
@da vi
@ch ris
@T M
@R on
@Ms Vivica
@DanAm ira</w>
1 50</w>
wind farm</w>
t ill</w>
streng th,</w>
rele asing</w>
peop le
or n
or ina</w>
n ational
la di
incre di
ie :</w>
g ro
for got</w>
far ,</w>
de ple
d c</w>
c hamp
WOR LD</w>
N ot
Ch ri
COR D</w>
Bo ard</w>
@NY Daily
@C ol
@Arsenio Hall</w>
7 ,</w>
201 4:</w>
# POTUS</w>
temper ament</w>
sh aring</w>
ro bb
pre ssion</w>
pe fully,</w>
ob viously</w>
ila del
iladel phi
h our
grow th,</w>
go ing,</w>
ev ed</w>
develop ment</w>
count s</w>
candid ates,</w>
bra ham</w>
ar ti
Tra vel
Hom eland</w>
G EN
B uc
A braham</w>
4 %</w>
2 6:</w>
v an
th ing
t one</w>
some day</w>
pi ec
p ing</w>
ma ster</w>
l R
lR Stor
lRStor ri
je ts</w>
it age</w>
g lob
Sc ali
S mi
S et</w>
OU LD</w>
M and
IR TH
Comman derin
B IRTH
Any one</w>
Ab solutely</w>
@David _
@Cah lRStorri
@ hu
@ ar
4 6</w>
4 2</w>
3 6</w>
10 ,000</w>
sp ace</w>
s laugh
rema ins</w>
prep are</w>
pre stig
op tions</w>
min ded</w>
me ier
k is
iz on
ho les</w>
fabric ated</w>
f ell</w>
en ced</w>
cu stom
boy cott</w>
any thing,</w>
a a
P hon
K o
Goo fy</w>
Fi red</w>
Ad vis
AC aucus</w>
A dam</w>
@theh ill</w>
@ste phen
@ron meier
@marklevin show</w>
@FLGov Scott</w>
@D aily
@B B
@ la
#I ACaucus</w>
s ;</w>
re sc
inst ance,</w>
ge :</w>
ed a</w>
con duc
balan ced</w>
O ut</w>
Mar k
L ake</w>
Fin ally,</w>
AL LY</w>
@Tig er
@ net
6 2</w>
( which</w>
up pe
ow ed</w>
lo l</w>
know ingly</w>
ing er</w>
fu ture,</w>
corre ct
bu ll
an ie
ali ens</w>
a wards</w>
Ica hn</w>
IST OR
Conserv ative</w>
Conf id
@m acys</w>
@S h
wall s</w>
si de,</w>
or s,</w>
ob vious</w>
ke ting</w>
gra ph
exp anded</w>
Tu be</w>
Govern or
Car l
@be ll
@ Go
7 7:</w>
5 2</w>
$ 25</w>
work s,</w>
uck er
u n</w>
sion er</w>
reg im
oper ation</w>
mat ch</w>
jo e</w>
fi ght,</w>
ed :</w>
be st
app oint</w>
Wom ens</w>
Wh arton</w>
Thou ghts</w>
S qu
Newsmax @iontv</w>
K night</w>
Ber nard
@S ec
@J ames
sum mer</w>
il ey
brid ges,</w>
bab ies</w>
Some thing</w>
J F
Did nt</w>
Ch il
Bri dge</w>
@Frank Lunt
0 8:</w>
#Team Trump</w>
wr ong,</w>
wal ked</w>
un believ
se ph
ob bs</w>
mon day</w>
li ft</w>
laugh ed</w>
l a</w>
ill er</w>
fron ts</w>
f t
f old</w>
f at
d _
contest ants</w>
co t</w>
cade my</w>
att orney</w>
ar ound,</w>
_ REPOR
Tot al</w>
O :</w>
Nash ville</w>
Mac ron</w>
C aucus</w>
Buil ding</w>
@DRUDGE _REPOR
7 %</w>
#US S
y lor
xel ro
us u
u rious</w>
o hio</w>
m ot
lef t,</w>
emp ire</w>
destabil ize</w>
de d,</w>
ad y
ach ers</w>
W R
Tow er,</w>
Pet e</w>
M S</w>
J ames
H O
Gu y</w>
F E
ES M</w>
Asi a</w>
AN T
@ari anna
@T I
9 3</w>
#L ESM</w>
ser :</w>
pro posed</w>
par k</w>
news paper</w>
n e</w>
lif ted</w>
jour ney</w>
it s,</w>
ig n
idi ots</w>
faul t</w>
fa st,</w>
e _
de ep
contro ver
com man
bl ack</w>
Wa it</w>
V ir
St one</w>
Sm art</w>
Ex cell
Ele ct
CO ME</w>
Bar bar
BIRTH DAY</w>
Act ually,</w>
@MsVivica Fox</w>
@MattGinella GC</w>
4 8</w>
#Hurricane Harvey</w>
tele prom
pat rol</w>
gang s</w>
fundrais er</w>
executi ves</w>
co ast</w>
c ents</w>
blo ck</w>
balan cing</w>
Y et</w>
St up
Spo ke</w>
H ol
For Trump</w>
C ath
@the view
@TrumpFerry Point</w>
@N ic
#Trump 4
un ity</w>
u :</w>
trage dy</w>
thou ght
re f
produc ed</w>
po c
los i</w>
individu als</w>
in fl
i x
i ous
es se
deduc tions</w>
d i</w>
co vering</w>
b/ c</w>
b by</w>
adv ance</w>
ab ilities</w>
Wor d</w>
Terror ism</w>
F RE
ES ,</w>
@h ard
@I am
@Andre w
@ su
@ fund
w ars</w>
sust ain
shir ts,</w>
rais es</w>
ma :</w>
lex i
jam in</w>
i se
hun t</w>
hospit als</w>
gu y
enfor ce</w>
en _
dela y</w>
bo x
att ending</w>
_ K
Wh os</w>
O Care</w>
Jack son</w>
IN T
Fath ers</w>
AN T</w>
20 00</w>
#P OTUS
# debate</w>
z o</w>
w ood
syri a</w>
stru gg
figh ter</w>
en ta
christ mas</w>
ar d,</w>
a wa
a de
WIT H</w>
RE CORD</w>
Ch o
C e
@k im
@b ret
@PianoBec ca:</w>
@Newsmax_ Media:</w>
8 pm</w>
turb ine</w>
st unning</w>
sm aller</w>
scri p
sal e</w>
respe cting</w>
re put
pri ority</w>
plate au,</w>
n ation
mmanu el
low n</w>
hy pocr
horrend ous</w>
gra ham
dis cred
bre a
ball s</w>
You Tube</w>
Wr ong,</w>
Tr ack
Stup id</w>
Steph anopou
Spr ing</w>
P U
O L</w>
Nor man</w>
L Y
J ay</w>
Fr ank</w>
Eli ot</w>
@da vid
@M o
@Ian Z
that _
t t</w>
si m
sho ts</w>
ro ve</w>
orm ous</w>
n an
min ut
me rely</w>
liter ally</w>
en ormous</w>
_ that_
War ren,</w>
U r
Trump 2016</w>
Re uters</w>
R T
On line</w>
L ate</w>
EL L</w>
D am
@not _that_
5 1%</w>
s co
rema ining</w>
re garding</w>
politici ans,</w>
pas sionate</w>
lux urious</w>
import ance</w>
h l
for ces</w>
ere n
e tt
discus sion</w>
consid er
bri ef
att end</w>
a eda</w>
To days</w>
TH AT</w>
R s</w>
I t
H an
Deb t</w>
Clevel and</w>
@b a
9 5
201 4
un le
te :</w>
ste aling</w>
se gment</w>
ric k</w>
pre ced
pm :</w>
mb augh</w>
li ves,</w>
l ongest</w>
j ury</w>
integr ity</w>
hac ks</w>
fra ud
feat uring</w>
Worl d
T IC
Russi a
R ink</w>
Ne il</w>
Mel ania,</w>
Le ading</w>
Buff ett</w>
Bl ack</w>
Be en</w>
wal king</w>
tu es
t wi
susp end</w>
suppor tive</w>
shir t</w>
represent atives</w>
o sa
mone y
ic hel
fin ance</w>
every body,</w>
ent al</w>
e go</w>
aw are</w>
ate :</w>
age l</w>
YOU RE</w>
Watch ed</w>
P uppe
Me eting</w>
In augur
H agel</w>
Ema ils</w>
@j ay
@j am
@L il
wit nes
vot e
v irgin
v a</w>
st im
stim ul
sav ings</w>
privil ege</w>
patri ot</w>
part y,</w>
ooo 13:</w>
mil y
men th
max _
max_ media</w>
m in</w>
li s:</w>
lab ooo13:</w>
influ ence</w>
dis loyal</w>
develop ments</w>
ac ity</w>
Poll :</w>
M ED
Conne ctic
C A</w>
Blu menth
@news max_media</w>
@bell labooo13:</w>
@Miss USA</w>
@L in
@An dy
@ Governor
8 1:</w>
#VP Debate</w>
sand ers</w>
pro ving</w>
pas sage</w>
hi a
hia 60
crow ds,</w>
ci pl
anal y
am :</w>
WH Y</w>
Tra vel</w>
O hi
Manu facturing</w>
MA KING</w>
Fi orina</w>
En jo
C abinet</w>
An der
AGA IN
@fackinpe ter:</w>
@ba hia60
@ ph
@ di
# St
v is</w>
t ries</w>
t ol
refer red</w>
ple ased</w>
plac es,</w>
norm al</w>
individ ual</w>
implo ding</w>
famil y,</w>
f bi</w>
destru ctive</w>
com for
chest er</w>
c rum
be gged</w>
app la
an th
ack On
ackOn Track
W WE</w>
U p
Ti ff
Tali ban</w>
PP OR
I :</w>
C C</w>
B O</w>
@T Mobile</w>
@Ma ster
@Dor al
@D on
@B ackOnTrack
@ ton
2 12</w>
suppor ters,</w>
sp in
pay ments</w>
mag az
m un
inv ite</w>
intel lect
insi ght</w>
i e</w>
hom e,</w>
f at</w>
dump ing</w>
compet itor</w>
bri dge</w>
apologi zing</w>
_ j
W OW</w>
S outhern</w>
Pe losi</w>
M ore
Indi a</w>
Ener gy</w>
Char les</w>
B ill,</w>
$ 200
war m
ve re
su gar</w>
streng then</w>
st on,</w>
st an
represent ative</w>
l enn
int l</w>
clow ns</w>
attemp t</w>
W ind
Se th</w>
M ,</w>
Lor d</w>
H OF</w>
AS TER</w>
@arianna huff</w>
@TI ME</w>
@B ri
suff er</w>
str ange</w>
sh ut
recor d
presid ent
p ic</w>
op hi
mu sic</w>
m t
kid ding</w>
inve sting</w>
induc ted</w>
gi e</w>
enem y,</w>
cy cle</w>
cau sing</w>
be tra
a warded</w>
US MC</w>
M et</w>
K ur
AB C,</w>
@m att
@T al
@NR O</w>
@K at
@A C
6 7
3 8</w>
ye ah,</w>
spe ak
ser ved</w>
se es</w>
repre s
re l</w>
mes sa
li stic</w>
enthusi a
enthusia stic</w>
deman d,</w>
convin ced</w>
const itu
cho sen</w>
be l</w>
US A
R is
Hel p</w>
H at
ES T
C inc
@SenT edCruz</w>
@Ro ck
@Rick Santorum</w>
@In The
ve y
threat ening</w>
re ll
pic tures</w>
oo o</w>
m usli
im balance</w>
enjo ying</w>
da xelro
con gre
childre n,</w>
ar do
ar :</w>
adverti sing</w>
Y E
US E</w>
Dann y</w>
Commanderin Chief</w>
Bush s</w>
A S</w>
@davi daxelro
@FoxNews In
@DM Register</w>
@ its
@ el
9 2:</w>
200 4</w>
#Super Tuesday</w>
u mb
sk i
pro ved</w>
pi peline</w>
o tic</w>
n one</w>
min d
f lexi
expla ined</w>
every one,</w>
do es,</w>
continu ing</w>
con front</w>
comment ary</w>
co incid
ca re,</w>
boo m</w>
bo ys</w>
begin ning,</w>
Wh atever</w>
Tow ers</w>
TH ER</w>
R ap
Pa thetic</w>
Mu se
L ad
Gar den</w>
G en</w>
E mmys</w>
D E</w>
@Golf Di
4 6
20 th</w>
#Trump V
yu an</w>
x ter
week s,</w>
sub po
su preme</w>
shar p</w>
recor d,</w>
per vert</w>
our selves</w>
j r:</w>
horri ble,</w>
exclu sive</w>
emplo yed</w>
d yn
STO P</w>
High est</w>
G U
Bud get</w>
B roo
@today show</w>
@Ma x
6 6:</w>
4 2:</w>
12 /
0 1</w>
yester days</w>
ve tting</w>
stand ,</w>
sc ra
ma ss</w>
m id
lyn n</w>
it e,</w>
he avy</w>
fra u
enc y,</w>
en shire</w>
c es,</w>
bu ster</w>
announ ces</w>
P lan
F lynn</w>
ED S</w>
Cru z,</w>
Cri me</w>
Clu b,</w>
AR Y</w>
@d ennis
v ander
un fit</w>
top ics</w>
thin k,</w>
stri ke</w>
servic es</w>
princi p
on z
me d
m p</w>
m art
it ys</w>
ic on</w>
i el
hard working</w>
ford able</w>
ent ry</w>
disa v
co ver
bomb ing</w>
all y
adm itting</w>
adillac C
O T</w>
J :</w>
Bald win
@Jon ah
@C adillacC
@ ca
@ To
@ Isra
terri ble,</w>
sen ators</w>
re k
lan gu
i res</w>
gi e
g a</w>
can cer</w>
act ors</w>
T ro
Sta ff</w>
K im</w>
Il legal</w>
Gu ard</w>
A _
@theview tv</w>
@fund anything</w>
@SarahPalin USA</w>
@60 Minutes</w>
unle ash</w>
tra gic</w>
te am
renov ations</w>
part nership</w>
oun ding</w>
o li
manipul ation</w>
le d
interest s,</w>
inc enti
in tim
ic es,</w>
i ghts</w>
gu est
ex change</w>
determin ed</w>
care ful,</w>
campaig ned</w>
back ground</w>
b o</w>
archit ec
agree ments</w>
Pl an</w>
Pi peline</w>
Per f
PRESID EN
M ania</w>
Gal a</w>
B ank</w>
Act ually</w>
AS AP</w>
@Trump Waikiki</w>
@Doral Resort</w>
@ 2
4 9</w>
# Never
# DonaldTrump</w>
vic iously</w>
ti ed</w>
requ ire</w>
represent ed</w>
oth er,</w>
off ,</w>
kic king</w>
ill :</w>
fa thers</w>
en a
comple ted</w>
beauti fully</w>
b at
ar izon
applic ations</w>
ag an</w>
ad :</w>
T ry</w>
Shar p
Re pe
Jord an</w>
IT S</w>
Ex clu
Co ach</w>
C ater
AL S</w>
A il
@R ich
8 5
5 0:</w>
3 2:</w>
ton ight
t es</w>
survi ve</w>
re place
pla ys</w>
par ti
n er,</w>
k ille
job less</w>
ilit y,</w>
il u</w>
go of
ci al
bur den</w>
beha vior</w>
be ach</w>
ab ri
a )</w>
T reas
M om
G ood
A la
@M ary
@H ou
200 8</w>
y B
veter an</w>
ti sm</w>
s ends</w>
regim es</w>
progr ams</w>
out lets</w>
nomin ated</w>
nice ly</w>
li ghts</w>
host ile</w>
he ed</w>
f an
every thing,</w>
e ver
de mon
buil ds</w>
believ ed</w>
b id</w>
are n</w>
Se e,</w>
SMA RT</w>
Re ading</w>
Patri ots</w>
Geor ge
Excell ent</w>
Clint on
@M i
v it
pur sue</w>
p ennsylv
it ute</w>
inv itation</w>
inspir ational</w>
in i</w>
happen ing,</w>
gol den</w>
geni uses</w>
ener gi
di stor
dest in
de mo
d n</w>
ci es</w>
bu bble</w>
b right</w>
aff ected</w>
_ C
Y :</w>
Intellig ence</w>
Com p
Busin ess
Bi ble</w>
@Vince McMahon</w>
we et
v a
v :</w>
under stood</w>
unbeliev ably</w>
ti re</w>
surren der</w>
sta ys</w>
s al</w>
ro se</w>
quarter back</w>
pic ks</w>
ph ra
ou tra
ma de,</w>
fraud ul
er de
er _
eff ec
e at</w>
deple ted</w>
democr acy</w>
d ot
cra z
candid ate,</w>
be red</w>
ac her</w>
TV :</w>
St anding</w>
M A</w>
Huckabe e</w>
Dum my</w>
D el
Compan ies</w>
Alab ama,</w>
AL L
A cademy</w>
@mor ning
8 8
3 ,</w>
yn n
we red</w>
w w
ve ill
usu al,</w>
ti ons,</w>
pe anu
peanu ts</w>
ow n
ma d</w>
lo ans</w>
lif el
k ind
histor y,</w>
friend ship</w>
fo od
fic tion</w>
cra sh</w>
cou n
clu b
c ross</w>
atri um</w>
at tr
anch or</w>
_ chris</w>
Y ankees</w>
Steph en</w>
Rubi o,</w>
N av
Lau er</w>
LE GA
F ast</w>
CO M
@Spe aker
@A nt
@ ra
ul ed</w>
ro oting</w>
pati ent</w>
mb le</w>
mar co</w>
j er
glob al
experi ence,</w>
e e</w>
dr am
cu te</w>
conditi on
complic ated</w>
ac res</w>
Un like</w>
RE N
Maj L
J ami
D ar
A gree</w>
@Senate MajL
@M y
@Lil Jon</w>
@ ta
7 2</w>
,0 00,</w>
teleprom p
reput ation</w>
repres ents</w>
re me
per sist
ly /
ke l</w>
j an
ir ,</w>
intellig ent</w>
g ross</w>
ed itorial</w>
dum m
dre am
compet ence</w>
be low</w>
as pect</w>
Trump /
T rum
SP IR
Ru le</w>
Pet rae
List en</w>
Liber ty
Li fe
Confid ence</w>
Chicago s</w>
A U
tru n
restle Mania</w>
prepar ing</w>
opp ed</w>
langu age</w>
ic ks</w>
hon oring</w>
finan cials</w>
fic ation</w>
ell :</w>
d ining</w>
con dem
ch inese</w>
cei ved</w>
ball _chris</w>
T AL
Olymp ic</w>
O ther</w>
L ombardi</w>
Gil bert</w>
G ul
Franc isco</w>
AN N</w>
@ny post</w>
@hard ball_chris</w>
@barack obamas</w>
@This Week
@O ANN</w>
@CNN ,</w>
# K
y osa
war ,</w>
tw o
star ted,</w>
sen se,</w>
re la
r omney</w>
pa st
k en
en ger</w>
en de
bett er
bec au
amen ities</w>
UN IT
Sa w</w>
R ick
M e</w>
F IN
Ea ster</w>
E ver</w>
C ross</w>
Bl ack
Barbar a</w>
As sad</w>
Am endment,</w>
@Mac ys,</w>
@K ev
@G Stephanopou
@ big
33 %</w>
wil d
vander pla
vanderpla ats</w>
vac u
subjec ts</w>
scand als</w>
pra h</w>
ket ball</w>
intellect ual</w>
in appropriate</w>
hu man
gain ed</w>
fo cu
fl ying</w>
entit led</w>
don ate</w>
ch i
brut al</w>
bad ly,</w>
T ON
Ro ss</w>
R IGHT</w>
NE EDS</w>
Mar y
M ary</w>
I F</w>
F ire</w>
Dor als</w>
@bob vanderplaats</w>
@Steve King
@J am
@FoxNews Sunday</w>
@C ha
@ tim
4 4:</w>
z a</w>
s ers</w>
re r</w>
prou dly</w>
positi ons</w>
necess arily</w>
mar kets</w>
extra ordin
ex posed</w>
educ ated</w>
discred ited</w>
dis cipl
deser ved</w>
defe ating</w>
clu eless</w>
back bone</w>
ati s
ath y
T our
Q U
Presid ency</w>
NR O</w>
Mart in</w>
MA N
Liber al</w>
K ell
K NOW</w>
In surance</w>
Har v
CH R
Brit ish</w>
Bre t</w>
@c al
@J e
tex as</w>
stu b
sp y</w>
soldi er</w>
ow n,</w>
o vation</w>
news papers</w>
milit arily</w>
mar osa</w>
it z</w>
inno vation</w>
ind sey
im pe
i o</w>
http:// bit</w>
har dest</w>
cont act</w>
comp ar
bi e</w>
believ ing</w>
b ow</w>
U ta
Tur nber
Supp ort</w>
S pa
Re v</w>
Ma ine</w>
Da y,</w>
D an
C elebr
@ste ve
@ro d
@M at
( as</w>
$ 21</w>
#TRUMP 2016</w>
thank s,</w>
stati st
sen s
reitbart news</w>
re solution</w>
prote sts</w>
popul ation</w>
manu fact
lo ck</w>
horri bly</w>
f an:</w>
ex ec
comb ination</w>
as mus
a si
We ak</w>
Ve ter
Tex as,</w>
TR I
Petrae us</w>
H ello</w>
F AST</w>
@nbcsn l</w>
@d anny
@b reitbartnews</w>
@Tiger Woods</w>
@B orn
6 th</w>
#Trump 16</w>
wom en,</w>
tomorro ws</w>
to o,</w>
to :</w>
thr u</w>
thin k
swee pst
sweepst weet</w>
sp an</w>
ru ining</w>
re forms</w>
r am
pot us</w>
new s:</w>
im um</w>
deal t</w>
critic s</w>
bir ds</w>
apart ment</w>
Pensacol a,</w>
LI KE</w>
Ju de</w>
H ISTOR
G un
E ric
E LE
C adillac</w>
Bru ssel
@ry an
@E mmanuel
@C om
6 6</w>
$5 00</w>
# sweepstweet</w>
who m</w>
ven ue,</w>
ta :</w>
spea ker</w>
reach ing</w>
produc tive</w>
k id</w>
invest or</w>
ic :</w>
e minent</w>
celebr ities</w>
car ry</w>
bo om
ba seball</w>
ar ms</w>
W in</w>
TRU TH</w>
T weet</w>
Spe aking</w>
Sher iff
RE PE
Q at
A gre
@S R
@M c
@L u
@ ant
@ 4
30 ,000</w>
3 4:</w>
un predictable</w>
u k</w>
transpa rency</w>
than king</w>
shut down</w>
r ough
ner v
l d
kille d,</w>
goof y</w>
f :</w>
disp la
del a</w>
dat a</w>
boy le
be st,</w>
av oid</w>
YOU ,</w>
W ow
W omen
Virgin ia,</w>
Show s</w>
R :</w>
G ru
For ces</w>
Fin an
Da ily</w>
Ben jamin</w>
@dennis ro
@N at
@ ni
25 %</w>
# M
wi se
wh enever</w>
tra v
ta s</w>
sha red</w>
secre ts</w>
san ctuary</w>
s ophi
sophi stic
re election</w>
net t</w>
neg ate</w>
ne l</w>
lo t
j ap
inter net</w>
in spe
imple ment
host ages</w>
f ha
emp ty</w>
cre ation</w>
c el
Sustere n</w>
Sen ate,</w>
Pre tty</w>
Michel le</w>
M il
I tal
Gre en</w>
E mer
CE Os</w>
C ARE</w>
A lex
@stephen fha
@hillary sus
@eric trump</w>
8 th,</w>
7 3:</w>
5 ,</w>
#Miss Universe</w>
victor ious</w>
under stand,</w>
tra ining</w>
re w
pri se</w>
pas sion,</w>
oth ers)</w>
kno ck
im ates</w>
gent le
flo or</w>
ep ic</w>
el son</w>
convin ce</w>
cho ked</w>
b log</w>
as sho
angel ical</w>
a way,</w>
R AD
Q aeda</w>
Pro c
M us
Cap it
Buil d</w>
@Mike _
x _
vel t</w>
uni que</w>
tele vision,</w>
suff ered</w>
sk i:</w>
se velt</w>
pic king</w>
out sider</w>
more )</w>
lin ed</w>
ici ent</w>
difficul ties</w>
da vis
cir culation</w>
ci c</w>
ca v
bud gets</w>
V ice</w>
Tr ace</w>
S imp
Re cor
O K,</w>
K aren</w>
Gener als</w>
Cas sidy</w>
Air port</w>
AS H
@morning mi
y O
warri ors</w>
te ach</w>
sc ale</w>
proper ties</w>
mistake ,</w>
m ir</w>
lea ked</w>
ladi mir</w>
ke t,</w>
ist ic</w>
in correct</w>
dis respecting</w>
be ef</w>
b y:</w>
b s,</w>
ack y</w>
Spe ech</w>
Ser iously</w>
R ou
O ff</w>
Mar ilu</w>
@T ur
@Ch uck
@B ra
8 2:</w>
6 8</w>
35 %</w>
201 0</w>
2 7:</w>
18 %</w>
0 5
xim ately</w>
wom ens</w>
wh ile,</w>
ven ess</w>
up d
sw amp</w>
st uck</w>
s mo
re memb
predic t</w>
plat form</w>
p ed</w>
ord an
mis sil
mess enger</w>
li est</w>
ino is</w>
hat ers,</w>
g allon</w>
differe ntly</w>
compan ies,</w>
che ating</w>
assu me</w>
anti Trump</w>
Ye men</w>
MED IA</w>
M ul
J r:</w>
Depart ing</w>
@davidaxelro d</w>
@ rick
y y
un fairly</w>
un d</w>
pled ged</w>
ma in
lo ,</w>
le ment</w>
in C
heart beat</w>
finan ces</w>
exist ing</w>
ele ment</w>
di a
con vic
cap ability</w>
are nt
Proc lam
Ph iladelphi
PEC 2017</w>
Muse um</w>
Leg ere</w>
H us
H AR
Ear th</w>
Commis sioner</w>
C i
C all
C al
@the real
@net anyahu</w>
@US Navy</w>
@Sha wn
@John Legere</w>
@ Liberty
#A PEC2017</w>
up it
succ ess,</w>
one :</w>
n fl</w>
mon t
import antly</w>
house holds</w>
hou sing</w>
graham Ang
grahamAng le</w>
fron trun
er t</w>
di stric
deleg ation</w>
b ing</w>
auth ority</w>
anke e
all star</w>
ad dic
a i
_ D
Some one</w>
S le
Res ear
R adi
POL L
P ope</w>
High ly</w>
Gul f</w>
@john ny
@Lou D
@In grahamAngle</w>
@B rad
@ gr
wor n</w>
who ever</w>
w re
tru e
th en,</w>
st ops</w>
ris m</w>
re sto
primar ies</w>
pal m</w>
ous y</w>
ob lig
itt sbur
ing ton,</w>
hampion ships</w>
fundrais ers</w>
er to
er ic</w>
dyn amic</w>
document ary</w>
deman ds</w>
deal maker</w>
de s
chec king</w>
c l
b illion,</w>
air port
Tennes see,</w>
Su gar
Stein le</w>
Schneid er
P ak
La den</w>
Inve stig
Finan cial</w>
DE AL</w>
@morningmi ka</w>
war m</w>
virgin ia</w>
us ually</w>
u mp
t it
t ch
simp le,</w>
sil ence</w>
sha ke</w>
sa il
sail ors</w>
ro y
re jec
pro of</w>
or dered</w>
ne ither</w>
indi ana</w>
im prove</w>
holi days</w>
fav ors</w>
en coura
dis ru
comb ined</w>
char ges</w>
beli ever</w>
b on</w>
al ph
W W
Van ity</w>
S NL</w>
R id
Q Republicans</w>
K rist
Election s:</w>
D w
Cri ppled</w>
Ann oun
An ni
@trump doral</w>
@Wa yne
@SR QRepublicans</w>
@R yan
@InThe Elections:</w>
@ GOP
wind mills</w>
watch ,</w>
tues day</w>
to day
ri vers</w>
r ying</w>
r o</w>
puppe t</w>
pun dit</w>
or ity,</w>
o val</w>
mor ons</w>
land mark</w>
gu ys,</w>
fire works</w>
ex tor
death s</w>
circu m
car rier</w>
c us
b ilities</w>
amp a</w>
ace :</w>
abo lish</w>
WA YS</w>
Treas ury</w>
Squ are</w>
Sher iff</w>
Re port
REAL LY</w>
PO LI
O D</w>
Mexic os</w>
Lim b
Hon or</w>
G ates</w>
B illion</w>
AL WAYS</w>
@ant ba
@Jonah NRO</w>
@For be
6 2:</w>
visi on
v ul
tur nberry</w>
te en
t ly</w>
su dd
stupid ly</w>
shoot ings</w>
s am
resc ue</w>
public ly</w>
por ted</w>
nomin ate</w>
no vember</w>
no ff</w>
mar ch</w>
ing rich</w>
in os</w>
h ome
ff ington</w>
est imates</w>
downt own</w>
Wiscon sin
Stu art</w>
Jack son
JO B</w>
H im</w>
Git mo</w>
A bed
@an thony
@Ne il
@FrankLunt z</w>
@ ric
@ fa
77 7:</w>
win ery</w>
sur veill
sett led</w>
s la
radic alized</w>
ob sole
ministr ations</w>
micha els</w>
me dd
like ly</w>
in dic
i ering</w>
hur ting</w>
gran ted</w>
feat ured</w>
expe ct
deal ings</w>
col um
ca hon
ast or</w>
ar m</w>
X :</w>
T ele
St ra
P astor</w>
Nat l</w>
N SA</w>
K ri
Ju li
@dennisro dman</w>
@IanZ iering</w>
@F ace
@ lan
:30 pm</w>
#C PAC
we iner</w>
war d,</w>
ta sk</w>
suppor t,</w>
subsi di
ri sh</w>
real ized</w>
r ink</w>
pro filing</w>
phi c</w>
op position</w>
on _
me ade</w>
la w,</w>
il meade</w>
eth ic</w>
den y</w>
d an
ath an
Women s
V ic
Sen ators,</w>
Sa ys</w>
Real ize</w>
J an</w>
Harv ard</w>
H U
G old</w>
G RO
F air
E dison</w>
Cri min
C oo
@Pat rick
@P iers
@Barack Obama
201 7,</w>
# Thank
ye ah</w>
ve tt
rel ying</w>
recor ded</w>
rac ial</w>
origin ally</w>
oc ca
ne ,</w>
long term</w>
la un
j et</w>
invol ved,</w>
hap ter</w>
group s,</w>
g ers</w>
el le
ear n</w>
dela yed</w>
bl ind</w>
al u
al lows</w>
To Be
Sa id</w>
ON G
O ME</w>
Fin ally</w>
DON T</w>
D ur
D ad</w>
C up</w>
At l
Am nesty</w>
@new tg
@m is
@ad am
@M S
@D ra
@ ne
@ New
3 00</w>
2 5:</w>
roll out</w>
ret weet</w>
reason able</w>
pu pp
pro por
onest y</w>
one st,</w>
mo ve
knowle dge,</w>
hu nt
happen ed,</w>
gre en
fi as
e ce</w>
deta il</w>
d ud
d il
cu ff
ct or
conditi ons</w>
beauti ful,</w>
ar ab
accep ted</w>
a thew
R ac
In de
Im port
II I</w>
Fore ign</w>
E VERY</w>
Ala ska</w>
AW ES
AM E</w>
@Da ve
8 4</w>
2 ,</w>
( a</w>
un ion</w>
taxpa yer</w>
sun g</w>
st ake</w>
so oner</w>
sh ell</w>
s now
re vi
r out
preced ented</w>
p ure</w>
o sc
ne tt
l acks</w>
j ump</w>
j m
it y:</w>
fi res</w>
enterta in
en do</w>
e m
disc lo
ce ase
bor row</w>
av en
State ment</w>
Saf e</w>
NATION AL</w>
La V
K o</w>
J upit
EN D</w>
Achie vement</w>
AGAIN ,</w>
@Char les
@ ti
9 7
8 8</w>
7 3</w>
7 0:</w>
4 8:</w>
yosa ki</w>
ultim ately</w>
thu gs</w>
stre ets</w>
some time</w>
sci enti
ric h,</w>
on er
mi das</w>
ma kers</w>
la unch</w>
job killing</w>
in s:</w>
hou se,</w>
h ats</w>
fu el</w>
from ,</w>
fr anch
ev ens</w>
emplo y</w>
at ing,</w>
am ond
W ood
Suc cess
Proble m</w>
Pe ter</w>
NAT ION</w>
Mar ines</w>
K ra
Bu zz</w>
B ILLION</w>
Afghan ist
@M el
5 5</w>
, ,
threat ened</w>
thank ful</w>
terr itor
sch neid
schneid erman</w>
ru ary</w>
purpo sely</w>
pa st,</w>
o g
li vi
li s
he dge</w>
grow n</w>
geor ge</w>
fre sh</w>
erg us
eb ruary</w>
chil d
c art
ann ity
adm its</w>
Wh it
V is
Spe aker</w>
So on</w>
Palestin ian</w>
Happ y
G en
F ergus
F ebruary</w>
C ul
@SenateMajL dr</w>
@ George
:/ /</w>
15 ,000</w>
#t cot</w>
unlea shed</w>
stimul us</w>
sp a</w>
s atis
ri s:</w>
produc ing</w>
po ses</w>
ment :</w>
happ ier</w>
fre shing</w>
fi ve
ext ent</w>
es cap
end less</w>
depart ment</w>
d eni
chea pest</w>
cal m</w>
c nbc</w>
bu yers</w>
bas ically</w>
at er</w>
as c
an cy</w>
al ition</w>
ad mi
Vide o</w>
VE TS</w>
St reng
Ser geant</w>
P D</w>
News max</w>
Net works</w>
H erald</w>
G ad
A li
@ton y
@GStephanopou los</w>
@Barack Obama,</w>
@ tom
6 4</w>
#N H
zz :</w>
z ones</w>
ve ts,</w>
unt ru
un it</w>
te d
sched uled</w>
row n
rel ations</w>
regul ations,</w>
re new
phot os</w>
perc enta
pe t
ot a,</w>
lo si
l er:</w>
is on</w>
inst itu
in ess</w>
illi on
heav ily</w>
fraudul ent</w>
ex am
do z
collap se</w>
cla ss,</w>
buil der</w>
bre eds</w>
bomb ed</w>
ati ,</w>
appro ximately</w>
al ty</w>
ach s</w>
ab les</w>
X L</w>
WE rick
WAT CH</w>
Tal k</w>
Ste ven</w>
Scali se</w>
Saras ota</w>
Ph one</w>
P ittsbur
P ,</w>
No bodys</w>
Nash ville,</w>
Mon t
J in
I d
Hot el,</w>
D ennis</w>
Colle ction,</w>
Christi an
@m on
@ThisWeek ABC</w>
@T ou
@LouD obbs</w>
@AC 360</w>
@ no
1 8:</w>
sour i</w>
se y:</w>
reno vation</w>
ra ig
quot es</w>
qu arter</w>
mist ak
menti ons</w>
k k
in su
extraordin ary</w>
ell er</w>
e ag
bun ch</w>
bra ins</w>
be :</w>
b id
ates man</w>
ach ed</w>
V ladimir</w>
Th en,</w>
Su b
St ars</w>
Re d
O s
Lo c
LO V
Just ices</w>
I ES</w>
Ch else
As soci
AT ION
@k at
@L indsey
@K elly
@J ason
@Born ToBe
: I</w>
( not</w>
$ $
#US Womens
worth y</w>
wed ding</w>
we aring</w>
vacc in
ur ch</w>
twee ted</w>
tr illion,</w>
stub born</w>
stu ff,</w>
st amp</w>
slo gan</w>
si s,</w>
ru ined</w>
prof its</w>
phra se</w>
pennsylv ania</w>
ol d
nerv ous</w>
mit t</w>
me )</w>
m our
id :</w>
h t</w>
h ispan
g er,</w>
fortun ately</w>
fail ed,</w>
f ate</w>
es cal
er ci
eng aged</w>
ele g
def en
compet iti
char ities</w>
c lar
att ended</w>
ar rog
ander son
af fordable</w>
Tre at</w>
Se ason</w>
Roo sevelt</w>
R on</w>
Pre mi
Po cahon
Mc Car
In frastructure</w>
Ho pefully,</w>
Fox ,</w>
Christ op
@j esse
@Paul Ryan
@P ol
5 5
( who</w>
un ite</w>
ssi er</w>
sh back
se ts</w>
sac hu
sa ud
s ma
ru noff</w>
ra rely</w>
projec ted</w>
p ig
ou s:</w>
lear ning</w>
jud g
inep t</w>
imm erman</w>
ic ity</w>
hel ps</w>
electr icity</w>
dish onesty</w>
demon str
civil ization</w>
app ointed</w>
airport s,</w>
W S
SU PPOR
S we
RE FOR
Mo on</w>
Mit ts</w>
Mas sachu
ILLION S</w>
F actor</w>
Bu y</w>
BU T</w>
AWES OME</w>
@s quawk
@NYDaily News</w>
@ lu
24 /
war ned</w>
v ing
sustain able</w>
streng th
speech ,</w>
sele ction</w>
roc ket</w>
pu erto</w>
prof it</w>
je ff
ite :</w>
is s</w>
immedi ate</w>
ide mic</w>
fun er
funer al</w>
fa ster</w>
ey e</w>
ent ering</w>
devast ating</w>
de sk</w>
da :</w>
d a</w>
con sumer</w>
co :</w>
bas ketball</w>
b lown</w>
af ric
U E</w>
U C
T ank</w>
Sh in
Prote ction</w>
P art</w>
ODonne ll</w>
N C
Mo der
Micha els</w>
Lyn ch</w>
Le e
L en
K now
J ared</w>
Gov t</w>
DO W
C old</w>
Be fore</w>
@bret michaels</w>
@TheBrody File</w>
@P au
@Golf Channel</w>
4 1%</w>
# s</w>
v ent
tre mend
tim ing</w>
ro ck
p ages</w>
or g:</w>
obam a,</w>
musli m</w>
issu ed</w>
ick :</w>
gh ,</w>
g han</w>
frau d,</w>
fe es</w>
f ,</w>
er ce</w>
dedic ation</w>
comple x</w>
chea p</w>
chan ces</w>
c ali
battle field</w>
appe aring</w>
ap er</w>
alth ough</w>
adv an
ad ding</w>
T ampa</w>
Ste ven
S PE
R US
Que en
Phon y</w>
O il</w>
J acob
Entrepreneur s</w>
C ore
Bron x</w>
B raz
A VE
@w illiam
@S her
6 8:</w>
2 9
#VoteTrump 2016</w>
us al
usal em</w>
un necessary</w>
ss ello</w>
si ve,</w>
ren c
re serves</w>
om ac</w>
massi vely</w>
m iddle
land :</w>
k es
ill a</w>
ha u
gir l:</w>
focu s,</w>
bo ss
beli ef</w>
be ll
ba sic</w>
at ic
an g</w>
americ af
americaf irst</w>
ad o
STR ONG</w>
Ran cic</w>
O C
Indi ana
IG R
Grou p</w>
Gor such</w>
D an</w>
@Mi ami
@D r
@CadillacC hamp</w>
@ gop</w>
3 pm</w>
3 9
# americafirst</w>
war z
v es
turn out</w>
travel ed</w>
t y:</w>
sum mit</w>
ste ful</w>
sh op
propos al</w>
plan es</w>
patri ots</w>
p y</w>
off ering</w>
ne ss
itiz ens
idi ot</w>
i an
ght ful</w>
gan :</w>
follow ed</w>
eli PM</w>
d are</w>
bor ough</w>
be long
ba il</w>
ar ren
ab le
WE HOF</w>
WA S</w>
Presid en
Ohi o,</w>
Net anyahu</w>
Ire land,</w>
I Q</w>
Hunt sman</w>
Gu n</w>
Cam er
Califor ni
B :</w>
AN Y</w>
@Sen ator
@Real S
@Isra eliPM</w>
@Ant oni
4 1</w>
#The Apprentice</w>
ur s</w>
t z
su peri
squ are</w>
ru s</w>
press journal</w>
pre vent</w>
par ties</w>
mul ti
meas ured</w>
is ition</w>
gif ts</w>
business es,</w>
bec k</w>
be gan</w>
am i</w>
adm ir
acqu isition</w>
Yor kers</w>
Wi en
W arri
T am
T TER</w>
ST ATE</w>
Ri ghts</w>
Q 2</w>
Man dela</w>
M iddle
L L
CB S,</w>
@ni k
@Pe te
@ pressjournal</w>
year old</w>
viol ation</w>
tru th,</w>
tal ent,</w>
struction ist</w>
sto l</w>
si ege</w>
secon ds</w>
seas ons</w>
se quest
re minded</w>
r a</w>
p ack
mon stro
m erry</w>
ll inois</w>
in capable</w>
i est</w>
ha ir
g ical</w>
for ,</w>
exp en
da vid</w>
cru cial</w>
count less</w>
celebr ation</w>
car rying</w>
c ross
and :</w>
all :</w>
W right</w>
Veg as
Tur key</w>
RO M</w>
REPE AL</w>
Pri mar
P R</w>
NY :</w>
I llinois</w>
H Q</w>
F ROM</w>
E ach</w>
E ,</w>
@real donald
@m boyle
@kyleracci o:</w>
@k en
@Stephen Baldwin
@Fox News:</w>
xter 8:</w>
ti vely</w>
sw ing</w>
reme m
remem bered</w>
rele ases</w>
reck less</w>
pu lling</w>
premi um</w>
po dium</w>
part time</w>
p ha
osc ars</w>
nber ry
ment or</w>
lif ting</w>
ic a
https ://</w>
h o</w>
fri day</w>
fe wer</w>
est ablish
co ach</w>
car son</w>
car bon</w>
bo y,</w>
bo x</w>
bi z</w>
ber :</w>
b wat
as k
ar do</w>
am ate
al es
R and
P ER
M ER
Jo se</w>
Import ant</w>
EM B
D REA
Ba xter8:</w>
B oring</w>
Al one</w>
@jesse bwat
@jake ta
@S al
@Master Baxter8:</w>
@Lindsey Graham
@Liberty U</w>
@G i
, 5
state ment,</w>
patri otic</w>
over time</w>
ne y
l uc
k o</w>
just ices</w>
inn ati,</w>
in iti
i vank
hear ts</w>
fl un
dro pping</w>
coincid ence</w>
char ged</w>
bo dy
back wards</w>
ati ves,</w>
an o</w>
americ as</w>
ac t,</w>
W OW
Ver des</w>
Sch ul
Pal os</w>
P S</w>
Our Marine</w>
MA TE</w>
M yr
King dom</w>
HA S</w>
G as</w>
Fol low</w>
Ed itorial</w>
Count ry,</w>
Clu b
B Y</w>
AM A</w>
@L and
11 th</w>
,0 00
, 500</w>
$ 7</w>
week ly</w>
vid ual</w>
tow ns</w>
sur ge</w>
servic e,</w>
recomm end</w>
re d,</w>
ph il
pa r</w>
ol d,</w>
not iced</w>
intervie w
i ght,</w>
horri fic</w>
form ation</w>
do g
di sm
de si
custom ers</w>
car n
cap acity</w>
ati e
ans wered</w>
a ve
Y ear
U s</w>
T OR
Pla yer</w>
Mon mouth</w>
Indi vidual</w>
F ar</w>
C TION</w>
Ale x</w>
AC K
@W e
@Trump_ Charlotte</w>
@ pa
@ ann
9 2</w>
war fare</w>
tra ff
stri pped</w>
saud i</w>
ru sh</w>
refer ring</w>
re search</w>
re gu
pp er
out :</w>
ob struction</w>
indust rial</w>
er o
down gr
disa sters</w>
d l
controver si
con stru
blo od</w>
bi go
bal listic</w>
ater al</w>
arre sted</w>
ang ed</w>
_R _
SH OW</w>
RES PEC
P ur
G ame</w>
Fail ed</w>
Elect oral</w>
DIS ASTER</w>
D es
Cali endo</w>
AT ES</w>
@w olf
@m ari
@PaulRyan VP</w>
@Frank Caliendo</w>
@For bes</w>
@Br and
3 3</w>
# Happy
# Hannity</w>
warm ing,</w>
vot es,</w>
tre as
te achers</w>
sk y</w>
ri de</w>
ri age</w>
replace ment</w>
read y,</w>
nu ts</w>
mur ders</w>
losi /
list ,</w>
l ately</w>
happen s,</w>
fir st,</w>
ex emp
el s
du mber</w>
deci sive</w>
d in
cru de</w>
claim ed</w>
can ,</w>
c ow
belie ve,</w>
b loo
av or</w>
ag ents</w>
V A,</w>
The re
Romne y,</w>
Pu erto
Pennsylv ania,</w>
POLI TIC
POL L</w>
L ong</w>
Gol dman</w>
Fir st,</w>
E mb
Ch an
C lear
@b en
@J ere
@Bob by
3 7
# Puerto
t ops</w>
t an
spe ctive</w>
see ks</w>
pret ending</w>
nu kes</w>
mur dered</w>
ic ago
hon or,</w>
fair s</w>
end ing,</w>
domin ant</w>
de m</w>
b in</w>
ak :</w>
ad a
accep table</w>
U ran
Sle ep
Ro y
R en
O M
N ab
Just ice,</w>
G ri
De al,</w>
D ow</w>
Can not</w>
@f its
@P atriots</w>
@Mike_ Pence</w>
@J ordan
@E WErick
@ in
@ ag
6 5:</w>
#W I
your self
wi g</w>
visi ons</w>
tre n
th o
su ic
sp ort
sho res</w>
scre wed</w>
re elected</w>
r on
p ac
mistak es,</w>
mi ke
m are</w>
jo int</w>
in ver
hi ding</w>
fun ,</w>
excep tional</w>
en tered</w>
deep ly</w>
cra ft</w>
co st
ati vely</w>
Zer o</w>
WIN N
TON IGHT</w>
St art
Scot lands</w>
Res pect</w>
Lo ser</w>
Je bs</w>
IN C
F ight</w>
Euro pe
Eric ,</w>
D ak
Cri me
@Gov Christie</w>
@A berde
@ th
8 7</w>
1 ,</w>
$1 M</w>
y m
y )</w>
wind farms</w>
washing ton,</w>
uc ker</w>
soli dar
solidar ity</w>
reli able</w>
po l</w>
p ical</w>
moment um,</w>
l ousy</w>
it i</w>
intim id
in her
gi on</w>
gi ble</w>
fun ds</w>
fac ility</w>
est ab
estab lish</w>
er r
emb assy</w>
develop ing</w>
cuff links</w>
confid ent</w>
c _
associ ated</w>
and /
and/ or</w>
T ough,</w>
Su n</w>
Sp a</w>
Politic s:</w>
P RI
N icklaus</w>
Mob ile,</w>
IR S</w>
IC AL</w>
Hillary Clinton</w>
FI RED</w>
Dw ight</w>
Boo k</w>
@k arl
@g ene
@SteveKing IA</w>
@Real Ben
@K yle
@D o
2 9</w>
un precedented</w>
tre ating</w>
ti p</w>
t ons</w>
ro aring</w>
re move</w>
p sy
p ick
ou l</w>
le e
la id</w>
il y,</w>
ha ha</w>
fund raising</w>
en courage</w>
e mer
daugh ter,</w>
contro l,</w>
compet itive</w>
c cer</w>
becau se,</w>
b ren
autom ob
ar ry
abo ard</w>
Tic kets</w>
TI C</w>
Ro ck
Pensacol a</w>
P ic
Limb augh</w>
Le e</w>
Kri stol</w>
Int el</w>
In spe
Econom ic</w>
Dor al,</w>
Do ssier</w>
Di sa
Car los</w>
Bat on</w>
A Ro
@T ru
@DanScavin o:</w>
@B est
@ NewYork
( with</w>
# vote
weap ons,</w>
ve mb
subpo ena</w>
set ts</w>
safet y:</w>
off ered</w>
mon :</w>
m on</w>
la y
la :</w>
it z:</w>
infl ation</w>
ill s,</w>
i j
food safety:</w>
eas y,</w>
de plor
comb at</w>
ca sh,</w>
WOR K</w>
Viet nam
Si x</w>
OF F
NE W
M et
Gre ece</w>
For get</w>
Ex po</w>
Donald Trump:</w>
BL ESS</w>
Am bassador</w>
@squawk cnbc</w>
@dc foodsafety:</w>
@Trump Collection</w>
@K ate
@J ake
@FoxNewsIn sider</w>
7 /
3 0%</w>
$5 8</w>
# time
# 2
zu ker</w>
wat cha
un watcha
um a</w>
ul l
termin ated</w>
stand point</w>
sh oul
sh Times</w>
r ou
possi bilities</w>
pil lar</w>
ol a</w>
mar ine</w>
maj ority,</w>
mag net</w>
ly n</w>
loc ated</w>
life :</w>
land ing</w>
insi ghtful</w>
gn ity</w>
gener ations</w>
di gnity</w>
deli vers</w>
d ad
corru p
con venti
co s</w>
che at</w>
at or,</w>
Wor st</w>
WE AK</w>
W ont</w>
W inner</w>
SE CU
Re :</w>
O care</w>
Jer usalem</w>
De ar</w>
Charlottes ville</w>
C lar
Bry ant</w>
B B
A K
@i am
@_ S
@Jack sh
@ au
7 4:</w>
6 5</w>
10 pmE</w>
wel coming</w>
w inter</w>
victi m</w>
uc ci
te ars</w>
sophistic ated</w>
re new</w>
re cover</w>
part ners</w>
n y,</w>
mo m</w>
man n:</w>
le ss,</w>
knock out</w>
itizens _
ist er
incenti ve</w>
ign ore</w>
ick erson</w>
ha b
g _
fig ured</w>
f an,</w>
exist ence</w>
dom est
da ily
comp as
cell or</w>
c ry</w>
assho le</w>
art ers</w>
Week ly</w>
Scar borough</w>
Pe ace</w>
Par is,</w>
P E</w>
N AS
L ab
J ona
Hu ffington</w>
Cub a</w>
Chelse a</w>
Car ly</w>
Brussel s</w>
Boo m</w>
@R and
: DonaldTrump</w>
v als</w>
ut ch
un popular</w>
tur al</w>
the swamp</w>
ta ste</w>
sk in</w>
si e
s ong,</w>
s ne
repe ate
repeate dly</w>
rat ings,</w>
provi ded</w>
pra ise</w>
perf ec
part ner</w>
mor nings</w>
medd ling</w>
ma gic</w>
kno cked</w>
in sid
i ous,</w>
hand ed</w>
guil fo
gra b</w>
govern ment,</w>
gen u
dru g
drain theswamp</w>
der s,</w>
de cent</w>
cle an
ch er</w>
c ro
bu sh
athle tes</w>
ate gor
app oint
al le
Success ful</w>
Ser ious</w>
Re gul
R ow
OB AMA
Louisi ana,</w>
Ital y</w>
In d
Fal well</w>
E Z
Con tro
B LE</w>
@jaketa pper</w>
@A dam
6 9</w>
3 ,000</w>
#W WEHOF</w>
# draintheswamp</w>
war ren
w on,</w>
travel ing</w>
ter y</w>
sur r
superi or</w>
subsi dies</w>
sion s,</w>
shi re
sh ouldve</w>
s ic
re moved</w>
re form,</w>
re built</w>
pre ssive</w>
ne l
n n
mis sions</w>
mi ami</w>
long ,</w>
lobby ists,</w>
lo vely</w>
le d,</w>
law s,</w>
i LY
g al
fal sely</w>
er ve</w>
don ation</w>
def und</w>
d ly,</w>
crum bling</w>
coura geous</w>
contro ls</w>
citizen ship</w>
c a</w>
build ing,</w>
W ent</w>
RA U
Puppe t</w>
N elson</w>
M C
John son
Im migr
FAM iLY
F RAU
BUS H</w>
B ack
AA A</w>
@the FAMiLY
@k ilmeade</w>
@TheReal Marilu</w>
@H e
0 7
tol er
t ank</w>
success fully</w>
st ars</w>
roll ing</w>
re agan</w>
pa ,</w>
ll ,</w>
l uck
insul t</w>
in as</w>
ho pe
h ill
for gi
foo lish
fin itely</w>
ed ge</w>
depend ent</w>
deman ding</w>
con clu
ce il
c hapter</w>
bu ys</w>
bo bby</w>
ble ss
as ser
a T
X ,</w>
Tim es,</w>
Th ird</w>
S S</w>
RO C
R olling</w>
P lease,</w>
FL OR
Ele ct</w>
DO M</w>
D ri
Cru z
Comp any</w>
Boy cott</w>
Ba seball</w>
B y
@pe ter
@l il
@Y ankee
@LindseyGraham SC</w>
@L ara
@Emmanuel Macron</w>
@ 00
#WI Primary</w>
threat en</w>
stic ,</w>
satis fied</w>
recent ly,</w>
pu lled</w>
g es
er ial</w>
death ,</w>
cent ury</w>
bre ath</w>
bl ack
bil ateral</w>
asc in
Ta king</w>
T own</w>
Ne eds</w>
For t</w>
Dis gr
Co hen
CO MM
A Y</w>
@ma athew
@jessebwat ters</w>
@M L
@Car ol
@ x
2 6</w>
$ 8
ze bag</w>
ur a
tt ough</w>
trav ell
pro gre
pri son,</w>
pover ty,</w>
ow ell</w>
losi/ Schumer</w>
la ke
imagin ation</w>
ili buster</w>
hand some</w>
expla ining</w>
ev angelical</w>
ear ned</w>
dumm ies</w>
dela ying</w>
defin ition</w>
dec imated</w>
d in</w>
consist ent</w>
b ing,</w>
au gh
ar my</w>
am e
act or:</w>
ab road</w>
W GC</w>
Tiff any</w>
Sum mer</w>
Roc ket</w>
Rememb rance</w>
Pla yers</w>
Pen g</w>
Pe losi/Schumer</w>
Osc ar</w>
Olymp ics</w>
Ob structionist</w>
O marosa</w>
Myr tle</w>
Mad ame</w>
M s</w>
Jo bs,</w>
Fu rious</w>
F ilibuster</w>
Con tin
Com ing</w>
Chi ef
Cha mber</w>
C li
Bernard ino</w>
B AN</w>
Americ an,</w>
AN CE</w>
A ren
A PP
@Mat thew
@F re
@ stu
2 )</w>
$ 10
x on
tur mo
tra ve
ss a</w>
sn ake</w>
s ick
pub lish
pow er,</w>
percenta ge</w>
man ner</w>
m s
light ly</w>
k ay
intervie w,</w>
gh ted</w>
ed )</w>
consul t
compar ison</w>
bu st</w>
bu s,</w>
bo ehner</w>
bi as</w>
b roo
auti sm
al ab
acti vi
Uran ium</w>
Trump F
Smi th
Re x</w>
Radi o</w>
RAD ICAL</w>
Pot omac</w>
L AM
Ki yosaki</w>
John ny</w>
J UST</w>
IG G
F eds</w>
D ER
Af ghan</w>
@US C
@Tur nberry
@Me dia
@Eric TrumpF
: Donald</w>
35 ,000</w>
10 pm</w>
#S NL</w>
x ter</w>
vo ices</w>
uli an
si x
seas on,</w>
reitb art</w>
re y
re stor
pers onal
ow s</w>
o pe
min imum</w>
man n</w>
l un
jo ke,</w>
int act</w>
ha ve
gre w</w>
grat itude</w>
gent ina</w>
g el
fr action</w>
for cing</w>
fe st</w>
fashi on</w>
f uc
extr a</w>
cre ates</w>
constitu tional</w>
bull shit</w>
and ra
am bassador</w>
alph re
air plane</w>
air craft</w>
aci fic
Sharp ton</w>
Scot t
OT E
N ancy</w>
Mill ers</w>
Lead ers</w>
Le gion</w>
IGR ATION</w>
Fergus on</w>
Ele ctions</w>
E ve</w>
Con gratul
Ar med</w>
Ad vice</w>
@r alphre
@nik ki
@V in
@TrumpGolf DC</w>
@RealBen Carson</w>
@ he
@ ed
@ Thom
57 th</w>
5 9</w>
2 /
11/ 8/
10 PM</w>
#TrumpV log</w>
vul ner
vo c
v ens</w>
spin ning</w>
re freshing</w>
pres ents</w>
p aul</w>
om er
me t
ly in</w>
inv ited</w>
h n,</w>
g ath
econom ically</w>
br ac
as ha
an e:</w>
amp ant</w>
TRUMP ,</w>
Ste vens</w>
S ports</w>
S ON</w>
Phoeni x,</w>
N V</w>
Mis souri</w>
L uc
K ar
Ica hn,</w>
Ev angelicals</w>
E l</w>
E duc
Cl int</w>
Be yond</w>
A ss
@m sn
@m ac
@l ou
@N C
@EWErick son</w>
@ eli
8 4:</w>
# 2</w>
yr on
wr ong
wh el
ty pe</w>
trump jr</w>
ta g
stru ct
sp ending,</w>
s worn</w>
s its</w>
reve aled</w>
re verse</w>
r t</w>
presid ency,</w>
per spective</w>
parent s,</w>
mode ls</w>
missil es</w>
meas ure</w>
m s,</w>
leag ue
le s:</w>
j trumpjr</w>
it a</w>
is lam</w>
inst in
fu rious</w>
famil ies,</w>
factor y</w>
donald jtrumpjr</w>
dec line</w>
deb ates,</w>
cru shed</w>
corre ct,</w>
con qu
co oper</w>
brea ks</w>
bless ings</w>
aw es
atten fall
anderson cooper</w>
V in
Re marks</w>
Mont ana</w>
Lau gh
L ev
K ather
Jin ping</w>
II :</w>
H ON
FA IR</w>
D re
Cinc innati,</w>
Austr ali
Al though</w>
Ac cord</w>
@ronmeier 123:</w>
@kim guilfo
@Trump_ Ireland</w>
@Michael Cohen
@Lara Lea
@Kev in
@Gre g
@F EMA</w>
@ vi
@ donaldjtrumpjr</w>
@ char
@ andersoncooper</w>
:00 pm</w>
4 2%</w>
201 3:</w>
11 :00</w>
#time toge
# big
# Harvey</w>
# Chicago</w>
you :</w>
ti v
ti r
so ccer</w>
sm ile</w>
si ght</w>
sh ine</w>
reduc tion</w>
re p
r ina
prosp er</w>
po is
per sever
pan el</w>
on ce,</w>
l ad
ivank a</w>
gra ve</w>
gener ous</w>
fair ness,</w>
disa ppe
con fu
communic ation</w>
c eleb</w>
busines smen</w>
b are
asp iring</w>
_ k
Z immerman</w>
Sh ul
Re ad
P hot
NY ,</w>
L G
H :</w>
Dru dge</w>
Can did
C eleb</w>
AR T</w>
@d r
@T yler
@Ro bert
( just</w>
$ 100
zz zz
zu el
wat er
vacu um</w>
tournam ent</w>
sug ge
ss y
separ ate</w>
ru ling</w>
respe ct,</w>
reach ed</w>
r he
rhe tor
out standing</w>
oll man</w>
me yers</w>
ma c</w>
lo t,</w>
lo op
leg ally,</w>
just ify</w>
ist ,</w>
inf ected</w>
in form</w>
im press</w>
f ence</w>
exper t</w>
escal ator</w>
ene zuel
de cla
de ce
champ ions</w>
carn age</w>
cap abilities</w>
c ity,</w>
bureauc r
bu tt
any time</w>
V enezuel
Sleep y</w>
Sim on</w>
Shin zo</w>
Sc ary</w>
SU CC
Ry an,</w>
R ay</w>
Politic al</w>
NY PD</w>
N ast
N FL
Maj ority</w>
MS NBC</w>
MO ST</w>
K ati
I Z
For mer</w>
Congress woman</w>
Blumenth al</w>
Ash ley</w>
@j ust
@b illy
@Trump Dorals</w>
@P ri
@For Q2</w>
@D Nor
@D J
@A sh
@ u
9 5:</w>
4 4</w>
12 %</w>
( by</w>
$1 8</w>
wh y,</w>
te en</w>
tari ffs</w>
stre aming</w>
str ongest</w>
so f
sm al
sh ot
separ ates</w>
saf er</w>
ro ws</w>
ric o</w>
ri se,</w>
re ject</w>
re cru
ran ge</w>
p lease,</w>
opin ions</w>
on t
oblig ation</w>
moder ni
mis leading</w>
lat er,</w>
in coming</w>
environ ment
donald ,</w>
distric t</w>
disclo sure</w>
d op
club 4
club4 growth</w>
bl u
b locked</w>
ate way
ane se</w>
aggre ssive</w>
YE AR</w>
We bb</w>
Vietnam ,</w>
St atesman</w>
St art</w>
S OT
S ING
Romne y
Pra ying</w>
M es
LO W
LEGA L</w>
I F
Hal per
Fun ny</w>
For d,</w>
Charlottes ville,</w>
@le ez
@bl ue
@Trump Panama</w>
@Joe NBC</w>
@Huff Post
@Face The
@ club4growth</w>
5 00
4 ,000</w>
0 8</w>
tax ed</w>
t down</w>
sudd en,</w>
st y</w>
slea zebag</w>
sent ence</w>
ry s
re marks:</w>
predic ting</w>
mon i
moni um
minut es)</w>
mar gin</w>
liber ty</w>
in sider</w>
for t</w>
fi z
fi f
ent in
don or</w>
dec l
dar k</w>
compli ments</w>
ch ose</w>
archit ect</w>
ant a</w>
answ er,</w>
W :</w>
Un less</w>
TO GE
RUS SI
Po s
Liber als</w>
J es
Inspe ctor</w>
FA R</w>
E as
Come y,</w>
Chan cellor</w>
CB O</w>
Air lines</w>
@the bla
@rod monium
@Tou re</w>
@C itizens_
@ ha
4 6%</w>
36 5</w>
1 %,</w>
# Election
# AL
y per
wa it,</w>
to f
ti p:</w>
se l</w>
s witch</w>
ru in</w>
room ,</w>
ri pp
revolu tion</w>
re im
reim bur
pu p
or i
ne y:</w>
my ster
mp s</w>
lot us</w>
lo om
kic ks</w>
j an</w>
ing ly,</w>
ice :</w>
hur ts</w>
gr ounds</w>
go als,</w>
g as
flo od</w>
ff in</w>
fall s</w>
et y,</w>
differe n
char itable</w>
chan ge
belong s</w>
bas es</w>
bar ak</w>
are a,</w>
_ H
Trump ,
THE Y</w>
T S
Pak istan</w>
M en</w>
Kenne dy</w>
I MM
Gu ess</w>
F ANT
FANT AS
Econom y</w>
Da vid
C AND
A polo
@se th
@not_that_ actor:</w>
@jo sh
@f lotus</w>
@danny zuker</w>
@Wa shTimes</w>
@G MA</w>
@Dra ke
9 8%</w>
12 3</w>
( in</w>
wi re:</w>
un ve
t act
stri kes</w>
se ven
se d
sacrific ed</w>
sa ,</w>
ra :</w>
person able,</w>
obsole te</w>
o lic</w>
mp ed</w>
mar ie
it ari
ig no
g one,</w>
ev angelic
el i</w>
ed ed</w>
de ported</w>
d arl
commis sion</w>
classi c</w>
c ain</w>
arizon a</w>
SH OULD</w>
S us
S r</w>
Ro ssello</w>
Re pub
R ig
R Strong</w>
Qu est
Pre s
Perf ect</w>
Off ice,</w>
Mel b
MA S</w>
Inst itute</w>
In side</w>
Id enti
IST MAS</w>
E mp
Cath olic</w>
CHR ISTMAS</w>
C aller</w>
Ad min</w>
AT ED</w>
@re d
@bahia60 85:</w>
@GolfDi gest
@ vin
@ lor
@ No
8 PM</w>
7 7</w>
6 7</w>
6 3:</w>
#P RStrong</w>
# IN
wa steful</w>
w iscon
time )</w>
tem por
tal ents</w>
st eve</w>
slaugh ter</w>
sc en
s lot</w>
put in</w>
positi vely</w>
port s
per mit</w>
ou g
nation wide</w>
motiv ated</w>
massi ve,</w>
is en
ion Leader</w>
hoo k</w>
hi dden</w>
group ,</w>
ge tt
dis man
crow d
confir med</w>
ci u
annity show</w>
and owsk
al s:</w>
ad s,</w>
a ge,</w>
Uk rain
US C</w>
TER R
TERR OR
Supp or
Sol yn
RESPEC T</w>
QU EZ
Per son</w>
P ric
O WS</w>
O US</w>
N ast</w>
Mon days</w>
Medi a,</w>
D EM
Con de</w>
Cla ssi
Camer on</w>
@stephenfha yes</w>
@lan ce
@Un ionLeader</w>
@RealS QUEZ
@G ary
@Am anda
@ sm
with ,</w>
warren cas
trad er</w>
t ower
surveill ance</w>
sug gest</w>
scre w</w>
s now</w>
s cor
rece ption</w>
re ward</w>
pret end</w>
flun ky</w>
fe el
else where</w>
dra in</w>
dest ination</w>
de an
dam ages</w>
cover up</w>
conserv atives</w>
col dest</w>
bigo try</w>
att end
ain t</w>
activ ity</w>
account ability</w>
_ d
We in
Vi sit</w>
Ric hard</w>
Ric h
Res ol
Re li
Patri ot
M P
Like wise,</w>
L :</w>
F allon</w>
Br and</w>
BOR DER</w>
@theFAMiLY LEADER</w>
@newtg ingrich</w>
@hillarysus ans:</w>
@br an
@Ric ardo
@Real Gilbert</w>
@F a
@ warrencas
10 1</w>
( the</w>
#USWomens Open</w>
#Trump4 Prez</w>
win ning,</w>
v i</w>
turmo il</w>
tic kets</w>
sequest er</w>
sav vy</w>
reduc ing</w>
re son
mo d
j i
h ers</w>
ge t
dire ctor</w>
convers ations</w>
com pre
b y,</w>
ar s
ann as
ad ul
a ver
T ED</w>
Shar ia</w>
I magine</w>
I AL</w>
FRE E
Bla si
Associ ation</w>
AR :</w>
AN G
@s ha
@mel ani
@NC GOP</w>
@Li sa
@Jennifer75 AR:</w>
10 1:</w>
$5 0
$1 ,000,000</w>
win ds</w>
who ve</w>
warz ene
volunte ers</w>
ve ments</w>
u ght</w>
tru sted</w>
trad ition</w>
ta ught</w>
sho cked</w>
r om
pleas ure,</w>
per man
ow :</w>
onz al
o cean</w>
national ly</w>
n y:</w>
ma s
m acys</w>
lu m</w>
li mbaugh</w>
less ons</w>
k n
jack son</w>
ing u
hon or
gr ant</w>
gath ering</w>
g lor
do se</w>
compet itors</w>
chan nel</w>
challen ged</w>
boo ks,</w>
betra yed</w>
b old</w>
ascin ating</w>
account able</w>
Wor th</w>
Sha me</w>
Schul tz</w>
S hi
S end</w>
Re ports</w>
OL L
Inter net</w>
Gener al,</w>
Emer son</w>
E m
E PA</w>
Dou ble</w>
D av
D OLL
Cla pper</w>
Ci vil</w>
Ar gentina</w>
A ction</w>
@ryan bush
@ro b
@Mac Miller</w>
@J an
@Drake 4444
@Drake4444 44
@Di amond
@Breitbart News:</w>
@ go
% )</w>
# Mar
wast e,</w>
vie wed</w>
veter ans,</w>
terri bly</w>
surpri ses</w>
strugg ling</w>
ste ps</w>
sp n
se in</w>
refuge e</w>
nt a</w>
margin al
m er,</w>
liber tari
ki e</w>
interest ing,</w>
i deal</w>
frontrun ner</w>
finan cially</w>
f ted</w>
est imated</w>
dom ain</w>
davis :</w>
cul ture</w>
condition ers</w>
con spir
co sting</w>
cha in</w>
cease fire</w>
be en,</w>
au to
an c
ag es,</w>
achi eved</w>
US S</w>
Till erson</w>
T han</w>
S hel
Rus sell</w>
Pu b
P T</w>
OTUS ,</w>
LI MATE</w>
Indi ana,</w>
I VE</w>
Good man
Depart ment,</w>
C LIMATE</w>
B reitbart</w>
Aren a</w>
@ro s
@jim libertari
@d alla
@c span</w>
@T i
@Jon Huntsman</w>
@Ivanka Trumps</w>
@D ur
9 pmE</w>
6 8
4 9:</w>
#timetoge ttough</w>
# Apprentice</w>
wind ow</w>
tru ck</w>
te acher</w>
st ac
show :</w>
prev ail</w>
pr int</w>
ol l</w>
mind set</w>
messa ge,</w>
lo st,</w>
lea kers</w>
la s
ke ystone</w>
jap an</w>
independ ence</w>
in comes</w>
illi ons,</w>
il lo
fli ght</w>
f it
e y:</w>
di se
de cep
cu py</w>
conduc t</w>
comman der</w>
bro thers</w>
boo k
an ce
al ists</w>
accid ent</w>
ab erde
Turnber ry,</w>
Roo t</w>
Reag an,</w>
Pra yer</w>
No vemb
LAM IC</w>
J ay
IS LAMIC</w>
GO OD</w>
F act</w>
Dis ney</w>
D ang
D Y</w>
CA RE
ALL ,</w>
@trump chicago</w>
@john boehner</w>
@da ve
@Trump National
@Rand Paul</w>
@Justin Rose
@FaceThe Nation</w>
3 7</w>
#Trump Tuesday</w>
#No Ko</w>
# New
with you</w>
wa s
vers ary</w>
unwatcha ble</w>
uc lear
territor y</w>
sur plus</w>
success es</w>
pst evens</w>
per su
pa yer</w>
j r
hu gh
fra struct
feat ure</w>
every ones</w>
eric k</w>
dy s
du mb
de lu
concer t</w>
col lar</w>
ce d,</w>
b ag
at ically</w>
art pstevens</w>
Uta h</w>
Thurs day,</w>
Te d,</w>
Sm ith</w>
Ser ta</w>
Pla yed</w>
McC ain,</w>
Mac Le
MacLe od</w>
M un
K elly
ES P
Count y,</w>
Anni versary</w>
An ti
A h
@stu artpstevens</w>
@antba xter</w>
@Jere my
@Daily Caller</w>
#Miss USA</w>
wa in</w>
w art
up state</w>
tit le</w>
tim es
thou sand</w>
ta pping</w>
stic king</w>
stand ards</w>
st al
st )</w>
sel fin
ri ots</w>
rela x</w>
re tt
re fle
r ampant</w>
q :</w>
p ack</w>
over whel
out sour
or o
obam ac
ne gie</w>
mist re
me st</w>
manufact ure
i sed,</w>
hand ling</w>
fle eing</w>
fil ming</w>
fil m</w>
f loo
ez a</w>
explo de</w>
effec tively</w>
dr a</w>
d R
air port</w>
a x
_ wel
Wien er</w>
WOW ,</w>
T ony</w>
Ro dman</w>
O l
McC a
Lo ve
Jap anese</w>
Inste ad,</w>
Inde x</w>
Ho sp
Fil e:</w>
FANTAS TIC</w>
Emb assy</w>
D AC
Cho ice</w>
@jack _wel
@ lin
@ American
6 :00</w>
11 6%</w>
#N ational
# Donald
y or
withdra w</w>
wel ry</w>
use less</w>
sub mit</w>
sbur g</w>
pract ically</w>
ph y</w>
pe ace,</w>
p s
p is
ov ations</w>
op pressive</w>
loy alty</w>
loc ker</w>
int enti
ignor ing</w>
green y</w>
favor ability</w>
f i</w>
est one</w>
dead ly</w>
cy c
cr ying</w>
const ant</w>
comfor table</w>
co vers</w>
cher ish</w>
char lott
bar rel</w>
app ly</w>
ann on</w>
a ired</w>
Univer s
Th at
Ter ri
St ar
S ab
OP E</w>
M I
In vit
IT E</w>
H ay
H OPE</w>
ER ,</w>
Chil dre
Ch ris
Bur nett</w>
@karl rove</w>
@W restleMania</w>
@S o
@MichaelCohen 212</w>
@CahlRStorri e</w>
@ Pre
10 th</w>
1 )</w>
$6 T</w>
zz Fe
thri ve</w>
tar ge
spre ading</w>
sky roc
re less</w>
prestig e</w>
preci ous</w>
pol ice
police men</w>
plac ing</w>
mit ted</w>
min d,</w>
loser s,</w>
kne eling</w>
k r
investig ation,</w>
inver sions</w>
impre ssion</w>
il es
fortun ately,</w>
fo ol
ene mi
di str
clint on,</w>
ch ina,</w>
cal ia</w>
b by
al lis:</w>
accomplish ments</w>
W ollman</w>
V illa</w>
Shar k</w>
S calia</w>
Ru th</w>
Re present
Prote ct</w>
PL ACE</w>
O ver
Ne bra
K rav
Jud ge</w>
John ny
J Jacob
Ger many,</w>
G H</w>
Fi x</w>
FA IL
Enjo yed</w>
En dor
Comm and</w>
Chri s,</w>
Cater pillar</w>
C are
C GOP
Bar ry</w>
B RA
A venue,</w>
@ru sh
@j ames
@W al
@V attenfall
@Trump Chicagos</w>
@P h
@Jennifer JJacob
@Jacksh allis:</w>
@Golf Magazine</w>
@DRUDGE_REPOR T</w>
@D aniel
@ ash
8 9:</w>
7 9:</w>
#N CGOP
#ICYM I:</w>
y er,</w>
wonder ing</w>
wiscon sin</w>
vin ce:</w>
strong ly,</w>
str on
sta dium</w>
set backs</w>
ribu te</w>
renew al</w>
piec es</w>
o k
nomin ation,</w>
m ust
liber als</w>
inC LE</w>
hun g
ent :</w>
cu mul
cri sis,</w>
con cent
che aper</w>
bl at
b it
automob ile</w>
au dit</w>
at o
agen cies</w>
War ming</w>
V ine
Ton ights</w>
Se e
O ,</w>
L D
Gr and
Go ds</w>
GOP :</w>
Dru g</w>
Dou g</w>
Dann y,</w>
D ress</w>
Com ple
Co alition</w>
Any body</w>
Ad ministrations</w>
@nikki o:</w>
@l itt
@St Jude</w>
@RealSQUEZ Z:</w>
@Col in
@ fe
13 ,000</w>
we en</w>
war ning</w>
v ing,</w>
ta wire</w>
spir al</w>
sne ak</w>
smar ter,</w>
sch e
s at
ric her</w>
outra ge</w>
mc cain</w>
lin es,</w>
j on</w>
itt :</w>
help ,</w>
fiel d,</w>
far mers</w>
f o</w>
end y
emb assi
embassi es</w>
e tern
do s</w>
circum stan
brut ally</w>
bren ner</w>
agree ment,</w>
Win ning</w>
Vic tor
S ir,</w>
Poll ,</w>
N ative</w>
Massachu setts</w>
Magaz ine,</w>
MA NY</w>
L AST</w>
Jon es,</w>
Ir an
In spir
Go d
E s
D onna</w>
D I
C AN
Al ready</w>
Ag ain
@to dd
@s outh
@melani atrump</w>
@g ary
@M ay
5 1:</w>
#vote trump</w>
#S C
we ake
weake st</w>
ulian i</w>
tact ics</w>
t une
sy m
so vere
sh el
sc ene</w>
run k</w>
reprene u
radic al
point ed</w>
p ,</w>
loc ally</w>
k el
j ames</w>
in na</w>
i Phone</w>
gir ls</w>
ga ys</w>
dec lar
de port
de ar</w>
childre ns</w>
cha ir</w>
buil t,</w>
b li
asser man</w>
an them</w>
al ert</w>
Wisconsin ,</w>
W asserman</w>
Te bow</w>
Ric o,</w>
Pub lic</w>
P fiz
O HI
Mu barak</w>
Me yers</w>
Mc K
L ESS</w>
Kas ich,</w>
Irani ans</w>
I ce</w>
Hil ary</w>
GR AT
FLOR ID
FB I,</w>
En d</w>
Connectic ut</w>
CL INT
Bar r
Au tism</w>
Any thing</w>
A ve</w>
@ryanbush by:</w>
@m iss
@d j
@Scott Walker</w>
@S T
@Ric hard
@J erry
@Ivanka Trump,</w>
@Citizens_ United</w>
#A sk
# America</w>
under standing</w>
twi st</w>
thou ght,</w>
the tic
surpri sing</w>
straight ened</w>
ross ly</w>
refu sing</w>
re tr
pro growth</w>
present ed</w>
pi pe
on es
nur k:</w>
myster y</w>
min um</w>
le c
l ine:</w>
i fied</w>
hypocr ites</w>
hour s,</w>
her itage</w>
gu t</w>
g rossly</w>
forgi veness</w>
flexi ble</w>
fil i
fac ilities</w>
exc uses</w>
equ al</w>
emb rac
di e
cri ed</w>
cor ner</w>
come di
cle an,</w>
ay lor
as set</w>
arab ia</w>
ap peal</w>
afric a</w>
W o
TH IN
Sy ste
Pro 4
Pal in</w>
P EN
Mon day,</w>
Lew andowsk
ICYM I,</w>
B ran
@the Real
@msn bc</w>
@_S nurk:</w>
@Real Pro4
@Re ince</w>
@P hil
8 0:</w>
75 7</w>
7 pmE</w>
7 1:</w>
11 pm</w>
$ 2
wif es</w>
warzene gger</w>
th rowing</w>
so aring</w>
sh u
seni or</w>
se ph</w>
re ll</w>
prote ster</w>
professi onal
princip les</w>
ooo o</w>
move ment,</w>
mor al</w>
ma ,</w>
loo k
lifel ine</w>
li :</w>
l o</w>
instru ct</w>
in o:</w>
guaran te
gam e,</w>
g ency</w>
four th</w>
ext end</w>
evangelic als,</w>
et :</w>
cre ative</w>
cr it
con sum
co ol,</w>
ciu oli
bu ffal
bl ames</w>
bar ack</w>
_ P
Ur ciuoli
TR AD
TRAD E</w>
Sh ir
Se beli
Ro ast</w>
N T</w>
HISTOR IC</w>
H R
H M
Disgr aceful</w>
Dak ota</w>
Com mission</w>
Broo k
Apolo gi
@kimguilfo yle</w>
@jay len
@K e
@J en
@J Urciuoli
@Dan a
@Chris _
@CB N
@Billy Graham</w>
@ ter
@ lau
@ andre
6 0:</w>
5 /
#IN Primary</w>
v or
un il
unil ater
unilater ally</w>
tou ched</w>
sta ff
st own,</w>
shoot er</w>
sad ly</w>
s l
ru de</w>
progr am
persever ance</w>
no is
night mare</w>
ne west</w>
monstro sity</w>
m iller</w>
m ale</w>
lin :</w>
law suits</w>
ill s
how ever,</w>
h all
gol d
geor ge
exec ute</w>
eb ola</w>
dist ingu
der ing</w>
da ,</w>
col or</w>
cli ents</w>
cam p</w>
bur g</w>
ategor y</w>
anticip ated</w>
anth ony</w>
an y,</w>
al ways,</w>
al leg
_R_ 2014:</w>
Wa ste</w>
W int
Ty son</w>
Tru ly</w>
TI ON
TERROR IS
Sam sung</w>
SA VE</w>
Rap id
N H
Is lands</w>
I M</w>
H S
Fa bulous</w>
C itiz
An na</w>
Al an</w>
@h annityshow</w>
@H igh
@D HS
@Chris _R_2014:</w>
@BornToBe GOP:</w>
@B yron
6 3</w>
6 00</w>
y er
ste in
ste d,</w>
sp ring</w>
so on,</w>
sim pl
religi on</w>
re s
pro ves</w>
predic tions</w>
pa c</w>
one y
on ly
nam ing</w>
mo thers</w>
lim its</w>
li ars</w>
https :
https: /</w>
hol d,</w>
hand ,</w>
fra gr
ed itor</w>
dou ble
di verse</w>
de value</w>
d s:</w>
consider ation</w>
com mod
co operation</w>
bow l</w>
boo st</w>
bo ston</w>
at lantic</w>
any bodys</w>
ann a:</w>
alab ama</w>
al tern
ac le</w>
WOR K
W ounded</w>
VE :</w>
T ran
Sp ent</w>
S achs</w>
Ru dy</w>
Re public</w>
Pu nta</w>
Pri e
N _
N ESS</w>
L V</w>
J E
I de
Hus sein</w>
Hil ton</w>
Comm un
Carl son</w>
Californi a,</w>
Bro thers</w>
Abed ini</w>
@warrencas sell
@megynk ell
@l uc
@jack_wel ch</w>
@g ateway
@Yankee Run
@Jennifer75 AR</w>
@ ali
7 4</w>
6 9
6 1:</w>
5 3</w>
0 3
z es</w>
un mas
ti ps</w>
than ked</w>
th a
ta ining</w>
scot t</w>
sar inna</w>
s oul
rys ler</w>
roll s</w>
pri orities</w>
pot entially</w>
ob stru
n st</w>
min ster</w>
memor y</w>
lo ad</w>
leg s</w>
inform ation,</w>
ill u
gu t
golf ,</w>
g are
fac e
ell s</w>
el _
e M
domest ic</w>
devast ation</w>
determin e</w>
decla red</w>
decl are</w>
bureauc rac
bo ar
b loc
aw ful</w>
ast ,</w>
ar sen
amate ur</w>
ach :</w>
Un til</w>
T OU
S av
Ro ves</w>
Put in,</w>
NY C,</w>
NR A</w>
NO V
Mary land</w>
M r
Le ad</w>
K ates</w>
H oo
Gu y:</w>
Gol den</w>
Fri end
Fi ve
F ur
D G
Cor por
Col um
C ir
@rush limbaugh</w>
@li sarinna</w>
@Turnberry Buzz</w>
@Mari a
@Lin da
@All en
@ Letterman</w>
9 11</w>
5 2:</w>
#the apprentice</w>
#Puerto Rico</w>
where ver</w>
wh ich,</w>
up date</w>
tren ding</w>
tre ad</w>
the red</w>
te sting</w>
sub mitted</w>
stup id,</w>
smar ts</w>
s at</w>
right :</w>
resto red</w>
regu lar</w>
mom ents</w>
mic hig
mani ac</w>
m y,</w>
lor d</w>
lam s</w>
k y:</w>
hor iz
gener al,</w>
g le</w>
foolish ly</w>
de sig
cre w</w>
cr on
citizen s,</w>
c roo
be n</w>
b enghazi</w>
ant i</w>
annas cot
and Sil
ac o
Wat erg
Wal do</w>
W I</w>
P AS
Mer kel</w>
Ma instream</w>
M B</w>
K ir
Hispan ic
Halper in</w>
Gold berg</w>
FLORID A</w>
ER E</w>
E ff
DOW N</w>
Charlott e,</w>
C ow
C ard</w>
Angel a</w>
Am ong</w>
@w ill
@ros annascot
@bob by
@Pau la
@Nic ole
@Diamond andSil
@ mag
9 7:</w>
8 :30</w>
# usa</w>
# Y
yO dd
yOdd Do
watch es</w>
w en
ven i
vaccin ations</w>
th ing:</w>
th en
sub sidy</w>
spn greeny</w>
smal lest</w>
si mil
simil ar</w>
sen :</w>
selfin spe
scre ening</w>
s weet</w>
retur n,</w>
rejec ted</w>
pre fer</w>
positi ve,</w>
op o
k ie
jail s</w>
in correctly</w>
in accurately</w>
hard ly</w>
h ang
good ness</w>
girl friend</w>
genu ine</w>
ep idemic</w>
conspir acy</w>
clu b,</w>
civil ians</w>
cho ices</w>
child care</w>
best sell
au mont
amp an
ab c</w>
WE E
W ed</w>
W ALL,</w>
Vet s,</w>
U P
Spr ing
Resear ch</w>
RE BUILD</w>
Off icial</w>
N uclear</w>
Mand ate</w>
Li yuan</w>
Le eza</w>
K om
K at
Han del</w>
Gu ard,</w>
Graham Cassidy</w>
FU L
Count ry
Contro l</w>
Cap tain</w>
Can ada,</w>
C at
C _
Bor der,</w>
Bergdah l,</w>
B ought</w>
Am y</w>
AMERIC A,</w>
@scot t
@m y
@Ver yOddDo
@S an
@J u
@E spngreeny</w>
@Bra vo
@Be aumont
9/ 8
2 9:</w>
, but</w>
# you
# Fake</w>
wal ks</w>
u u
trave sty</w>
t at
se en,</w>
scrip ts</w>
russi an</w>
re ness</w>
pu b</w>
ow ns</w>
k as
k ansas</w>
identi fy</w>
ichel le
i as</w>
guest s</w>
franch ise</w>
fin al,</w>
fias co</w>
e ed</w>
concer ned,</w>
co hosting</w>
co aches</w>
co ,</w>
ch urch</w>
c cable</w>
bur n</w>
bro ad</w>
b lowing</w>
b er,</w>
at mo
ast on
artic le,</w>
a sion</w>
US A,</w>
TI AL</w>
TER ,</w>
Swe den</w>
SECU R
SECUR ITY</w>
R ice</w>
R ho
PP P</w>
O prah</w>
O ne
Ne arly</w>
N ick</w>
Jona than</w>
Jami el</w>
Hor rible</w>
Her man
Er nie</w>
B rav
@The Big
@L aw
@Hou se
@ golf
@ autism
@ 5
9 4:</w>
5 5:</w>
# i
z a:</w>
y ce
ww w</w>
win s,</w>
upd ates</w>
stud ent</w>
ste el
sel ves,</w>
s lightly</w>
s cap
ro tt
regul atory</w>
rat ing
ra ve</w>
qui et</w>
puppe ts</w>
poll ed</w>
pl un
pa w
p enn
organiz ations</w>
off ended</w>
non exist
loc ation,</w>
ket Challenge</w>
ion age</w>
id ing</w>
hurrican es</w>
happ y,</w>
gun s,</w>
g it
f oun
experi enced</w>
even ing,</w>
er ly</w>
entertain ment</w>
ell a</w>
desi re</w>
deni ed</w>
cron ies</w>
cri ppled</w>
ce Buc
ceBuc ketChallenge</w>
cart els</w>
appla ud</w>
an o:</w>
an ge,</w>
agree ing</w>
abu sed</w>
a res</w>
Yester day,</w>
Se a</w>
Schum er,</w>
SP ER
Ra is
RE M
REM EMB
PRO SPER
P OW
O ak
Ma dison</w>
MER RY</w>
K S
Hot els</w>
Holi day</w>
Ha iti</w>
Gi uliani</w>
G abri
E ll
Char le
Capit ol</w>
Brand i</w>
Bec k</w>
B an</w>
Arizon a,</w>
App ro
An n</w>
Afghanist an,</w>
A nt
@sh el
@ch ri
@NY C
@H ar
@EricTrumpF dn</w>
@Bu zzFe
@ Ge
4 9
11/ 8</w>
10 :30</w>
#US A
# President
war mest</w>
tax es
pu ty</w>
prote sting</w>
pres sing</w>
ph y
pe d,</w>
over looking</w>
o ya
o il
ne y,</w>
k arl</w>
ix teen
inher ited</w>
hor se</w>
hom eland</w>
high ways,</w>
head line</w>
fin ding</w>
ev il
ear ning</w>
cru shing</w>
b t</w>
au to</w>
atic an</w>
act ual</w>
ab y
_ F
W T
Sun day,</w>
S EN
Incre ase</w>
I rish</w>
H ILL
Gru ber</w>
Go d,</w>
Disa ster</w>
D ro
Crime a</w>
C Y</w>
Br illiant</w>
Bo ssi
Ac cess</w>
@n ic
@TheBrody File:</w>
@T ea
@StephenBaldwin 7</w>
@S ixteen
@ ev
5 4</w>
5 3%</w>
11 %</w>
wa ge</w>
us my
usmy 8</w>
under take</w>
un happy</w>
to ols</w>
tal lest</w>
sto res</w>
sleep y</w>
pl usmy8</w>
nan de
league truth</w>
le eb
k jm
k en,</w>
inve sted</w>
inform ative</w>
form ul
for ce
f erry</w>
ere ,</w>
dic t
bor row
ar mstrong</w>
Worl ds</w>
Sheriff s</w>
Ser vic
S is
Ri ver</w>
R el
R S</w>
R IN
Pl anned</w>
Part y
P aren
O THER</w>
Nab isco</w>
N M
Milit ary,</w>
Medic aid</w>
McCa be,</w>
MA J
J r
Invit ational</w>
In competent</w>
Fla ke,</w>
E manu
D ie
Co st
Cl are</w>
BE TTER</w>
A OL</w>
@wolf bl
@eric leeb
@dc exam
@Ste ph
@R i
@G lenn
@ sk
@ 11
77 7</w>
7 ,
6 5
( even</w>
( but</w>
$ 100,000</w>
#big leaguetruth</w>
wa ges,</w>
v a:</w>
treat y</w>
tr actors</w>
stru ck</w>
some how</w>
robb ing</w>
ric h
respon ded</w>
requi red</w>
nt ,</w>
n s
mes s,</w>
matt ress</w>
mat erial</w>
man Johnny
li mit</w>
lea se
l ate,</w>
k il
jud ge,</w>
journ alist</w>
is manJohnny
int ention</w>
ili ated</w>
gi ant</w>
fail ing,</w>
ere mony</w>
emb ar
don ating</w>
disgu sted</w>
de but</w>
controversi al</w>
collu ded</w>
ch uck</w>
camer a</w>
ber g
be ar</w>
an other,</w>
air s</w>
Wil son</w>
Trum an</w>
R ud
R ory</w>
R asmus
Milit ary
May weather</w>
Matt is</w>
Ma de
J U
I P
Europe an</w>
E ver:</w>
E isen
Car negie</w>
C eremony</w>
Bro ad
Bo ehner</w>
B ILLION
@trump winery</w>
@m i
@gre g
@Tal ismanJohnny
@D NC</w>
@ wash
@ si
@ fu
@ Ag
3r d,</w>
youn g,</w>
we ,</w>
victor y,</w>
un k</w>
sym path
so :</w>
saf e,</w>
sa y:</w>
resid ents</w>
ren aw
renaw illiams</w>
prestig ious</w>
pract ices</w>
possi bility</w>
pati ence</w>
pas sport</w>
one third</w>
ob ses
mom s</w>
mel tdown</w>
mean time,</w>
mat eri
master mind</w>
ly News</w>
li by
ley R
is land</w>
hung ry</w>
f ru
destro ye
de ll</w>
da u
d ul
boom ing</w>
b acking</w>
arrog ant</w>
alu minum</w>
ac cumul
W inter</w>
Tal king</w>
T ha
Stein brenner</w>
Sebeli us</w>
Romne ys</w>
Rig ged</w>
REFOR M</w>
P lu
O li
Night lyNews</w>
Nev ada,</w>
NC inCLE</w>
M ILLION</w>
J ind
GREAT NESS</w>
G um
F ound
F R
Crimin als</w>
C hamp
Ad am
AB LE</w>
@seth meyers</w>
@se renawilliams</w>
@jo h
@j e
@b dean
@R ust
@NBC NightlyNews</w>
@I ts
@CahlRStorri e:</w>
@A F
@ love
6 0%</w>
201 5:</w>
0 8
#R NCinCLE</w>
# ISIS</w>
wi sely</w>
wa its</w>
wa ited</w>
v ity</w>
untru e</w>
uni fi
unifi er</w>
tun nel
tunnel s,</w>
tt y
tr o</w>
th ir
ta unt
stat ute</w>
s wit
s wi
rough ly</w>
right s,</w>
re venue</w>
qu est</w>
pup il</w>
pro c
proc ess,</w>
per pe
pan els</w>
p raised</w>
nois y</w>
n it
lea ve,</w>
l ers</w>
judg ment,</w>
in king</w>
in _
id es</w>
house hold</w>
ho sts</w>
fun )</w>
for ce,</w>
excell ence</w>
diplom atic</w>
develo per</w>
devalu ation</w>
corru pt,</w>
contribu tion</w>
catastro phic</w>
bul lets</w>
be little</w>
ac id</w>
_ e
TO P</w>
Stu dy</w>
Show :</w>
Sen i
SING LE</w>
Rod erick</w>
Qu in
Pr om
Pat ak
NE D</w>
NB A</w>
L 7
G ran
G M</w>
Fin ale</w>
E B
De finitely</w>
D own</w>
C OU
Buffal o
Ari anna</w>
@w oo
@foxand friend
@Shawn Johnson</w>
@Ro b
@P ro
@ML B</w>
@M ail
@M ag
@Gre tawire</w>
@E SP
@ so
@ 2014
@2014 _
3 00
18 th</w>
# w
witnes sed</w>
unmas king</w>
univer sity</w>
un lim
tr ading</w>
threat ens</w>
test im
subscri b
subscrib ers</w>
spea k,</w>
sor ry,</w>
se g
rout ine</w>
repreneu rial</w>
repor t,</w>
reas ons,</w>
purpo ses</w>
provi ding</w>
poc kets</w>
pig gy</w>
penal ties</w>
pati ents</w>
p in
on y:</w>
om ar
michig an</w>
loy d
lo se,</w>
know s,</w>
inaugur al</w>
husb and,</w>
govern ments</w>
g rid</w>
for prez</w>
fla gs</w>
feel ings</w>
ex oner
er ri
employe e</w>
dud es</w>
do ors</w>
disav owed</w>
devalu ing</w>
crit ic</w>
cre dible</w>
compla ints</w>
che ated</w>
cha se</w>
at en</w>
al o
advis ed</w>
ad ore</w>
ac knowle
a waiting</w>
WR ONG</w>
Veter an</w>
T wain</w>
Saras ota,</w>
Rose _
Re marks:</w>
RA IS
R oll
Pro claims</w>
Op ening</w>
OL D</w>
O t
Me gan</w>
M IL
Lett er
Kur tz</w>
Jo seph</w>
Jo di</w>
HU GE</w>
Gre g
Govern ors</w>
G len
F all</w>
EX CL
EXCL US
E :</w>
Christ ma
Brit ain</w>
@warrencassell jr:</w>
@mit ch
@jam ie
@T V
@Pete Rose_
@Gov Mike
@A b
9 00</w>
7/ 365</w>
47 %</w>
24/ 7/365</w>
#TimeToGet Tough,</w>
#F ree
z y
wast es</w>
us ForTrump</w>
tremend ously</w>
sto ck
sp erson</w>
some place</w>
sh or
sh all</w>
se t,</w>
ru p
rhetor ic</w>
renov ated</w>
per ver
pa rent</w>
oun ded,</w>
on es,</w>
mo re:</w>
mist ry</w>
mat h</w>
lu ther</w>
li ot
k le
k 1:</w>
journal ists</w>
is c
ight :</w>
i er:</w>
hear d,</w>
h rs</w>
golf er</w>
gin e
gain s</w>
for me
fin ish
ex posing</w>
educ ational</w>
e ating</w>
don ated</w>
delu si
cu ts,</w>
conventi on,</w>
conf eren
commun ities,</w>
che mistry</w>
busines sperson</w>
bur ning</w>
bor rowing</w>
blo ws</w>
auc usForTrump</w>
architec tural</w>
ap p</w>
ag n
W acky</w>
THIN K</w>
Spe ctacular</w>
Sha wn</w>
Rapid s,</w>
RE PLACE</w>
Len o</w>
JF K</w>
D Cs</w>
Advis or</w>
A stor
A Z</w>
A IL
@oreilly factor
@jaylen o</w>
@Vattenfall Group</w>
@To dd
@T aylor
@CBN News</w>
@Brand en
@BB C
@ george
8 pmE</w>
#C aucusForTrump</w>
# donald
# Pe
ys lu
wi ped</w>
wh at
tt a</w>
test ify</w>
smo oth
simp lif
sett lement</w>
sc ar
ret ary
re de
re acts</w>
pupp yslu
prom oting</w>
p ard
p _
now :</w>
night 27
n s,</w>
n arr
mi ght
mb ling</w>
li ff
l ink</w>
l ate
ke y:</w>
ka ine</w>
itari an</w>
insp ires</w>
insid ers</w>
inc ess
http ://t</w>
ho l</w>
heart felt</w>
gri d
ge l</w>
g ard
fat al</w>
factor ies,</w>
ende avor</w>
end ure</w>
el ed</w>
ec o
dil ig
defen se,</w>
critic izing</w>
char ge,</w>
cali for
back grounds</w>
audi ence,</w>
al ity,</w>
acqu ire</w>
aberde en</w>
Terri fic</w>
Pro ject</w>
O thers</w>
Mar ia</w>
Lor d:</w>
LG BT</w>
LE S</w>
Jupit er,</w>
Golf :</w>
Fu ture</w>
Fran ce,</w>
ELE CTION</w>
E P
D ol
Bald win</w>
Ba be</w>
B all
@ter rel
@k rist
@d m
@cal eb
@Sen John
@Sec retary
@R u
@NY Times</w>
@K night27
@K im
@Joe NBC:</w>
@J ust
@Antoni o
@ sin
@ puppyslu
9 6:</w>
7 5:</w>
7 0%</w>
( for</w>
#Deb ates</w>
# Jo
vision ary</w>
ve to</w>
ten sion</w>
tempor ary</w>
ta il</w>
t opped</w>
stre am</w>
statist ics</w>
st s,</w>
s ought</w>
ru s
ris ks</w>
reduc ed</w>
qu al</w>
politici an,</w>
pl z</w>
past or</w>
part ner
par ade</w>
oper ations</w>
mat ched</w>
man age</w>
ma g</w>
m ile</w>
ital ism</w>
inv aded</w>
horiz ons</w>
gla ss</w>
g ile</w>
freedom s</w>
fra gile</w>
for ward,</w>
finan cing</w>
expect ations</w>
e ding</w>
discus sions</w>
de ad,</w>
da r</w>
critic ize</w>
conserv ati
com /
chec ked</w>
che er
c ell</w>
business man,</w>
aw fully</w>
ate _
ar m
applic ation</w>
al ie
agen da,</w>
U r</w>
Str ate
Roc ke
Rasmus sen</w>
Pr ince</w>
PR OTE
PROTE CT</w>
PA TRI
OW A</w>
Michig an,</w>
Mat the
Lo ving</w>
Lew is</w>
Hi stor
G ang</w>
Fo rum</w>
F av
E qual</w>
E P</w>
Crow d</w>
Bu shes</w>
B illy</w>
AMERIC ANS</w>
AB OUT</w>
@rodmonium 91:</w>
@ny jets</w>
@j r
@Rock in
@NR A</w>
@ gh
@ Deb
8 7
6 /
6 ,</w>
4 Trump</w>
11 :30</w>
0 ,</w>
# golf</w>
vac ation
univer sal</w>
th urs
ta in
spon s
revolu tion
request s</w>
possi ble,</w>
perpe tr
our ne,</w>
ne ys</w>
n ite</w>
man ia</w>
k se
introduc e</w>
impe ccable</w>
il er</w>
i ed</w>
gu l</w>
gr acious</w>
g d
examp les</w>
ex t,</w>
et s
esp ionage</w>
el ites</w>
e dy</w>
d ing,</w>
d alla
com :</w>
can t
benef ici
be long</w>
as ks</w>
answ ering</w>
al s
ad ic
V atican</w>
U g
Pittsbur gh</w>
NY Cs</w>
N ice
N ation
MON E
LOW ER</w>
L a</w>
Ed ward</w>
D rain</w>
Chief s</w>
C F
Be ij
ATION S</w>
@trump tower
@ke kse
@jd ickerson</w>
@d al
@YankeeRun ner
@US GA</w>
@J ess
@ Christ
@ 6
8 7:</w>
$5 9</w>
x x
wor ship</w>
valu es,</w>
vacc ine</w>
ty pes</w>
tra de
thought s,</w>
tele cast</w>
so il</w>
sad ,</w>
sa id
s i</w>
rist s</w>
repor ter,</w>
reg ard
prof ess
ple mon
plemon Le
no ti
ning_ joe</w>
ni e,</w>
long time</w>
la zy</w>
la ke</w>
ke v
incredi bly</w>
incid ent</w>
in er
im ports</w>
ha m,</w>
gi es</w>
face book</w>
f lu
ex ists</w>
emplo yers</w>
el y,</w>
dri ven</w>
do ch</w>
crow n</w>
compla in</w>
colum n</w>
colle ct</w>
co oper
bureaucrac y</w>
bo at</w>
b ast
arsen al</w>
anim als</w>
_ _:</w>
Wal k</w>
The Deal</w>
TV s</w>
St ory</w>
S atur
Pal mer</w>
Not ice</w>
Negoti ation:</w>
Mot ors</w>
M oo
Le ads</w>
KE AMERIC
KEAMERIC A
KEAMERICA GREAT
Inve st
H onest</w>
Fin al</w>
FREE DOM</w>
F AC
DON E</w>
C RU
Blasi o</w>
@realDonald Trump
@mor ning_joe</w>
@j j
@autism speaks</w>
@P er
@Joe Biden</w>
@AnnCoul ter:</w>
@A plemonLe
@ that
4 0:</w>
0 9
#MA KEAMERICAGREAT
vid es</w>
tr icks</w>
test ament</w>
succe ed,</w>
spe cially</w>
rist ot
ri k
re ti
pro vides</w>
plan e,</w>
phenomen on</w>
per forming</w>
ot us</w>
onal ly,</w>
n ail
mo th
li mit
less ness</w>
journal ism</w>
intere st,</w>
innov ative</w>
in a:</w>
fe ed</w>
ex pose</w>
ers on,</w>
eni us</w>
ele ction
dra w</w>
disapp oint</w>
democr atic</w>
croo k</w>
confid ential</w>
co stly</w>
cha irman</w>
bur g,</w>
bro therhood</w>
brief ing</w>
bra very</w>
ba th
appla use</w>
and a</w>
all eng
a wake</w>
Win ners</w>
Waterg ate</w>
Sig ning</w>
Per ino</w>
P av
P an</w>
Nor fol
Mo ve</w>
Ma ke
LE A
IN A</w>
Hy pocr
Hou ston</w>
Holi days</w>
G ow
G enius</w>
F IGHT</w>
C ities</w>
Bar ron</w>
An them,</w>
Ab bot
@sha wn
@p otus</w>
@esp n</w>
@c raig
@Kat rina
@K atie
@Dana Perino</w>
@Apprentice NBC,</w>
7: 00
6 pm</w>
4 ,</w>
z u</w>
z ation</w>
yr shire</w>
y no
y n</w>
we re,</w>
view s,</w>
up s</w>
tu bes</w>
technolo gy</w>
tari ff</w>
tal king,</w>
st ill,</w>
se y,</w>
scienti sts</w>
sacrific es</w>
ripp led
rippled America</w>
ra f
qu arters</w>
pow ers</w>
por t,</w>
op s
o s,</w>
n _
li king</w>
itu de,</w>
investig ating</w>
in o,</w>
implement ed</w>
ide olo
hypocr ite</w>
hou ses</w>
he re
hau l</w>
ha ck
fat al:</w>
expla ins</w>
exemp t</w>
enthusi ast
dr ama</w>
distor ted</w>
discipl ine</w>
dig lanville</w>
cu z</w>
cr an
correct ness</w>
co ast
chan ger</w>
bu mp</w>
bra gg
an L
all on
acknowle d
ab ility,</w>
Worl d,</w>
WW II</w>
WS J</w>
V IC
VIC TOR
Ta ylor
T zu</w>
Solyn dra</w>
Ser gi
Sep t</w>
Sand ers,</w>
SPIR IT</w>
Ro ck</w>
Repub s</w>
Re ince</w>
Re form,</w>
Pocahon tas</w>
Po or</w>
P acked</w>
P GA
Novemb er,</w>
N ation,</w>
Lar ge</w>
L T
Kati e</w>
Isra eli</w>
Iraq i</w>
Gu ys</w>
Frank ly,</w>
FL :</w>
F ra
Exclu si
Ex press</w>
De ere</w>
DOLL ARS</w>
Con f</w>
Brad y,</w>
Bo ard
Aberde enshire</w>
AT S</w>
@ro sie</w>
@maathew davis:</w>
@bran diglanville</w>
@TM Z
@Nat asha
@Mail Online</w>
@K ier
@C la
@C ap
@ il
@ ho
@ ex
: Trump</w>
5 7</w>
4 3</w>
3 :00</w>
11 ,</w>
, and</w>
#Pe arl
#C rippledAmerica</w>
# President</w>
y l</w>
where ,</w>
weak ening</w>
ut ing</w>
tow ers</w>
temper at
taunt ing</w>
ta s:</w>
t itude</w>
squ an
squan dered</w>
sp here</w>
sleep ing</w>
si :</w>
sac red</w>
sa ve
r an,</w>
prof ile</w>
power ful,</w>
p Gra
pGra f
ough :</w>
op pose</w>
obstru ct</w>
o cr
new ly</w>
mo cking</w>
medi a)</w>
margin s</w>
manag ing</w>
ma il</w>
li ssa</w>
lea ker</w>
ket el
ketel tas:</w>
jo an</w>
insu red</w>
hom es</w>
har m</w>
hand ing</w>
ha w
fin e,</w>
ex pression</w>
downgr aded</w>
d y:</w>
ct u
convic ted</w>
con veni
ch u
car ing</w>
c hampionships</w>
bru tal
atmo sphere</w>
ant ic
ant :</w>
am ac
_ W
_ Li
Z ucker
Y OR
YOR K</w>
W I
Ter ror</w>
T LY</w>
Sus an</w>
Pro sp
PRE Z</w>
O K
Nu mbers</w>
News week</w>
Mac r
LI GH
Jo seph
EVERY THING</w>
DAC A</w>
Bel ich
B rown</w>
Apprentice 9</w>
Aberde en,</w>
@The Apprentice9</w>
@T pGraf
@Ro ger
@R keteltas:</w>
@M J
@Land Expo</w>
@L a
@Di ane
@C al
@Bill Maher</w>
@B lu
@ You
@ QVC</w>
8 3</w>
44 %</w>
3 5:</w>
20 Summit</w>
2 %,</w>
$200 M</w>
#USA at
#G 20Summit</w>
w ounded,</w>
w art</w>
truth ful</w>
ter s
ta ins</w>
t ours</w>
sur face</w>
sol ar</w>
signific antly</w>
se arch
se )</w>
scap e</w>
re ven
qu o</w>
p ill
opp ins</w>
nonexist ent</w>
no x
nest y,</w>
narr ative</w>
n af
in secure</w>
id ed</w>
head ,</w>
global ism</w>
ght ers</w>
g ru
fuc king</w>
frastruct ure,</w>
formul a</w>
form erly</w>
fol lows</w>
fal se,</w>
f lies</w>
enter prise</w>
ear th
disav ow</w>
dis like</w>
demo s</w>
dau ghters</w>
concent rated</w>
comedi an</w>
bb on</w>
anke e</w>
amaz ing
advan cing</w>
_ t
Wal ter</w>
Str ange,</w>
S ony</w>
Ris es</w>
P C</w>
Off ici
Obamac are
N ice,</w>
Mes sage</w>
MA ,</w>
M an,</w>
Lo ck
K en</w>
Identi fy</w>
Gre atest</w>
G az
Fla ke</w>
Fe w</w>
Da vi
Asi a,</w>
Anth ony:</w>
@ro bert
@e mily
@W endy
@W arren
@S ir
@M ad
@E rin
@AG Schneider
@ sc
# NewYork
# Me
world wide</w>
v p</w>
us an
tru ck
tri ple</w>
tr a</w>
tir omo</w>
stop ,</w>
sh opping</w>
sen ses</w>
s es,</w>
re moving</w>
question s,</w>
qu it,</w>
pl ate</w>
pat ter
oya jackson</w>
ount ain</w>
or ies</w>
mo b
lat oyajackson</w>
k elly</w>
hot el,</w>
hi b
hear ings</w>
h h
endorse ment,</w>
dou bling</w>
dic t</w>
de cade
compu ters</w>
c ted,</w>
c and
bare ly</w>
ates Law</w>
appro ach</w>
ag ent</w>
ag ency</w>
aff ec
addre ssing</w>
ac tion,</w>
_ 1:</w>
You Tour
YouTour 2016</w>
Te a
TER S</w>
T ICE</w>
Sc and
Saud is</w>
REN TICE</w>
Patri ot</w>
Pat rick</w>
Man a
M ir
M en
M IS
Kra ft</w>
Fe b</w>
Fa ith</w>
FL ASH
C ouldnt</w>
Bar tiromo</w>
Ail es</w>
APP RENTICE</w>
@theReal Kiyosaki</w>
@m c
@j en
@The Econom
@J B
@Fa ith
@Aberde en
@ latoyajackson</w>
@ Nor
9 1</w>
3 2%</w>
#VoteTrump SC</w>
#Thank YouTour2016</w>
#POTUS in
#K atesLaw</w>
#C NN</w>
wor se,</w>
wom an
vin :</w>
u gg
u a
tou ches</w>
the mat
soci alist</w>
slea zy</w>
sin sider</w>
shback Friday</w>
school ,</w>
sc ary</w>
ri p
pro spe
possi bil
pol is</w>
par is</w>
pa ir</w>
mar k,</w>
m al
la shbackFriday</w>
iz ed,</w>
in fo
grid lock</w>
enemi es,</w>
endor ses</w>
di er
deta iled</w>
dest ined</w>
defic it,</w>
con secu
compu ter</w>
cap it
borrow ed</w>
beli ef
bab y,</w>
and friends</w>
age :</w>
activ ities</w>
account s</w>
WH O</w>
VI DE
See ms</w>
SUPPOR T</w>
SH I
S id
Me an
MAJ OR
Lear ning</w>
IR E</w>
ING ,</w>
H un
Ent repreneur</w>
E yes</w>
Deb bie</w>
D one</w>
Core y</w>
Co oper</w>
Car l,</w>
CA R</w>
Board room</w>
Bo y,</w>
Blu e
Australi a,</w>
A ppreci
@ric hard
@kyleracci o</w>
@j eb
@Tim Tebow</w>
@Forbe s:</w>
@F ore
@Drake444444 4:</w>
@ er
@ Netanyahu</w>
@ 9
8 2</w>
5 6:</w>
4 1:</w>
12 ,</w>
#trump 4
#VoteTrump Pence16</w>
#F lashbackFriday</w>
y on
week end,</w>
w g
v an</w>
ur able</w>
tu red</w>
treas ure</w>
ton es</w>
ster :</w>
speci fic
si mul
si ble</w>
sever al</w>
s it
reg ard</w>
pu mp</w>
poll ster</w>
persist ence</w>
om bi
off ice
mp 2016</w>
moti vate</w>
memor ial</w>
me mo</w>
mb ly</w>
m ens
le b
kis son</w>
je op
ire land</w>
im withyou</w>
ignor ant</w>
hot test</w>
gro ws</w>
g s
freedom ,</w>
fo ot</w>
emp ha
con c
bo i
awa reness</w>
av y
art :</w>
ar a</w>
ali ke</w>
air ,</w>
ag ing</w>
ac col
a side</w>
West chester</w>
W on</w>
W ELL</w>
Un der
The Donald</w>
T yl
T old</w>
Start ing</w>
Sta ying</w>
Ren o,</w>
RES S</w>
POR T
NBC s</w>
L an
IL LEGAL</w>
GEN ER
G erman</w>
Euro pe,</w>
Eas y</w>
EN OU
De puty</w>
Bo ys</w>
Apologi ze</w>
@bri an
@Su per
@P I
@L ady
@JUrciuoli 19:</w>
@D oug
@Co ach
@ mb
@ ObamaCare</w>
7 2:</w>
5 8</w>
5 8
5 4:</w>
2 20
$ 200</w>
#MAKEAMERICAGREAT AGAIN</w>
# imwithyou</w>
witnes sing</w>
wi shing</w>
we b</w>
trans ition</w>
tou rism</w>
some what</w>
ro gue</w>
reve als</w>
rel ent
reas on:</w>
reas on,</w>
read s</w>
re vo
re view
rat es,</w>
rac es</w>
ra y,</w>
publish ed</w>
polic e,</w>
po ol</w>
mo ve,</w>
mo ther,</w>
manu fac
m ou
ly )</w>
izz _Li
itor i
insul a</w>
ing er
har sh</w>
h eck</w>
gre es</w>
gra ham</w>
gold 19
gi a</w>
f illing</w>
erry gold19
eli gible</w>
e mployment</w>
de grees</w>
d ry</w>
cti onal</w>
contr actors</w>
ci ous</w>
califor nia</w>
ca sts</w>
bureaucr ats</w>
buffal o</w>
ble eding</w>
aven ue</w>
al ago</w>
advis er</w>
addic ted</w>
Youn g
Y u
Win dy</w>
Tro jan</w>
Spe ak</w>
Spa in</w>
SUCC ESS</w>
S wa
S ing
S ign</w>
R um
Primar ies</w>
Melb ourne,</w>
Hosp ital</w>
Gir l:</w>
ESP N</w>
Connectic u
CLINT ON</w>
CAR SON</w>
CAN NOT</w>
CA USE</w>
Business es</w>
Ber ger
Ander son</w>
@se ank
@real D
@piersmor gan:</w>
@k errygold19
@john rich</w>
@bri thu
@bdean 14
@Z ac
@R izz_Li
@E mily
@Best Berger
@2014_ vince:</w>
9 9%</w>
3 /
$1 7
# go
ys is</w>
ton ite</w>
thurs day</w>
thou se</w>
te ar</w>
sur ging</w>
su ites</w>
see king</w>
seas on
respon d
renc y,</w>
recor ds,</w>
re ne
ra vel
r t
prosecu tor</w>
pre e
particip ation</w>
over turn</w>
or lan
o se
mo squ
m er:</w>
ll s</w>
le e</w>
la dies</w>
l y:</w>
ignor ance</w>
i g</w>
i _
hop es</w>
him self,</w>
hi ke</w>
gh me
for th</w>
finish ed,</w>
fac es</w>
er adic
deb ating</w>
de au</w>
d ads</w>
circumstan ces</w>
ci a</w>
certi fied</w>
attend ance</w>
ath er,</w>
ann ually</w>
anal ysis</w>
a ghme
Z ucker</w>
Vir gin</w>
Tru deau</w>
Toge ther</w>
T rad
Si x
S lo
S entin
ObamaC are
O w
Ma fi
M ILLIONS</w>
Gran ite</w>
GRO W
Fu n</w>
Fal se</w>
F LIGH
Ex tre
Ex plain</w>
Dar k</w>
Cor ps</w>
Comm erce</w>
Ar kansas</w>
AF TER</w>
A wa
@trumptower ny</w>
@ronmeier 123</w>
@hillary clinton</w>
@Mr s
@Mar co
@Kate plusmy8</w>
@JustinRose 99</w>
@GovMike Huckabee</w>
@Golf week
@David_ Cameron</w>
@BuzzFe ed</w>
@Branden Roderick</w>
@ ell
3 50</w>
$25 ,000</w>
#2 A</w>
we ather
tu re
traff ic</w>
tra ined</w>
t r</w>
swe at</w>
sho es</w>
ship s,</w>
sex ting</w>
s ound
prev ent
or gan
omar osa</w>
ol f</w>
nam e,</w>
n on</w>
lin _
las vegas</w>
issu e,</w>
in s
har vey</w>
hand s,</w>
g li
for tune
extre mis
ent repreneurial</w>
ear liest</w>
dop es</w>
descri be</w>
deleg ates,</w>
dec ade</w>
darl ing</w>
commit te
ber g:</w>
b ounds</w>
auth or
at ers</w>
any ones</w>
ant ar
al d</w>
ak es
aT antar
_ b
Val ues</w>
Th rough</w>
T wee
T OLD</w>
S ER
Re pub</w>
Quest ions</w>
Pro f
Philadelphi a,</w>
OHI O</w>
OB AMA</w>
Le is
HR C</w>
FRE E</w>
Ex cept</w>
Ebol a,</w>
C lo
C ame</w>
Ba gh
Ar my
An nu
AS E
@ste ph
@st even
@m acy</w>
@k yle
@its Ryan
@greta :</w>
@PeteRose_ 14</w>
@M ichelle
@John ny
@Jim _
@JenniferJJacob s:</w>
@H el
@Ber nie
@Andre aTantar
@ Washing
$4 00
yper ry</w>
win e</w>
w/ you</w>
vil le
u h
tu be</w>
tri gger</w>
th or
t _
stor y
sma vs</w>
sm iling</w>
restle mania</w>
repe aling</w>
re tired</w>
ra geous</w>
r r
pi o
ol low
off ense</w>
o s:</w>
mu ch
mon um
mb a
ly Address</w>
lev d
la h</w>
k elly
k _
istr ic
int en
han g</w>
h ower</w>
gu tt
f /
es ser:</w>
ep it
en rich</w>
do b
dise ase</w>
deser ter</w>
cour t
co ck
char act
charact ers</w>
Week lyAddress</w>
Vot er</w>
U T
Tal ks</w>
Resol ve</w>
Res ul
OFF IC
Nebra ska</w>
N AME</w>
Me lissa</w>
Mat ti
J _
IT ION</w>
Hou se
Fin ance</w>
ES S
ES 2017</w>
Donald s</w>
Donald Trumps</w>
Detro it,</w>
Dem and</w>
D istric
Campa ig
CRU Z</w>
C rown</w>
Bru ce</w>
Bro ther
Bec k
Again st</w>
@thebla ze</w>
@seank esser:</w>
@litt levd
@kat yperry</w>
@k ing
@dalla smavs</w>
@br and
@bo ston
@The View</w>
@P r
@N H
@ wa
@ ak
25 ,000</w>
200 9</w>
12 :
10 3</w>
* *
#St and
# team
# ask
# WeeklyAddress</w>
y es:</w>
vic h:</w>
umb ia</w>
tri ump
telepromp ter</w>
stand point,</w>
st able</w>
ro b
ristot le</w>
pre existing</w>
p lo
p debate</w>
ord ination</w>
mor ning
mis represents</w>
low ens</w>
ll is</w>
k night</w>
h ill</w>
h es
gg er
fac e,</w>
f inger</w>
ex pressed</w>
ex erci
es e
dism al</w>
deleg ate</w>
d nc</w>
cus sing</w>
critic ism</w>
cont :</w>
co ordination</w>
can cel
c ops</w>
by e</w>
ber g,</w>
bb as</w>
appe ar</w>
apologi es</w>
any one,</w>
ak a</w>
ac hel
W y
W illi
S n
Ric ardo</w>
Re form
Qat ar</w>
Pr act
Patt in
P o</w>
P ls</w>
M IT
L ying</w>
IG N</w>
F our
El len</w>
E specially</w>
Clevel and,</w>
C RA
Bre aking</w>
Atl anta</w>
A ristotle</w>
A bbas</w>
@terrel lowens</w>
@t l
@g lenn
@fits news</w>
@V al
@The Re
@Sixteen Chicago</w>
@S a
@Rockin Joe
@Knight27 6:</w>
@B et
@ ge
#V A
vide os</w>
valu able</w>
ut u
tow n
sh ore</w>
robb ed</w>
rac king</w>
pt Vet
ptVet Af
pri v
predic tion</w>
penn y</w>
pe y,</w>
ob nox
n avy</w>
man d
lea king</w>
jo ins</w>
it ;</w>
inter f
insi sted</w>
in gre
ingre di
in ev
fa v</w>
exp an
embarra ssing</w>
eli zabeth</w>
domin ating</w>
do ses</w>
cou l
conne ct</w>
co lo
bir th
att y
ator :</w>
assi stance</w>
as pe
app are
al achi
Wint our</w>
W Gillespie</w>
Thanks and</w>
T He</w>
S hu
R ather</w>
Pro gram</w>
Po int
N ext,</w>
Miam i
McCar th
MA C
I OWA</w>
Cent er,</w>
Can ad
C ool</w>
C TION
@rosannascot to</w>
@megynkell y,</w>
@j u
@dcexam iner</w>
@M alachi
@Jeb Bush,</w>
@Ed WGillespie</w>
@De ptVetAf
@DHS gov</w>
@Byron York</w>
@ IC
@ En
9 8:</w>
4 :00</w>
/ 2017</w>
#The Ar
#S ave
# Inaugur
x ox
st ant</w>
ri :</w>
restaur ant,</w>
re sorts</w>
r anks</w>
question ing</w>
pol it
ph ys
pay for
payfor play</w>
min e
mexic an</w>
memor ies</w>
me t,</w>
lar ge,</w>
la ying</w>
j al:</w>
iley Cy
hu mble</w>
ham mer</w>
fo rum</w>
fli p</w>
fir st
fi ghts</w>
ess ential</w>
en gine
ele ven</w>
el a
e gy
dys fun
dre w</w>
count ability</w>
commer ce</w>
claim ing</w>
bor ing,</w>
be sides</w>
b an,</w>
ar ming</w>
app er</w>
allon Tonight</w>
alleg ations</w>
__ __
Wh enever</w>
W ill
Ukrain e,</w>
Ty pical</w>
Tam pa,</w>
TH AN</w>
T ere
T PP
Streng th</w>
Sp en
Sec y</w>
SHI P</w>
Ri o</w>
Re main</w>
RE X
Pe w</w>
PRESIDEN TIAL</w>
N omin
Mun jal:</w>
Mor gan
Moder n</w>
Mc Qu
L ow</w>
L ot
Islam ists</w>
He alth</w>
H ate</w>
Got ta</w>
Gi ving</w>
Fol ks,</w>
FRAU D</w>
F lo
Ex actly</w>
E AR
Dam on</w>
Christma s,</w>
C hampion
C er
C PAC
BRA VE</w>
BE AU
B on
B REX
B ,</w>
Angel o</w>
Ac countability</w>
A P
A J
@j m
@Trump Golf</w>
@M ileyCy
@H Munjal:</w>
@F ree
@ son
1 10</w>
#Deb ate
yourself :</w>
watch :</w>
ur ple
un heard</w>
un :</w>
u sa
tran scripts</w>
ta pes</w>
strate gic</w>
ste in</w>
stac les</w>
sig ned,</w>
sh ould
ses sion</w>
sal ary</w>
s the</w>
s j
roc ks</w>
roc ked</w>
ri g
ri an</w>
ren ch</w>
reck lessly</w>
r onald</w>
pr ic
pet ition</w>
p ts</w>
onzal ez
obses sed</w>
mon opo
memor able</w>
m ington,</w>
lo aded</w>
lif es</w>
laugh s</w>
ke y,</w>
inv iting</w>
in ti
id al</w>
he y,</w>
gradu ate</w>
ger y</w>
el din</w>
count y</w>
concer ns</w>
con fron
che m
bi l</w>
bankru p
b ite</w>
aston West
arti f
ann on
af rican
ace y
accomplish ment</w>
_ A
Z en:</w>
Y ING</w>
Whit estone</w>
We b</w>
St ud
RUSSI A</w>
REA D</w>
Pos itive</w>
P ers
O LO
N un
Me mbers</w>
IMM IGRATION</w>
He aring</w>
Har wood</w>
HE AL
Gad ha
Dum b</w>
De velo
D it
Co ach
CRA Z
Brook lyn</w>
Annu al</w>
Am en</w>
@m ichel
@li mbaugh</w>
@leez eldin</w>
@co ol
@c raz
@We Love
@T _
@Mark Halperin</w>
@M _
@H o
@F O
@E astonWest
@D rew
@D en
@ X
6 T</w>
5 3:</w>
200 1</w>
11 1:</w>
#C NN
x_ sha
wn fan:</w>
wh it
solu tion
sky sc
skysc rap
skyscrap ers</w>
s sm
s oul</w>
ren d</w>
re tire</w>
promis ing</w>
persist ent</w>
part icul
op tion</w>
me e
livi on</w>
kind a</w>
kas ich</w>
iz on</w>
iti on
gu y:</w>
fun ny,</w>
extr at
et ings</w>
ec k
dr one</w>
ces sion</w>
bu c
broad casting</w>
bi e
atel y
W ON</w>
Tru e
TU R
TA X
Scot land
S ex
Rober t
Re fu
OF F</w>
O wnfan:</w>
Mom ent
L uck</w>
Krist en</w>
Kather ine
Gum bel</w>
F l
Ent er
E state</w>
E arly</w>
Alex and
AN Y
@t x_sha
@ch rist
@_ Katherine
@US AT
@TalismanJohnny A:</w>
@Shar k
@S un
@Natasha Ownfan:</w>
@May or
@ ri
@ extrat
@ President
9/8 c</w>
30 :</w>
3 6:</w>
123 4:</w>
#NY Primary</w>
#Free OurMarine</w>
#C om
# Per
vic tim
under way</w>
un sustainable</w>
trou ble,</w>
thre e,</w>
terror ,</w>
ter ing</w>
sur ged</w>
success ful,</w>
struc t,</w>
strong )</w>
ste wart</w>
ste ve
ss ly</w>
soci ety,</w>
sh eri
sh all
secur ity
sch :</w>
s oo
s add
reci eved</w>
re sa_
ra ge</w>
q ,</w>
pre pa
pois oning</w>
pleas urable</w>
play off
per secu
one l</w>
ol ine</w>
oc cur
ob struction
o graph
ne v
n as
mo ,</w>
mis represent</w>
min or</w>
m illions,</w>
lu mps</w>
liter ally,</w>
leag ue,</w>
l tim
k erry</w>
job s)</w>
iti ons</w>
ir l
investig ated</w>
inaugur ation,</w>
i p</w>
help ful</w>
gu e
gu ard</w>
gri p</w>
gas oline</w>
f lam
f all,</w>
ex cav
every things</w>
er /
er/ Pelosi</w>
ep :</w>
enthusiast ic,</w>
encoura ges</w>
e than
drug s,</w>
dra wn</w>
disru ption</w>
disa bled</w>
devalu ed</w>
delusi onal</w>
de mean</w>
d d,</w>
cur b</w>
ch unk</w>
ce ter
can t,</w>
c arter</w>
c abinet</w>
bs news</w>
br and
bo b</w>
bi z
bi shop
be ings</w>
b ills,</w>
b a:</w>
aud ited</w>
ats u</w>
athle te</w>
assaul ts</w>
ar od</w>
appro ved,</w>
anL al
amaz ed</w>
al /
ago )</w>
after ,</w>
admi red</w>
acknowled ging</w>
acific Command</w>
ac y,</w>
_ am
W all,</w>
UNIT ED</w>
U n</w>
U L
Twit ter,</w>
ToGet Tough</w>
Ti me,</w>
There sa</w>
TV ,</w>
TR AVE
TRAVE L</w>
Syri ans</w>
Shul kin</w>
Schum er/Pelosi</w>
STR ONG
ST ATES</w>
S outh
S ally</w>
S ;
Rou ge,</w>
Re place,</w>
RU BI
R IC
PROSPER ITY</w>
Os so
Organiz ation,</w>
Ob struction</w>
ON E
OFFIC IAL</w>
NY C:</w>
Mot or</w>
Military /
Military/ Veterans</w>
Man chester</w>
Ma pp</w>
LaV ar</w>
Kom atsu</w>
K A
Ju an,</w>
Jind al</w>
Jer sey,</w>
JE B</w>
J am
In The
Health C
HealthC are,</w>
Gu ter
G lob
G C
FI X</w>
F ake
Emp ire</w>
Ele ction,</w>
Cruz s</w>
Cri me,</w>
Cor ker,</w>
Car son,</w>
COUNTR Y,</w>
Bernard ino,</w>
Be au
Be an</w>
B id
ASE AN
AF TER,</w>
AB C
A C</w>
@s un
@m j
@S ur
@P acificCommand</w>
@L ex
@Kier anLal
@K athy
@J P
@J L
@D ennis
@ ac
9 6</w>
16 ,500</w>
11 am</w>
( respectful</w>
( including</w>
( enthusiastic,</w>
( 30
$6 ,000,000</w>
$1 2</w>
$ 35
#F EMA</w>
# ASEAN
# 1:</w>
z el
z e:</w>
webs ite,</w>
w/ the</w>
vin ce</w>
temperat ures</w>
ta ined</w>
suic ide</w>
signific ant</w>
shar k</w>
sh er
s j</w>
revi val</w>
re mo
remo val</w>
purcha sed</w>
pa thetic
ore illy</w>
op ter</w>
ocr ity</w>
ne :</w>
medi ocrity</w>
jo king</w>
j une</w>
itt y:</w>
ir :</w>
inv ent
ill er
id able</w>
ic opter</w>
gre ats</w>
govern ors</w>
g ate</w>
form idable</w>
follow er</w>
ex it</w>
ester n</w>
es s:</w>
es ch</w>
embrac ed</w>
don ors,</w>
di vision</w>
dang er
d ale</w>
contribu ted</w>
consecu tive</w>
cho ices,</w>
car s,</w>
can ada</w>
bir d
ate red</w>
advis or</w>
adm in</w>
ab t</w>
ab or
a y:</w>
Wor kers</w>
We ak
W estern</w>
Vot ers</w>
Stre et,</w>
S S
Pl z</w>
Paul a</w>
Palestin ians</w>
P ure</w>
More land</w>
M I</w>
M B
Low ry</w>
Lead er,</w>
Lab or</w>
LA W</w>
L ight</w>
IGG ED</w>
H ill</w>
H ann
Emanu el</w>
Egy pt,</w>
EVERY ONE</w>
D ev
Cor re
Com m</w>
Ch rysler</w>
CL A
CAND ID
Agre ed</w>
@foxandfriend s:</w>
@ab c</w>
@W W
@USC G</w>
@Rich Lowry</w>
@R ow
@Piers Morgan</w>
@Governor Perry</w>
@F allonTonight</w>
@Ed ward
@Do ctor
@Ber nard
@ tro
@ Univision</w>
30 ,</w>
( via</w>
# save
# Mi
youn g
ud low</w>
ucker Carlson</w>
tou red</w>
tim es:</w>
tg omer
termin ating</w>
su es</w>
stre ss</w>
spe ed</w>
sh ining</w>
secur ing</w>
sche me</w>
s wif
respond ents</w>
rep ly</w>
rell :</w>
rel ated</w>
refu sal</w>
re v
r nc</w>
pe t</w>
parti san</w>
out ing</w>
op poses</w>
op i
on ce
of t
mom ent,</w>
mes :</w>
mer chan
merchan di
merchandi se</w>
mar riage</w>
ma themat
influ ential</w>
il s,</w>
ick ens</w>
high way</w>
ga ff
fr acking</w>
es /
entrepreneur s:</w>
energi zed</w>
endorse ments</w>
dri vers</w>
craz y
confu sed</w>
chan ce,</w>
bri gh
b illiona
as sy
and Freedom</w>
_ pe
Snow d
Sho oting</w>
ST AY</w>
S li
Pro p
Po pe,</w>
Pl us</w>
Pi stor
P owell</w>
O H</w>
New t</w>
MaraL ago,</w>
Lot tery</w>
Lin ks,</w>
L ONG</w>
K Y</w>
Jes us</w>
Jeff erson</w>
J ab
IT ,</w>
Hil ton:</w>
H BO</w>
Fre edom
Fil es</w>
F oo
Em my</w>
Du pree
De pression</w>
D ill
Coun c
Conserv atives</w>
Charle ston,</w>
Ca es
C r
C over</w>
C ANT</w>
Bus y</w>
B et
B ase</w>
Att kisson</w>
Ad ams</w>
@theh ill:</w>
@t win
@s l
@ralphre eds</w>
@d u
@ch i
@Wayne Dupree
@T uckerCarlson</w>
@P M
@LaraLea Trump</w>
@Faith andFreedom</w>
@Cha d
@ busines
7 9
5 M</w>
4 3:</w>
24 %</w>
200 1:</w>
#NCGOP con</w>
#Debate Night</w>
we l</w>
volunte er</w>
viol ate</w>
ver dict</w>
va 74
va74 36
va7436 6
va74366 57
v s:</w>
trou ble
t ender</w>
sing le
sil va7436657
sh en
see med</w>
re r
pre viously</w>
po st:</w>
out smart
of )</w>
no body,</w>
mens wear</w>
me ets</w>
luc k,</w>
long ed</w>
lo ca
loca ust</w>
liber ty
li sts</w>
land er</w>
l on
kjm kjm
k u
k o:</w>
k ies</w>
interview s,</w>
inev itable</w>
ier nst</w>
how ever</w>
ha ha
h ino
gre ta</w>
gradu ates</w>
golf ers</w>
fr ance</w>
for bes</w>
fiel ds</w>
er yl
ep ,</w>
develop ed</w>
destin y</w>
dead line</w>
d der
ct ors</w>
craz y,</w>
compre h
com e,</w>
c ard
c ad
bra g</w>
ble ssing</w>
bl ue
bal d</w>
as sign
arra y</w>
al izes</w>
al ig
ago :</w>
abo lish
Y A</w>
Wat er
Wa iting</w>
W olf</w>
Vot ing</w>
Tax es</w>
Sto cks</w>
Shar on</w>
Sec ure</w>
Regul ations</w>
Re ady</w>
Qat ar,</w>
Pla y</w>
Pattin son</w>
Pas sion</w>
Ob server</w>
Lu x
LOV ED</w>
L am
Kell y,</w>
Jami e</w>
IN SPIR
Honest ly</w>
GI VE</w>
Fav or
Eisen hower</w>
Cre dit</w>
Cor respondents</w>
Atl anta
A +</w>
@sam c
@r hino
@k iss
@jon iernst</w>
@j silva7436657
@M is
@Jo el
@G Zer
@A ustin
@ liberty
@ YouTube</w>
7 PM</w>
6 ,000</w>
5 8:</w>
5 50%</w>
4 5:</w>
0 9</w>
$1 25</w>
y llis</w>
win ston</w>
win dow
vin _
vacc ines</w>
v ows</w>
ust in</w>
un matched</w>
travell ed</w>
swe aring</w>
st ats</w>
se mbly</w>
s lan
roll ment</w>
ri ses</w>
reimbur se
re play</w>
possibil ities,</w>
p ga</w>
out side,</w>
or y
on s
ne sses</w>
low ers</w>
lo st
l ac
kno cking</w>
inve stors</w>
inter venti
in gh
igno red</w>
ic ah
http:// www</w>
hel m</w>
gu ardi
gi ous</w>
gener ate</w>
en u
e uro
deduc t</w>
collu de</w>
chest er,</w>
char ging</w>
bri an</w>
bor n,</w>
benef its,</w>
analy st</w>
ah rain</w>
Watch ,</w>
War ner</w>
W illiam
Tor on
TOGE THER</w>
T W
Sub committee</w>
Stew art
So ho</w>
SOT U</w>
SE E</w>
Pla ying</w>
Ph yllis</w>
P ay
Op tim
O re
Mill er
Middle East</w>
Miam i,</w>
Mar ket,</w>
LI ES</w>
LE TS</w>
Jud d</w>
Ivank a,</w>
Indiana polis</w>
H IRE</w>
Gu ardi
Gri ffin</w>
G am
E states</w>
D ue</w>
Childre ns</w>
Ch ev
CON GRAT
Br inging</w>
B ahrain</w>
As sembly</w>
Ar ri
Ange lo,</w>
@t op
@s al
@Rust y
@Pol itic
@P am
@Michael P
@Jo ey
@Howard Kurtz</w>
@Bet sy
@B eli
@An gel
@Aberdeen CC</w>
@ABC 2020</w>
@ ther
@ Greta</w>
7 th</w>
5 9
4 8%</w>
4 7:</w>
25 th</w>
y lan
y ard
world class</w>
wi de
ve h
u tter</w>
tweet s,</w>
trou bled</w>
tor onto</w>
ta pe,</w>
t um
sympath ies</w>
sugge sting</w>
st agn
sing er</w>
sha res</w>
sh out</w>
reco vered</w>
public ,</w>
professional s</w>
present ation</w>
pract ice</w>
pho eni
particip ating</w>
one y:</w>
no s</w>
it )</w>
int h</w>
int ed</w>
indust ries</w>
inaugur ation</w>
il :</w>
ic ked</w>
hi kes</w>
h onest,</w>
g er:</w>
ful l
for d,</w>
fl a</w>
fif ty</w>
ff er</w>
es n
er d</w>
educ ate</w>
de voted</w>
de sign
contro l
conserv ative,</w>
care s,</w>
bank s,</w>
ay le
an ces</w>
am ong
a stron
Y ay</w>
Wind mills</w>
Wh ere
W OULD</w>
Vie w
VE N</w>
Tur n</w>
Sis i</w>
S G</w>
Ro ck:</w>
Rho de</w>
Represent atives</w>
Patak i</w>
P ush</w>
P ower
Nic hol
Moment um</w>
Micha el
Lind a</w>
Lat inos</w>
Jo sh
J i
Islam ,</w>
Ind ust
Histor ic</w>
Hispan ics,</w>
H uma</w>
F t</w>
F :</w>
E AS
Do yle
Cla ss
Cir cu
Br ing
Bi bi</w>
Am bassad
Am b</w>
A rent</w>
@k wr
@jo e
@gateway pundit</w>
@bahia60 85</w>
@Pe ace
@N J
@N AS
@Lu ke
@Forbe s
8 64:</w>
3 4</w>
$1 B</w>
# Bring
we stern</w>
vot ers,</w>
vi sas</w>
uli ana
uliana Rancic</w>
uc t
tru cks</w>
thom as</w>
t ually</w>
t is</w>
t ation</w>
sol ut
so m</w>
snow ing</w>
slea ze</w>
russi a,</w>
run ch</w>
ru led</w>
ri ot</w>
revo ked</w>
rede ema
real ,</w>
path way</w>
ous ly,</w>
ope c</w>
one si
nic ks</w>
ni pi
mun do</w>
mour n</w>
micha el</w>
mba i</w>
mar alago</w>
manipul ator</w>
li an
kne el</w>
ity TV
ityTV B
ityTVB li
ir redeema
ine d,</w>
incompet ent,</w>
im person
her ald</w>
good s,</w>
geor gia</w>
ff s,</w>
ex ports</w>
egy pt</w>
do :</w>
difficul ty</w>
di spo
destabil ized</w>
dela ys</w>
def ends</w>
condem ns</w>
comp are</w>
co very</w>
ch opping</w>
box es</w>
aren dram
app lau
and mike</w>
americ a,</w>
achie vements</w>
account ants</w>
Year ,</w>
Wednes day,</w>
War mb
WORK ERS</w>
Vir tually</w>
VI E
Un fair</w>
U R
Tu mp2016</w>
To le
Th ree</w>
Ser ies</w>
San ctu
S ure</w>
S am</w>
S OU
Republic an,</w>
Real :</w>
Quin nipi
Qu ot
Per vert</w>
Part ner
PAC ,</w>
PA Y</w>
P ere
NY T</w>
Mur ray</w>
Mo ines,</w>
Min ist
List en,</w>
LEAD ER
KE EP</w>
Je b,</w>
I vy</w>
H op
Ge ts</w>
Fr ack</w>
For Our
E V
De ath</w>
Dang erous</w>
DO MIN
D ad
D M
D C:</w>
Col umbia</w>
Char ity</w>
C hampionships</w>
Black dog</w>
BE CAUSE</w>
Au th
Al ong</w>
A yrshire</w>
@n arendram
@k enny
@brithu me</w>
@Ricardo Rossello</w>
@Real ityTVBli
@O wen
@MittRomne y,</w>
@M itch
@M ic
@Jim my
@Gi ulianaRancic</w>
@CB S</w>
@Bri an
@A ar
@ deb
@ Vote
5 0,000</w>
#Stand ForOur
# fox
# Tump2016</w>
# Th
y e</w>
worl d:</w>
wh eres</w>
wa ys
w t
uni fy</w>
tho od</w>
surr ounding</w>
supp ly</w>
se c</w>
s ooo</w>
on n
ob jec
negoti ation,</w>
nat i</w>
mon d,</w>
mode l,</w>
m art</w>
liby a</w>
le dge</w>
la y</w>
la st
insul ted</w>
in nati</w>
ick y
h s</w>
gn ore</w>
ge m</w>
fri ght
es sive</w>
educ ation,</w>
disa ster
differen ces</w>
di vid
deman ded</w>
de cre
dd le</w>
d /
cont ent</w>
congre ssional</w>
comp on
com ey</w>
co ol
ci al,</w>
at s:</w>
ann :</w>
andre w</w>
af ghan
adv oc
ac ar
ac :</w>
W OM
WOM EN</w>
US ,</w>
UN ITY</w>
Syste m</w>
ST AND</w>
S mar
S at</w>
Rou ge</w>
Republic an
Repe al
RUBI O</w>
RE ,</w>
Pennsylv ani
Paren thood</w>
PL OR
Orlan do,</w>
ORe ill
Ma sters</w>
Liby an</w>
Li f
Leg al</w>
Lar a</w>
L t</w>
L A,</w>
Jackson ville</w>
IS H</w>
I gnore</w>
HILL ARY</w>
Gu ide</w>
FLIGH TS</w>
F rench</w>
Exclusi ve:</w>
EX C
E ste</w>
Cy ber</w>
Connecticu t,</w>
B ol
Au gu
A ppe
A pp</w>
@realdonald trump,</w>
@p ga
@k a
@Super Bowl</w>
@O prah</w>
@House GOP</w>
@GolfDigest Mag</w>
@George Will</w>
@Beaumont Anthony:</w>
@ at
@ Christian
@ 3
9 8
9 0%</w>
19 41</w>
11 2</w>
0 7:</w>
#VoteTrump NH</w>
# oscars</w>
# Repeal
# MSM</w>
z ar</w>
xon mo
xonmo bil</w>
week ly
we st
wan t
wa ve</w>
ve st</w>
un think
un acceptable</w>
ti sm
thu g</w>
testim ony</w>
t C
strength ening</w>
sour ces,</w>
sol ving</w>
si ster</w>
represent ation</w>
re minds</w>
re in</w>
pl ants,</w>
pack age</w>
pa th,</w>
nev ada</w>
ne ll</w>
middle broo
me ;</w>
m all
lifel ong</w>
lem en,</w>
legisl ative</w>
kind ness</w>
k middlebroo
just ice,</w>
investig ate</w>
influ enced</w>
ide as,</w>
happ y
gr ades</w>
fortune ,</w>
form s,</w>
fle w</w>
extor tion</w>
ell vi
domin ate</w>
dis advantage</w>
deli ghted</w>
d dy
confir m</w>
ch urchill</w>
cau ght,</w>
br illi
boar ding</w>
aspe cts</w>
appro ving</w>
app lying</w>
ano i,</w>
anna Sp
annaSp illy
ag :</w>
ack o</w>
ac ul
Vine yard</w>
T ri
Spr ings,</w>
Sch warzenegger</w>
Sad dam</w>
Report :</w>
Re ve
R N
PE ACE</w>
PA OLO
PAOLO MON
PAOLOMON N
P ass</w>
P H
Ot to</w>
ON S</w>
News )</w>
NEW S,</w>
Mel ani
Mar sha
Ke ep
Islam ist</w>
IN NOV
Hypocr ite</w>
H anoi,</w>
G 7</w>
For President</w>
Fo rum
FAM IL
Ema il</w>
Ea stern</w>
ER PAOLOMONN
Dru dge,</w>
De fund</w>
De duc
D V
Count ing</w>
Cater pill
Buil t</w>
Bu re
Be th
BL UE</w>
B ank
Asi ans</w>
Abbot t</w>
@mitch ellvi
@m ik
@g ar
@ex xonmobil</w>
@esp n
@YankeeRunner L
@Steve Scalise</w>
@Red State</w>
@Pri me
@PI ERPAOLOMONN
@Don ny
@De annaSpilly
@Charles Hur
@B rent
@4 kmiddlebroo
0 00</w>
/ Washington</w>
#Trump4 President</w>
#Election 2016</w>
# no
wonder ful,</w>
w/ o</w>
unlim ited</w>
tre ats</w>
tor ture</w>
ti onal
ti en
tien hugh
thre w</w>
the ory</w>
th ur
th i
t all</w>
st i
spe cul
sk y:</w>
simp li
sel dom</w>
se p
se less</w>
safet y,</w>
s wear</w>
ri bbon</w>
ret t</w>
re stra
ra il
play er,</w>
ph oney</w>
p raises</w>
out The
not ch</w>
negoti ates</w>
naf ta</w>
me l</w>
ke ted</w>
jer k</w>
it ing
individu al,</w>
in version</w>
il ox
head lines</w>
ha ust
fre ed</w>
foun der</w>
fin i
ex haust
et The
ei gh
e e:</w>
destro ys</w>
cr ack
co ordin
co he
c_ org:</w>
as _
artic les</w>
a im
_pe te:</w>
Warri ors</w>
WAT CH
V IS
TRUMP S</w>
Smi th:</w>
Sch la
S co
R am
Pen ce,</w>
P PE
O VER</w>
Mc Laugh
MONE Y</w>
Lo esch</w>
LI VE:</w>
Incre ases</w>
Ho st</w>
H ence,</w>
GO T</w>
G AN
Fi el
De al
Davi d,</w>
Christop her</w>
Carol inas</w>
Bar rel</w>
B omb
B ain</w>
Auth ority</w>
Ar ch
Ander son
Al len</w>
AN :</w>
A V
@woo fe
@washing ton
@scot tienhugh
@lou dob
@li sal
@kekse c_org:</w>
@k athy
@johnny 4
@glenn beck</w>
@USAT O
@T ele
@Speaker Ryan</w>
@De ad
@DannyZu ker:</w>
@D Loesch</w>
@C an
@B la
@Ann D
@A u
@ har
@ cur
9 3:</w>
50 th</w>
11/8/ 16</w>
0 6</w>
ven :</w>
utch ess</w>
ug ene</w>
u sa:</w>
tomor row
th le
telepromp ters</w>
str ation</w>
ste st</w>
spons or</w>
s c</w>
quot e:</w>
pro be</w>
per form</w>
pe cted</w>
owsk i:</w>
overwhel ming</w>
on T
no ting</w>
n h
n ations,</w>
my ers:</w>
medic are</w>
manipul ating</w>
main tain</w>
loc ations</w>
l ame</w>
key noting</w>
k im
izz a</w>
it ed
int ent</w>
happ iness</w>
gr ab
gentle man</w>
g le
g ically</w>
for cement</w>
fa stest</w>
ext ended</w>
exerci se</w>
dri ver</w>
displa yed</w>
d aniel
critic izes</w>
cou ld
compas sionate</w>
cheer leader</w>
ca se,</w>
bre ath
brac kets</w>
br ady</w>
ber gdah
augh :</w>
ass ment</w>
ad vic
act or,</w>
Wom en</w>
W /</w>
V o
Un ity</w>
Tur key,</w>
T roll
T rain
S lam</w>
S el
PRI MA
POLL S</w>
Off ic
ON CE</w>
O IL</w>
NAF W</w>
JU DG
Ivank as</w>
Indi a,</w>
H IS</w>
Guter res</w>
Gi ants</w>
Geral d</w>
Fam il
En forcement</w>
Dis cussing</w>
DU MB</w>
D utchess</w>
D anny
Cor p</w>
C oll
Blue Monster</w>
A_ NAFW</w>
AL ago</w>
AG RE
A tri
A thle
@caleb 220
@b ar
@Law rence</w>
@Jo se
@JB A_NAFW</w>
@DeannaSpilly ard:</w>
@David_ Bossi
@Bill Kristol</w>
@BackOnTrack USA</w>
@BackOnTrack USA:</w>
@Antonio Guterres</w>
@ po
@ col
@ TH
8/ 7
8/7 c</w>
8 6:</w>
7 ,000</w>
50 s</w>
4 5%</w>
3 %,</w>
201 1:</w>
/ gallon</w>
#Bring Back
yl or</w>
ward s
wa ves</w>
unt er
to o:</w>
tag on</w>
ta ke
st one</w>
sho ck</w>
secret ly</w>
ri f
ri e
restor ing</w>
ref erence</w>
pro posing</w>
pre serving</w>
po sted</w>
pa io</w>
p ace</w>
no :</w>
n or</w>
mis er
lo w,</w>
lo v
li ve
leb lower</w>
lea k</w>
je wel</w>
itz g
itzg erald</w>
institu tions</w>
ik ki
idd ich</w>
i shes</w>
hoo d,</w>
hol der</w>
h it,</w>
golf :</w>
ff :</w>
f iddich</w>
eleg ant</w>
dysfun ctional</w>
doub t,</w>
disapp oint
def ended</w>
day )</w>
d ings</w>
cra fted</w>
co ff
clo se
civil ized</w>
ca ps</w>
c ategory</w>
bom bs</w>
be s
assi st</w>
apprent ice,</w>
an x
an n</w>
ampan ell
accep ting</w>
_ l
Y R
Wor k
Woo dy</w>
W /
S lams</w>
Pl ace</w>
Pen tagon</w>
N one</w>
N C:</w>
MAC YS</w>
Lo sers</w>
JO KE</w>
J en
In c</w>
IM PORT
I ANS</w>
Ho locaust</w>
HI M</w>
H S</w>
Go es</w>
Fri day,</w>
EN CE</w>
De an</w>
C ou
B arack
An ne
Am erci
Agre e
@se an
@mboyle 1</w>
@m s
@m k
@jeb bush</w>
@extrat v</w>
@ag schneiderman</w>
@Vanity Fair
@T er
@Malachi Nor
@Lord_ Sugar
@Late Show</w>
@H unter
@Governor Pataki</w>
@Go d
@DiamondandSil k</w>
@ man
3 4
2 9%</w>
#Trump Tower</w>
win :</w>
un real</w>
un fair
uck y
tough ness</w>
time less</w>
t )</w>
sta irs</w>
sell s</w>
ry an
rememb ering</w>
pro vement</w>
p aul
out look</w>
o kay,</w>
ma de
m ack
le ys</w>
l ings</w>
l ack
kev in</w>
j en
is m
inst rum
ie f
htt p</w>
hil arious</w>
h Abedini</w>
gutt ed</w>
gin s:</w>
ge ar</w>
fre e,</w>
fi fth</w>
famil y
evil le,</w>
ele cting</w>
ed _
dro ve</w>
dram atically</w>
de Nast
crimin als,</w>
continu es,</w>
conserv ation</w>
conne cted</w>
compet ing</w>
call um</w>
c s</w>
c auti
ate Dept</w>
arent al
al _
aghme hAbedini</w>
Wood s:</w>
Wi reless</w>
Un fortunately,</w>
TPP ,</w>
TI FUL</w>
Sur prise</w>
RE S</w>
R ex
Prie bus</w>
M ight</w>
M ar</w>
Isra els</w>
Gir ls</w>
Geral dR
G lo
Eng lish</w>
Christian ity</w>
Ch er
C S
Bl on
BREX IT</w>
BEAU TIFUL</w>
@w sj</w>
@h oward
@a j
@U N</w>
@TrumpNational NY</w>
@T S
@St ateDept</w>
@Sher iff
@O ut
@N aghmehAbedini</w>
@MileyCy rus</w>
@K arental
@Josh ua
@Ivanka Trump:</w>
@GolfDi gest</w>
@Con deNast
@ sen
@ andy
4 /
12 ,000</w>
0 M</w>
#USS GeraldR
#SC Primary</w>
zz a</w>
w the
v Al</w>
ul u</w>
tweet s:</w>
th in</w>
sun k</w>
sty les</w>
so ho</w>
sk ins</w>
servic e
scrip t:</w>
request ,</w>
read ers</w>
r illo
pun ches</w>
p raising</w>
oun ce</w>
off ensive</w>
month ,</w>
love :</w>
lem al
lemal kin</w>
im posed</w>
il ey</w>
how s</w>
he m
h l</w>
go :</w>
gg s</w>
ge me
fin e
fiel d
fa re,</w>
f eller</w>
eag les</w>
di a</w>
deb ate
da s
chem ical</w>
be st:</w>
are d
ain e
acc us
a D
_ jo
Z ach
Y ankee</w>
X T</w>
Wein ers</w>
Tur ner
Th re
Stre et
S; P</w>
S k
Rocke feller</w>
Re cent
Pr ice</w>
Pho to</w>
P ort
NE XT</w>
Med al</w>
McConne ll,</w>
M ason</w>
M US
LI F
LIF E</w>
Ku sh
Ke y
Kar za
K er
K ay</w>
He ad
H ud
H ag
Great ly</w>
F IGH
East wood</w>
Da ys</w>
D on,</w>
D aniel
Corpor ate</w>
Co x</w>
Car din
CRAZ Y</w>
C auc
Bla sts</w>
B s</w>
B annon</w>
Ar m
Am er
@s usan
@rhino 84
@rhino84 84
@mike andmike</w>
@michel lemalkin</w>
@car rillo
@b ra
@b politics</w>
@W WE
@Tea Party
@MS NBC</w>
@Joe _
@Hou ston
@H BO</w>
@AplemonLe mon:</w>
2 M</w>
12 pm</w>
10 00
$ 30</w>
#F ox
#CNN Debate</w>
# donaldtrump</w>
# Obama</w>
you tube</w>
wor ds:</w>
woo d:</w>
wa :</w>
vis ed</w>
un constitutional</w>
to day:</w>
sty le,</w>
stud ying</w>
statist ically</w>
sha king</w>
scre am</w>
sal aries</w>
rev ital
ra d</w>
pl s</w>
personal ity</w>
ot :</w>
ob livion</w>
necess ary,</w>
ne ed,</w>
nail ed</w>
n ail</w>
mot or
ment ed</w>
lu v</w>
li s,</w>
les son</w>
kk ah</w>
kill ings</w>
kil ea
iver a</w>
instin ct
ge d,</w>
g g</w>
floo ding</w>
ev en,</w>
eral dor
eraldor ivera</w>
en rollment</w>
dra wing</w>
domin ated</w>
compreh ensive</w>
comment ing</w>
charlott e</w>
ca st,</w>
brigh test</w>
bl amed</w>
b s:</w>
ats B
atsB en:</w>
anu kkah</w>
amaz on</w>
al i</w>
adill acc
adillacc hamp</w>
activi sts</w>
ab i
_ I
Young stown,</w>
Virgin ias</w>
U B</w>
Tim es:</w>
Tal ent</w>
T oo
T an
SP B
Ro ve,</w>
Resul ts</w>
Pri me
PR OU
PL A
N az
May er
Matt :</w>
Ma kes</w>
MU R
Low est</w>
LI E</w>
L ine</w>
L IN
Ko ch</w>
J enni
He ad</w>
Ham il
Gin sburg</w>
GREA T,</w>
Ch anged</w>
Car ter,</w>
B AL
Ar l
ARo ds</w>
AN OTHER</w>
A re
@te am
@luc as
@le e
@g eraldorivera</w>
@c adillacchamp</w>
@US A
@Shark Greg
@Red Cross</w>
@R SPB
@M art
@Ke atsBen:</w>
@DNor rell:</w>
@C abinet</w>
@Alex Sal
@ 10
30 th</w>
#USS John
#Never Hillary</w>
# Go
your selves</w>
yce Goodman
y ers,</w>
y en</w>
work er,</w>
wor st,</w>
wild life</w>
wild fires</w>
well being</w>
we aker</w>
war ding</w>
w it</w>
visi ons,</w>
viol ations</w>
v ile</w>
up news</w>
un named</w>
uclear ,</w>
toler ate</w>
ti rele
tirele ssly</w>
ti anie
them selves,</w>
sy n
suppor t
succe eded</w>
su n</w>
su ms</w>
state d,</w>
st iff</w>
st ation</w>
sp ray</w>
sound ly</w>
slaugh ter,</w>
slan ted</w>
simpl er</w>
sid er:</w>
si x,</w>
separ ately</w>
selfinspe ct</w>
secu re,</w>
scor ned</w>
sal es,</w>
ru les,</w>
re serv
re rs</w>
ra y:</w>
pun ished</w>
pro vision</w>
princip als</w>
primar ies,</w>
prevent able</w>
pre serve</w>
pha se</w>
particip ated</w>
pa ge,</w>
p ile</w>
p act</w>
over throw</w>
over come</w>
over all</w>
out played</w>
ou ri
or _
oo s
obamac are,</w>
ne e
n uclear,</w>
mur de
mistre ated</w>
me ister</w>
man n
lin ,</w>
lea ving,</w>
lar ger,</w>
landsli des</w>
la sting</w>
kne es</w>
kin s:</w>
k ers,</w>
iz e,</w>
it ment</w>
isco ,</w>
is ol
ira q,</w>
introduc tion</w>
ino s,</w>
ineff icient</w>
in fe
in Prop
inProp P:</w>
ili ation</w>
ig g
id er:</w>
id ated</w>
i fication</w>
hy po
human ity</w>
human itarian</w>
hero in</w>
h ate,</w>
h at,</w>
gentle man,</w>
gard an
gardan is:</w>
fri sk</w>
fix ed,</w>
fin ed</w>
fav our
fanta stic,</w>
fa th
extremis m</w>
expen sive,</w>
exc essive</w>
ev ing</w>
ev es</w>
entrepreneur ,</w>
enti rely</w>
ent rance</w>
eng er,</w>
enc es,</w>
el len</w>
eff ici
econom ics</w>
dream s,</w>
drain ed</w>
dow ns</w>
do es
disp ar
decep tion</w>
d ate,</w>
cor i
con fined</w>
compas sion</w>
col orado</w>
ch alleng
car l
call ,</w>
c up</w>
bro ken,</w>
bo ther</w>
b rown
att ac
attac ked,</w>
as ons</w>
any ways</w>
announ ced,</w>
amp ed</w>
all upnews</w>
al ready,</w>
al one,</w>
advis ing</w>
ad vers
acti ons,</w>
_E as
YOU RS</w>
WIN ,</w>
U ltim
U :</w>
To y
To dd,</w>
TOT ALLY</w>
TAX ES</w>
St ri
St and
Sen ator,</w>
SO ME
Run ning</w>
Ro bb</w>
Reli ef</w>
RE ST
RE DI
REDI BLE</w>
Ph illy</w>
Partner ship,</w>
Page ant,</w>
PGA :</w>
P enn
P OTUS,</w>
Obama :</w>
Norfol k,</w>
NR A,</w>
N J
MIT ED</w>
M id
M VP</w>
Li st</w>
Lear n,</w>
Le ster,</w>
Lat inos,</w>
LI MITED</w>
LE AG
LEAG UE</w>
K am
Ju an</w>
Jer ome</w>
Je ws</w>
Je b
J ason</w>
It ll</w>
INC REDIBLE</w>
I di
Har ris
Har bor
H ER</w>
Goo dell</w>
Git mo,</w>
F az
ED ITION</w>
E G
Dur st</w>
Du b
Den mark,</w>
DEM OC
DE AT
DEAT H</w>
D aw
Con v
Con sid
Con diti
Col ombi
Cha ir</w>
CH AM
C ity
Bet ween</w>
B RO
Ad diti
AC TION</w>
@william gardanis:</w>
@sin tianie
@m ich
@m at
@jimlibertari an:</w>
@itsRyan Hilton:</w>
@g allupnews</w>
@billma hers</w>
@Warren Buffett</w>
@W inPropP:</w>
@VeryOddDo g:</w>
@US S
@TheBig _Eas
@TM Z</w>
@S ch
@S andra
@Mr In
@M oo
@KieranLal or</w>
@Jo yceGoodman
@Jam ie
@H ot
@H olly
@Apprentice NBC:</w>
@ pers
7 1</w>
24 day</w>
200 9,</w>
2 11:</w>
18 1:</w>
16 th,</w>
16 ,</w>
16 %</w>
15 ,</w>
12/ 3</w>
, 6
( he</w>
$1 84</w>
#Super Bowl</w>
zer o,</w>
worth less</w>
ur o</w>
un ions</w>
un grateful</w>
t end</w>
star ved</w>
st ically</w>
so ft
sic k,</w>
se aled</w>
sci ence</w>
re perc
reperc us
pre n
polic ies,</w>
on y,</w>
o ath
oath ,</w>
numb er,</w>
no one</w>
mexic o,</w>
ma r</w>
ke st</w>
j et
int ro</w>
ing tonpost</w>
ing ed</w>
in ful</w>
imagin e,</w>
i sa
how ard</w>
hoo ds</w>
hispan ics</w>
ge d
fragr ance</w>
ff ingtonpost</w>
ers ch
er ity</w>
equ ally</w>
ener gy
employe es,</w>
e 5
du de</w>
dele te</w>
d ),</w>
cu r</w>
coo lest</w>
con ceived</w>
con ce
comment ator</w>
clo set</w>
civil ian</w>
butt on</w>
break fast</w>
appe ared</w>
again )</w>
accur acy</w>
aband on</w>
a ho
Who ever</w>
W ant
U K:</w>
Tou rism</w>
Time pieces</w>
Th ought</w>
TR ILLION</w>
Se eing</w>
Sand ers
Sa eed</w>
S TRU
Ro ad</w>
Re id</w>
R IGGED</w>
Prosp erity</w>
Pri vate</w>
Per ry,</w>
POL ICE</w>
P arent
Octo ber,</w>
OU TS</w>
Mu sic</w>
Mis sed</w>
L ies</w>
Ke ith</w>
Just in</w>
J ong</w>
In clu
IN S</w>
Hon ol
Her itage</w>
H IC
Five Star</w>
E T
D al
Colum bus,</w>
Cinc innati</w>
Ag enda</w>
AT T
A broad</w>
@tr ace
@puppyslu g:</w>
@p at
@ny t
@not_that_ actor</w>
@miss universe</w>
@jsilva7436657 2:</w>
@j or
@hu ffingtonpost</w>
@fox es
@busines sinsider</w>
@Z ach
@P R
@M AR
@Cla re
@ fl
7 9</w>
7 5</w>
200 4,</w>
10 :30
10 3
1/ 2</w>
, the</w>
#POTUS Abroad</w>
#NH Primary</w>
wre ck</w>
wr ite
what so
weap on
wa g
uni fied</w>
un willing</w>
un solved</w>
ul se</w>
tro phy</w>
su ppre
stor s,</w>
steel workers</w>
sovere ign</w>
so ars</w>
situ ations</w>
sion ing</w>
sign age</w>
sens itive</w>
sch um
sar ca
s me
s lowest</w>
rott en</w>
ro ast</w>
ris is</w>
ri g</w>
report ing,</w>
re solute</w>
r ound
round table</w>
r al
purcha ses</w>
program s,</w>
pre fer
pol lu
pa ge
op :</w>
oll s</w>
o tism</w>
neg le
ne s:</w>
nam ent</w>
mil es,</w>
mi sh
mean ing
ll :</w>
line up</w>
lin col
lincol n</w>
like wise</w>
like wise,</w>
land scape</w>
key e</w>
je ff</w>
j f
iti ous</w>
inter rup
ing e</w>
incre asing</w>
in frastructure,</w>
id ent
i Phon
http s:</w>
ho stage</w>
happ ily</w>
hap s,</w>
git mo</w>
gener als,</w>
g lam
f ascinating</w>
execu ted</w>
entrepreneur ship</w>
ene ws</w>
easi est</w>
earth qu
dis da
dep lo
dat a,</w>
cur rency,</w>
cre ator</w>
controver sy</w>
cont ext</w>
comm it</w>
clo su
cli ps</w>
ch ick
car p
c ity
bo :</w>
big ger,</w>
ber to
additi on,</w>
ad missions</w>
ad a:</w>
a ks</w>
Wil mington,</w>
Trump _
Tour nament</w>
Snowd en,</w>
S even</w>
Row anne</w>
Re ce
REMEMB ER</w>
Pro gress</w>
Ph one
Perf ec
POW ER</w>
P ulse</w>
P ickens</w>
McC ain
Ma ster</w>
List ening</w>
Li ves</w>
Le ban
Jud ges</w>
Hun dreds</w>
Hou ston,</w>
HISTOR Y</w>
HEAL TH
H IGH
Georgi a,</w>
G ard
Fo ot
ENOU GH</w>
De als</w>
D ID</w>
D C,</w>
Commit te
Clear ly</w>
Cha ir
Cauc us,</w>
Caes ars</w>
C risis</w>
Brav o</w>
Bo one</w>
BUS IN
B old</w>
Ar seni
Ail sa</w>
AR D</w>
AL ,</w>
@tim kaine</w>
@ny mag</w>
@mboyle 1:</w>
@be l
@Thom as
@T ony
@Se th
@R ay
@K rist
@GZer vs:</w>
@Frank lin_
@DannyZu ker,</w>
@DRUDGE_REPOR T:</w>
@D u
@ tri
@ tra
@ pr
@ REAL
8 00,000</w>
77 77
6 2%</w>
3 1,000</w>
25 %,</w>
2 1st</w>
11 :
1 :30
, who</w>
$7 00,000</w>
$1 6T</w>
$1 ,000</w>
# un
# Ro
zz y
y all</w>
w er
vac ations</w>
ure d,</w>
unlea shes</w>
tt e</w>
tou rists</w>
top ic</w>
the ories</w>
sp li
spli t</w>
sell out</w>
s N
religi on,</w>
refuge es,</w>
ray forme
profess or</w>
pro hib
privil e
poll :</w>
poc ket</w>
pl um
pipe lines</w>
ou ts</w>
oo vin_
norm ally</w>
ni er</w>
neg ative,</w>
monopo ly</w>
lo we
le ans</w>
l ining</w>
k ers
je welry</w>
issu ing</w>
ious ly,</w>
inj ured,</w>
in fil
im ,</w>
illi e
identi fied</w>
ho pefully,</w>
ha bit</w>
golf ing</w>
gg ers</w>
gam e
ful filled</w>
fre qu
fair ,</w>
elect oral</w>
ele v
e go,</w>
doz en</w>
dish onest,</w>
di :</w>
decade s,</w>
de signs</w>
cour t:</w>
commod ity</w>
col m</w>
c unning</w>
c itys</w>
back :</w>
at ing
ani el</w>
and um</w>
analy zing</w>
ampanell i</w>
admi rer</w>
accol ades</w>
ac a
a pe
_ O
Z og
Wor se</w>
VOT ER</w>
Univer se,</w>
Un fortunately</w>
Te o</w>
T EX
S ide</w>
Re ceived</w>
Q s</w>
PR IC
OBAMA CARE</w>
Mu ir</w>
Memor andum</w>
Mar ino</w>
Mar co,</w>
Mana fort</w>
Mal colm</w>
MAJOR ITY</w>
M H
LO S
L ines</w>
Krav is,</w>
Juli an</w>
In competence</w>
IL L</w>
Ge e
FAIL ED</w>
D ra
D _
Congratul ation</w>
Celebr ate</w>
C ash
Ass ange</w>
@ta ylor
@mo oovin_
@d p
@Y oun
@Spe cial
@Ro sie
@P rayforme
@N ot
@Mar tha
@L au
@D C
@Ch er</w>
@ ap
9 0:</w>
11 th,</w>
00 7:</w>
$1 T</w>
# president
z an
yor k,</w>
wom en
withdra wn</w>
wi res</w>
wh e
we ars</w>
wall ace</w>
umb er
u se,</w>
tran sp
tra it
trait or,</w>
t il
suic idal</w>
spo kes
sh ark
s ong
s F
run )</w>
rela x
re visit</w>
re s:</w>
r dy</w>
qui et
prospe cts</w>
ph ants</w>
p m,</w>
od ds</w>
oc cupy</w>
ob stacles</w>
o h
multi ple</w>
mo on</w>
mes sing</w>
low life</w>
loop holes</w>
ke Up
keUp America</w>
it s)</w>
interventi ons</w>
insi st</w>
incredi ble
in i:</w>
immigr ants,</w>
h er:</w>
gett able</w>
gent lemen,</w>
fron ting</w>
for gettable</w>
foot print</w>
first ever</w>
fin ally,</w>
even ings</w>
ess ence</w>
eral d
doz ens</w>
displa y</w>
disman tle</w>
declar ing</w>
da vis</w>
conqu er</w>
concer n</w>
ch ess</w>
cau ses</w>
c hamp</w>
business people</w>
bra vest</w>
bor ing)</w>
boo t</w>
b ines</w>
az z
att ack
argu ments</w>
any :</w>
am endment,</w>
al e,</w>
al )</w>
air ing</w>
afghan istan</w>
addre ss,</w>
ad o</w>
ab lo
_ Mitch</w>
Yor k
Wa keUpAmerica</w>
Wa Po</w>
W AN
Ver izon</w>
Tur bines</w>
TO M
THE M</w>
Sy rac
Stewart (</w>
St ation</w>
Sh ouldnt</w>
ST ER</w>
SI R</w>
S ince
Ry der</w>
Res erve</w>
Pra y</w>
Poll ing</w>
Pol s</w>
Po st:</w>
Part icip
Oak land</w>
Nor man,</w>
NY C
Mari ano</w>
M ick
Like wise</w>
Lad ens</w>
LE AD</w>
Kenne th</w>
JUDG EMENT</w>
J are
Iraq is</w>
H ere,</w>
Glen fiddich</w>
F F</w>
E ugene</w>
De V
D ick</w>
Ce dar</w>
COR RU
C ry
C P
BB C</w>
B ene
@sam my
@m ad
@k o
@ericleeb ow:</w>
@ell en
@d aniel
@c b
@The R
@Team _Mitch</w>
@T ha
@S hop
@Media ite</w>
@I ri
@H i
@Donald Trump
@Colin S
@Bill Rancic</w>
@An thony
@A li
@ tw
@ sir
@ lar
7: 15</w>
4 Trump:</w>
3 M</w>
12 9:</w>
10 %,</w>
1 :00</w>
, you</w>
$ 9
# WakeUpAmerica</w>
ye tt
ye ,</w>
wit ness</w>
webs ites</w>
we ather,</w>
w acky</w>
veh ic
van cou
uni form</w>
un insured</w>
un cle</w>
ud :</w>
tech ni
t am
sus pen
surr ounded</w>
spe ed
soldi ers,</w>
so ar</w>
shi pped</w>
sa p</w>
s man
ru s:</w>
ris en</w>
review ing</w>
reci pi
re ps</w>
rap h</w>
r are</w>
qu its</w>
po ore
perman ently</w>
ount ain
one ;</w>
ne d
me ful</w>
lux ur
lou isi
light we
leg als</w>
leag u
le ver
le i
kill ing,</w>
k at
just ,</w>
jer sey</w>
isc ope</w>
instin ct</w>
h tt</w>
h enry</w>
h ate
guarante ed</w>
gre t</w>
gra phic</w>
gol fla</w>
gi l</w>
fig ures</w>
fel d</w>
fact :</w>
ex tension</w>
est ,</w>
epit om
eng agement</w>
en ah
emer gency</w>
eas ily,</w>
e instein</w>
dy Buffalo
dot com</w>
dire ction,</w>
dge at
dgeat Doonbeg</w>
de ter
de preci
d ent</w>
crow :</w>
cro ssing</w>
consist ently</w>
commun ism</w>
clu bs</w>
ca p</w>
by ter
ban king</w>
ball :</w>
ation Day</w>
ari o</w>
ari ety</w>
app lied</w>
ani an</w>
angel 864:</w>
ang ers</w>
andre w:</w>
af fairs</w>
a p</w>
a b</w>
_ r
Woo d:</w>
W ake</w>
V I</w>
TI M
TIM ES</w>
T our</w>
STRU CTION
S ick</w>
S OL
S EL
Reve rend</w>
Rand y</w>
Que en</w>
Po ints</w>
Ph q</w>
Ph illy
P ac
OW N</w>
OB STRUCTION
Mean while,</w>
Mat thew
Mat t,</w>
M anti</w>
M EN
K ing,</w>
K id:</w>
J ul
In no
Ham burg</w>
Great er</w>
Goo gle</w>
Gadha fi</w>
G s
G all
F an</w>
F OUR</w>
Extre me</w>
Educ ation</w>
EXCLUS IVE</w>
E p
Du ba
Doyle 12</w>
D N
Con do
Chri st</w>
Broad way</w>
Bi z</w>
Ber nie,</w>
Al i</w>
Ad d</w>
AC CE
@w we</w>
@w ood
@trump golfla</w>
@pe te
@m iles
@kwr crow:</w>
@kiss angel864:</w>
@da ily
@d ans
@ch ef
@carrillo _pete:</w>
@_Katherine Webb</w>
@Trump Philly
@The G
@Tele mundo</w>
@Sam Doyle12</w>
@S no
@Pol iti
@Lo dgeatDoonbeg</w>
@Kat y
@K in
@In dyBuffalo
@Gov Abbott</w>
@BestBerger Ever:</w>
@Be th
@AF Phq</w>
@ russi
@ News
; )</w>
9 p</w>
200 5</w>
2, 300</w>
1 77
1 30</w>
$$ $$</w>
$ 9</w>
#USAat UNGA</w>
#TrumpV ine</w>
#Trump forpresident</w>
#G 7
# Iran
yon d,</w>
x y
w illiams</w>
viol ated</w>
ve z</w>
u v
tra sh</w>
tou ri
ter m,</w>
te ous</w>
ta s,</w>
t v
t able,</w>
syri an</w>
swif tly</w>
swi ft</w>
sta ge,</w>
st rom</w>
si st</w>
se ats</w>
s ink</w>
s ing,</w>
ric ul
restor ation</w>
re am
rap id</w>
prote cts</w>
premi eres</w>
pre f
pic ture,</w>
over turned</w>
outsour cing</w>
ot s:</w>
not ices</w>
ne ck
n V
mp ing</w>
movi es</w>
motiv ates</w>
mat ches</w>
man sion</w>
man _
mad ness</w>
ma sters</w>
low ly</w>
lo ck
leyR hon
law rence</w>
laugh ing
laughing stock</w>
l pa
itu al</w>
ist en</w>
ir anda
in s,</w>
id er
har y
ha d
gu ide</w>
gh teous</w>
gener ally</w>
g en</w>
fla g
f red</w>
expan sion</w>
en o
empha size</w>
e go
e g
don :</w>
do g:</w>
dis respected</w>
de rek</w>
custom er</w>
cu tt
constru cted</w>
confir ms</w>
clear ance</w>
che ating,</w>
c k,</w>
c hampion
bu s
bra gging</w>
bl ers</w>
be yond,</w>
be loved</w>
bas ket</w>
asmus sen
apologi z
an cy
ah _
ag ricul
_ 4
W yn
US TED</w>
UN T</w>
Tru th
Tou re</w>
Taylor :</w>
T N</w>
SA Y</w>
Ric hi
Resear ch,</w>
R ide</w>
Proble ms</w>
Pocahon tas,</w>
Pen insula</w>
P on
P at</w>
Ol lie
My Vote</w>
Mar th
Man y,</w>
Lat ino</w>
Lat in</w>
Karza i</w>
K nicks</w>
K ing:</w>
K han</w>
K NO
J lpa
J CO
JCO PE</w>
Inst itu
Ind onesi
Im us</w>
I ma
HO A
Fi re
FAC T</w>
F ans</w>
F acts</w>
F T</w>
Er in</w>
El i</w>
EN ED</w>
Donald Trump,</w>
Do g</w>
DREA M</w>
D CL
DCL isten</w>
Cur tis</w>
Comm unity</w>
Co le</w>
Chin es
Cha vez</w>
B IG
An sw
Afric a,</w>
@s j
@s ar
@realD B
@real Ollie
@n or
@bl u
@W r
@The_ Open</w>
@T rav
@S av
@Row leyRhon
@Ro ss
@RealPro4 Real:</w>
@R asmussen
@PGA _
@NewYork Observer</w>
@M iranda
@M I
@Jeff Jlpa
@Gov Walker</w>
@G ra
@G in
@Forbes Inspector</w>
@Car r
@B lake
@AndreaTantar os</w>
@00 7
@ lawrence</w>
21 20:</w>
0 3:</w>
$ $$</w>
#fox andfriends</w>
#Mar ine
#Make DCListen</w>
#G ot
# love
y G
woo d,</w>
we eting</w>
wa y:</w>
w acko</w>
vi br
ve rely</w>
ucci :</w>
u ke
transpa rent</w>
to ying</w>
thri ving</w>
tele ct</w>
super b</w>
su re,</w>
side s,</w>
seg ments</w>
se verely</w>
ro ber
reg ain</w>
recru itment</w>
re pa
ra ud
r ant
pla inti
ou x</w>
ol a:</w>
o was</w>
nam e
mou th,</w>
mic ro
mi st</w>
m ountain</w>
lic en
lea st,</w>
lab or,</w>
kin s
is ha
ir st
i a:</w>
her o,</w>
guest rooms</w>
gla sses</w>
g y:</w>
fore ig
fit n</w>
fe at</w>
ey es
establish ment,</w>
est ar
disman t
deport ation</w>
deal making</w>
deal makers</w>
dan 48:</w>
d t</w>
cot t
confid ence,</w>
comm and</w>
colle cted</w>
choo sing</w>
certa int
certa in
ceil ing
bu ff
bo oth
bli p</w>
benefici ary</w>
awes om
ational ,</w>
ati vity</w>
athle en
associ ates</w>
ar row</w>
apprent ice
any more
altern ative</w>
ales dan48:</w>
al ities</w>
aff iliated</w>
add y:</w>
ad or
_ le
Ye ah</w>
Wood ward</w>
WINN ING</w>
W hi
Val ley</w>
VER NM
VERNM ENT</w>
TRU LY</w>
Spe ech
Smar test</w>
Six teen</w>
Si oux</w>
Scand al</w>
San ctions</w>
ST E
SPE E
S ki
S as
Ro dri
Presiden telect</w>
Pittsbur gh,</w>
PRE S</w>
PLOR AB
PLORAB LES</w>
Optim ism</w>
NE GO
NEGO TI
Mafi a</w>
MP H</w>
L ane</w>
KE N</w>
K ES</w>
Jack son:</w>
J une
I stan
I owas</w>
I g
How ards</w>
He at</w>
H ed</w>
H ands</w>
Gabri el</w>
GO VERNMENT</w>
G ,</w>
Endor ses</w>
Distric t</w>
DE PLORABLES</w>
D AT
Count ries</w>
Con cer
Co ol
Char lie</w>
CE O:</w>
C au
C ant
Bur nett
B EN
@s alesdan48:</w>
@o h
@lance armstrong</w>
@j _
@br it
@boston herald</w>
@b ur
@b lake
@Trump TO</w>
@Ti me
@The Fix</w>
@Team Trump</w>
@S C
@Pat ti
@Mac Millers</w>
@Justin Trudeau</w>
@J er
@DNor rell</w>
@CNN S
@C arl
@ ut
6 %,</w>
5 pm</w>
3 8:</w>
21 ,</w>
2 12:</w>
00 0:</w>
( at</w>
#S uc
# president</w>
# fitn</w>
# RI
zabe th
yst al</w>
yno on
ynoon anny
ynoonanny c</w>
y am
us _
unthink able</w>
un funny</w>
toler ant</w>
thank s
ta ,</w>
t ary</w>
subsidi ze</w>
str y,</w>
state ment
st w
spe edy</w>
sil i
sign ings</w>
rooked hillary</w>
ro bo
re ment</w>
re ign</w>
re cession</w>
r ation</w>
promot es</w>
produc t,</w>
pr ices,</w>
po sts</w>
pen ce16</w>
par king</w>
out come</w>
om s</w>
ob serv
mor tg
minut es,</w>
mar y
manufact ured</w>
ke tt
jo e:</w>
it zer
ist :</w>
intel le
int ense</w>
in ch</w>
ici ans</w>
hom et
har ms</w>
go es,</w>
gg ynoonannyc</w>
geme iner</w>
gain ing</w>
fe ar
f ford</w>
escap ed</w>
end lessly</w>
ef he
du bai</w>
de tro
de mented</w>
de cor
cul ated</w>
cr ystal</w>
contribu te</w>
con s</w>
comple ted,</w>
comfor t</w>
cauti ous</w>
bur d
boy cot
bo s
beau ty
b and
ar ro
appro x</w>
and ering</w>
ali e</w>
admir als</w>
ad ds</w>
ack :</w>
a o</w>
a hu
X X
VE T
US :</w>
T yr
Ste el
Seni or</w>
ST UP
SI ceBucketChallenge</w>
S C
Re le
R oll</w>
Pfiz er</w>
Op en,</w>
Oli via</w>
ObamaC ares</w>
OR T</w>
N ine</w>
Mc Au
McAu liff
Mag :</w>
MIL IT
MILIT ARY</w>
MA C</w>
M ine</w>
Lux ury</w>
Lu ke
Lo bby
Lau der
La dies</w>
L AND
J P
Fol lowing</w>
Faz io</w>
FA KE
FA BR
FABR IC
F err
F UN
Ex peri
Entrepreneur ship</w>
Dit ka</w>
Classi c</w>
Call s</w>
C o</w>
C AM
CAM PA
Blumenth al,</w>
BR ING</w>
B ox
ARo d,</w>
AN K
AD A</w>
@se cu
@ry an_
@pe ll
@k ings
@eli zabeth
@WS J
@Trump Rink</w>
@Pe ggynoonannyc</w>
@PIERPAOLOMONN I</w>
@P atty
@NH GOP</w>
@L yn
@Katy Tur
@K aren
@DonaldJTrump Jr:</w>
@Chris C
@C andy
@Beli efhe
@B J
@A dri
@4kmiddlebroo k:</w>
@ rac
@ one
@ 0
40 00</w>
200 8,</w>
198 0</w>
15 th</w>
14 0</w>
#c rookedhillary</w>
[...]
