<UNK> 441855
the 363746
to 286711
! 259303
and 200240
a 193128
I 176784
of 173649
in 146351
is 143758
you 133823
for 115225
@realDonaldTrump 103538
on 87470
that 86563
be 86111
have 80481
it 77836
great 74741
will 72090
are 67007
going 59528
? 58697
with 57496
our 54169
The 53924
we 53839
Trump 52742
people 51629
at 51275
; 48841
was 44210
they 43199
this 43131
not 41621
We 38604
all 38448
my 35929
get 34785
so 34441
dont 34170
country 33476
do 33376
by 33259
he 32413
And 32133
like 32114
your 31829
would 31408
has 30935
about 30114
me 29766
one 29679
know 27549
Thank 27302
just 27209
from 27067
what 26728
trump 26539
want 26519
as 26491
very 26096
but 26093
You 25875
out 25273
@realdonaldtrump 24859
who 24835
were 23962
think 23913
make 23608
its 22863
president 22610
time 22340
can 22338
Im 21698
good 21641
Donald 21552
an 20791
up 20250
many 20164
back 20094
never 19704
more 19686
his 19016
run 18882
need 18795
much 18737
new 18481
But 18287
if 18209
Obama 18189
them 18145
thank 18016
us 18006
America 17932
A 17885
because 17756
big 17711
They 17693
love 17649
been 17612
go 17351
or 17297
should 17126
now 17045
Great 16900
said 16884
see 16804
than 16802
President 16650
really 16394
no 16044
when 15957
their 15913
cant 15894
He 15816
Thanks 15664
Hillary 15538
So 15538
right 15502
best 15070
Its 14627
say 14521
It 14403
got 14148
even 14054
look 13914
over 13911
way 13512
vote 13433
only 13351
money 13324
last 13293
had 13197
take 12908
years 12810
win 12798
If 12642
ever 12437
U 12397
job 12264
him 12239
S 12210
world 12201
she 11997
how 11974
lot 11792
there 11777
bad 11757
am 11722
know, 11537
today 11490
jobs 11384
work 11357
doing 11343
must 11070
theyre 11062
better 11034
American 10972
deal 10716
her 10642
u 10526
into 10517
day 10410
New 10224
youre 10209
did 10166
again 10157
show 10133
other 10126
believe 10110
thats 9896
first 9833
tonight 9781
Clinton 9773
made 9741
could 9722
things 9611
being 9598
Mr 9543
China 9461
#Trump2016 9440
My 9384
these 9376
done 9261
This 9219
come 9217
night 9160
give 9093
thing 8908
well 8856
amazing 8630
real 8518
Were 8515
Just 8504
tell 8471
some 8452
didnt 8385
down 8366
forward 8318
which 8313
doesnt 8300
donald 8262
nice 8239
hard 8238
interview 8076
business 8045
always 8042
Ive 8000
man 7924
every 7764
GREAT 7738
where 7732
keep 7728
2016 7704
true 7681
thanks 7638
then 7623
hes 7590
america 7555
why 7475
What 7310
said, 7276
next 7242
most 7154
Will 7153
let 7140
needs 7123
put 7097
year 7059
United 7048
guy 7014
c 6958
million 6932
In 6858
talk 6804
after 6796
tax 6711
Our 6691
#@@ 6684
Why 6632
@foxandfriends 6622
@BarackObama 6595
long 6578
media 6523
stop 6465
total 6393
against 6350
before 6331
place 6322
trade 6293
watch 6275
campaign 6255
any 6232
another 6188
here 6164
(cont) 6095
two 6093
nothing 6057
, 6010
AMERICA 5998
wait 5979
news 5976
Thats 5970
getting 5948
happen 5931
#MakeAmericaGreatAgain 5909
support 5905
wants 5868
looking 5852
honor 5840
When 5828
bring 5810
coming 5806
Ill 5806
working 5794
hope 5775
something 5726
care 5708
wonderful 5698
also 5679
@FoxNews 5674
person 5668
help 5635
States 5620
i 5587
election 5579
those 5542
She 5538
use 5536
soon 5529
No 5477
course 5442
too 5289
totally 5283
golf 5260
running 5250
please 5247
tomorrow 5244
you, 5185
beautiful 5180
ObamaCare 5166
smart 5151
story 5107
wont 5073
military 5072
far 5072
Via 5053
making 5050
speech 5041
record 5017
talking 5010
Apprentice 4967
debate 4965
MAKE 4869
change 4866
pay 4859
How 4839
strong 4829
poll 4822
start 4818
: 4785
millions 4773
House 4754
little 4750
off 4750
AGAIN 4737
seen 4709
does 4707
mean, 4706
saying 4705
News 4660
Dont 4645
problem 4626
Theyre 4615
ago 4609
Republican 4603
morning 4597
economy 4595
life 4565
dollars 4548
proud 4530
sure 4522
National 4512
Iran 4491
came 4488
live 4476
Big 4468
via 4466
Now 4461
im 4439
agree 4426
such 4422
obama 4411
illegal 4404
Very 4391
it, 4384
2 4363
lost 4355
important 4343
anything 4313
Republicans 4311
history 4302
border 4280
All 4260
greatest 4242
special 4234
Make 4224
gave 4217
M 4197
Americans 4179
everyone 4175
whats 4171
went 4163
Think 4141
Iowa 4129
disaster 4123
fantastic 4112
success 4100
watching 4085
build 4084
hear 4066
@ApprenticeNBC 4066
immigration 4061
tough 4054
Crooked 4042
Mexico 4031
That 4010
week 4009
actually 4002
terrible 3993
numbers 3986
@@@ 3966
incredible 3964
5 3962
end 3960
since 3928
top 3928
York 3891
still 3887
me, 3865
1 3863
Not 3863
own 3855
call 3846
everybody 3845
Hes 3844
leaders 3830
book 3822
read 3820
fight 3814
Democrats 3807
season 3802
same 3796
national 3771
4 3764
worst 3759
away 3757
TRUMP 3750
around 3745
order 3742
happy 3740
wall 3738
deals 3733
US 3731
tremendous 3728
says 3723
building 3715
number 3708
massive 3708
Good 3707
everything 3706
won 3706
state 3702
called 3702
White 3699
office 3695
hell 3690
knows 3689
North 3684
billion 3672
People 3657
else 3632
left 3610
mr 3608
_@@ 3596
plan 3578
through 3575
thousands 3571
told 3570
ISIS 3566
women 3550
Congratulations 3546
under 3545
ill 3541
truth 3535
State 3535
family 3528
respect 3522
yesterday 3522
polls 3521
government 3520
Cruz 3510
(@@ 3500
7 3472
taking 3452
friend 3450
Fake 3450
able 3424
used 3418
countries 3411
South 3410
together 3393
biggest 3389
failing 3373
YOU 3371
ratings 3370
) 3360
high 3356
Do 3346
crowd 3339
For 3338
meeting 3334
@CNN 3323
luck 3308
thought 3304
Please 3302
days 3301
taxes 3290
nation 3286
C 3286
There 3281
THE 3271
remember 3265
attack 3265
press 3264
10 3263
friends 3255
ready 3255
happened 3253
With 3251
One 3250
hillary 3240
while 3240
political 3238
become 3232
winning 3221
USA 3210
Lets 3202
problems 3189
9 3189
without 3185
trying 3178
leadership 3170
interviewed 3163
hit 3161
anyone 3153
Again 3151
wrong 3146
leader 3138
politicians 3137
times 3115
discussing 3114
major 3113
@MittRomney 3110
Be 3109
To 3101
As 3099
truly 3083
Get 3063
took 3050
worse 3039
Trump, 3037
people, 3031
system 3030
saw 3024
Youre 3021
Washington 3015
save 3008
Bill 2994
energy 2991
yet 2990
Russia 2980
w/ 2976
candidate 2967
states 2961
fix 2961
almost 2956
fast 2955
Now, 2955
Obamas 2953
security 2950
John 2949
others 2944
companies 2938
less 2916
wanted 2911
having 2899
beat 2895
probably 2894
Celebrity 2889
way, 2887
Enjoy 2879
oil 2869
Looking 2868
sad 2864
#CelebApprentice 2861
youve 2856
fact 2850
Iraq 2847
Like 2847
united 2846
s@@ 2845
Florida 2836
On 2832
name 2831
Id 2829
spent 2827
law 2807
already 2805
Because 2805
may 2803
stupid 2803
Tower 2801
shes 2799
badly 2789
Bush 2789
Golf 2786
words 2782
successful 2780
Korea 2769
hotel 2765
Happy 2763
someone 2757
Wow, 2757
during 2753
Watch 2749
find 2743
open 2737
p 2726
future 2720
understand 2715
D 2704
3 2699
reason 2697
home 2696
heard 2689
nobody 2688
happening 2686
old 2683
speak 2683
different 2681
started 2678
close 2673
say, 2671
protect 2668
chance 2667
american 2657
country, 2655
Well, 2651
No, 2648
foreign 2646
gets 2643
Jeb 2627
failed 2613
GOP 2608
both 2605
given 2592
mess 2587
lead 2580
buy 2577
dishonest 2567
including 2567
until 2563
whole 2562
focus 2553
enough 2544
trillion 2531
looks 2530
power 2521
Chicago 2518
move 2517
Fox 2514
sign 2513
Keep 2511
cannot 2507
makes 2503
economic 2495
apprentice 2495
Art 2493
comes 2484
Deal 2477
debt 2475
horrible 2467
Scotland 2460
continue 2459
Cant 2458
Join 2454
Is 2441
taken 2435
wouldnt 2433
mean 2430
once 2415
Your 2402
Carolina 2399
Ted 2387
control 2386
NBC 2378
weve 2377
Senate 2368
isnt 2358
True 2356
spending 2350
#trump2016 2348
fake 2347
allowed 2344
Many 2344
stay 2341
P 2338
Love 2338
stand 2332
fighting 2329
feel 2324
leaving 2322
part 2319
Party 2314
n 2311
g 2308
small 2307
second 2307
play 2298
DonaldTrump 2291
World 2290
maybe 2284
folks 2283
clinton 2281
policy 2281
killed 2275
lose 2266
thinking 2257
game 2257
public 2257
absolutely 2253
yourself 2244
report 2243
hate 2242
Tax 2238
#MAGA 2229
anybody 2225
turn 2224
Hampshire 2215
Go 2213
Time 2213
television 2205
Entrepreneurs: 2195
weak 2186
global 2171
nuclear 2171
losing 2170
God 2167
mind 2164
ask 2162
class 2161
wonder 2158
somebody 2158
healthcare 2153
Can 2153
knew 2151
Dems 2148
rid 2143
s: 2137
theres 2136
First 2135
cut 2129
war 2126
three 2124
kind 2124
See 2116
fan 2101
presidential 2099
@nytimes 2096
anymore 2096
re@@ 2093
Miss 2087
four 2086
killing 2078
wish 2072
join 2070
house 2069
gone 2068
victory 2067
watched 2065
Remember 2064
men 2061
These 2045
low 2042
now, 2032
create 2031
8 2029
interesting 2029
leave 2027
Look 2021
percent 2018
@megynkelly 2013
speaking 1997
forget 1997
awesome 1997
ties 1993
least 1991
free 1979
J 1975
giving 1967
borders 1958
Doral 1955
years, 1954
jobs, 1945
party 1937
asked 1936
point 1935
single 1934
along 1930
middle 1928
race 1927
arent 1924
Right 1920
safe 1919
CNN 1918
Who 1917
Congress 1915
So, 1915
team 1910
families 1909
set 1907
case 1898
months 1896
wind 1891
means 1890
finally 1889
S@@ 1887
company 1885
voting 1883
enjoy 1881
easy 1880
welcome 1874
that, 1870
guys 1869
Trumps 1868
weeks 1865
@seanhannity 1861
raise 1860
interests 1858
signed 1857
sense 1857
built 1855
winner 1852
miss 1846
longer 1843
fun 1839
Syria 1837
Trump: 1837
young 1836
choice 1829
Clintons 1825
@IvankaTrump 1824
couldnt 1823
rally 1820
decision 1820
Rubio 1820
president, 1819
allow 1817
fired 1815
lives 1813
Country 1805
send 1804
politics 1800
After 1799
@oreillyfactor 1789
credit 1783
votes 1780
possible 1774
1: 1771
evening 1767
full 1762
announced 1757
s 1757
General 1757
shows 1755
administration 1753
Israel 1753
cuts 1750
playing 1749
birthday 1745
Bernie 1741
woman 1739
Day 1739
statement 1730
five 1728
Administration 1717
d@@ 1716
Middle 1716
workers 1715
cost 1711
International 1708
in@@ 1705
B@@ 1704
budget 1696
Never 1696
loves 1693
Ohio 1690
celebrity 1689
warming 1685
lets 1683
T 1683
Best 1683
Obamacare 1681
released 1679
interest 1679
Sunday 1678
children 1677
follow 1676
visit 1676
radical 1675
policies 1671
idea 1669
paying 1666
fair 1665
THANK 1665
beginning 1664
past 1662
event 1660
loved 1659
across 1651
bigger 1650
Melania 1648
Okay 1645
Only 1641
matter 1639
Secretary 1637
phony 1636
leading 1636
lie 1636
billions 1635
C@@ 1635
highest 1634
action 1633
meet 1630
$1 1629
s, 1629
wasnt 1627
TO 1627
Champion 1627
negative 1624
100% 1624
using 1624
Post 1624
waste 1623
whether 1622
very, 1622
FBI 1621
b@@ 1620
unemployment 1617
paid 1614
theyve 1613
few 1610
thoughts 1609
mention 1606
white 1606
Governor 1606
spend 1603
goes 1602
try 1600
increase 1596
Media 1596
group 1592
rich 1590
rate 1589
happens 1585
ahead 1585
art 1585
instead 1584
NYC 1584
favorite 1583
k@@ 1582
china 1579
common 1579
question 1578
immediately 1576
rigged 1575
voted 1573
word 1573
couple 1573
ran 1572
At 1569
Americas 1569
losers 1568
takes 1567
Have 1565
ads 1563
weekend 1560
Weve 1559
room 1556
pm 1556
#1 1555
candidates 1554
crooked 1553
check 1551
t@@ 1550
(and 1546
lots 1545
emails 1544
listen 1543
line 1541
wife 1539
Then 1538
again, 1531
vets 1527
Oh, 1527
laughing 1524
asking 1523
zero 1523
complete 1520
dumb 1520
service 1516
endorsed 1505
y: 1504
level 1503
a@@ 1503
Senator 1503
entire 1502
correct 1500
crime 1499
@Macys 1499
answer 1498
TV 1498
results 1494
veterans 1493
haters 1493
Really 1492
worth 1486
@S@@ 1485
@BarackObamas 1482
highly 1480
loser 1478
6 1474
turned 1469
learn 1464
#CelebrityApprentice 1463
false 1459
time, 1456
between 1451
shouldnt 1448
dead 1447
starting 1445
East 1442
term 1440
Today 1437
Even 1434
respected 1433
treated 1433
fact, 1431
no, 1430
son 1429
Nobody 1427
telling 1424
12 1422
terrific 1421
AND 1421
lies 1419
Congrats 1419
@CelebApprentice 1419
destroy 1417
Run 1415
OK 1412
Shes 1410
market 1406
r 1402
republican 1399
Texas 1396
Monday 1394
deficit 1391
imagine 1385
sell 1385
FOR 1385
waiting 1384
Vote 1384
bringing 1382
today, 1380
places 1380
manufacturing 1369
By 1368
hundreds 1366
exciting 1365
though 1365
head 1365
West 1365
world, 1364
each 1362
City 1362
4@@ 1362
stories 1360
Virginia 1360
Security 1353
VOTE 1353
@realDonaldTrump: 1353
stuff 1352
todays 1351
enforcement 1348
supporters 1344
endorsement 1343
Romney 1343
excited 1342
them, 1341
l 1339
Office 1339
e@@ 1338
Marco 1338
is, 1335
ago, 1334
charity 1332
bought 1331
honored 1328
fully 1325
A@@ 1325
m 1323
T@@ 1323
huge 1322
Club 1322
seeing 1321
sent 1319
Hotel 1319
youll 1318
release 1313
met 1309
terrorist 1307
POTUS 1307
runs 1306
private 1306
brought 1303
gas 1302
#AmericaFirst 1296
certain 1295
Let 1294
moving 1292
immigrants 1292
created 1291
NEWS 1291
FAKE 1289
Wall 1288
Islamic 1287
primary 1286
er@@ 1285
PM 1285
ive 1284
V 1284
Mitt 1284
in, 1277
appreciate 1276
f@@ 1275
outside 1275
bill 1272
Hope 1272
standing 1270
ones 1268
conference 1266
ALL 1266
city 1265
crazy 1265
unbelievable 1263
g@@ 1263
K@@ 1263
m@@ 1262
Pennsylvania 1260
especially 1256
prayers 1254
Some 1254
c@@ 1253
putting 1252
theyll 1251
reading 1250
message 1249
hours 1246
afraid 1246
George 1244
@C@@ 1243
an@@ 1241
rebuild 1240
Christmas 1239
turbines 1238
establishment 1234
ad 1234
Las 1234
Are 1234
16 1233
face 1232
nations 1231
Everyone 1231
11 1230
honest 1230
Vegas 1230
R@@ 1228
F@@ 1228
lied 1227
Putin 1227
h@@ 1223
terrorists 1220
David 1220
President, 1219
pass 1218
50 1217
minutes 1217
questions 1217
IS 1216
guess 1214
,@@ 1213
favor 1212
P@@ 1212
higher 1210
G@@ 1210
2012 1208
IN 1208
laws 1206
Saturday 1206
played 1205
DC 1205
elected 1204
tweets 1204
air 1203
advice 1203
strength 1203
trouble 1203
poor 1202
n@@ 1202
force 1201
either 1201
talks 1198
front 1197
calling 1196
might 1194
continues 1192
announce 1191
o@@ 1190
bit 1189
defense 1186
@WhiteHouse 1186
movement 1185
2@@ 1185
@B@@ 1185
An 1184
price 1183
cities 1182
mistake 1182
@T@@ 1182
plans 1181
@D@@ 1181
star 1180
on@@ 1180
reporting 1178
k 1178
health 1178
20 1178
rather 1176
whos 1176
voters 1175
Every 1174
November 1174
champion 1173
Chris 1173
@gretawire 1172
corrupt 1171
gives 1171
WE 1171
york 1170
Theres 1170
episode 1169
situation 1168
early 1165
cover 1165
failure 1165
Mike 1165
up, 1163
M@@ 1162
Japan 1161
fire 1160
obamacare 1160
#makeamericagreatagain 1160
wealth 1159
/@@ 1159
act 1158
@j@@ 1158
y@@ 1158
2nd 1157
al@@ 1157
police 1155
etc 1154
gotten 1154
serious 1154
R 1154
L@@ 1154
video 1153
Today, 1153
v 1150
behind 1149
website 1149
stated 1148
p@@ 1148
Another 1148
30 1147
article 1144
politician 1144
club 1144
His 1144
great, 1143
shot 1143
@GOP 1143
opportunity 1142
15 1139
G 1139
Amazing 1139
announcement 1138
growth 1132
late 1132
Presidential 1131
@ 1130
Stock 1130
Alabama 1129
education 1128
stock 1127
D@@ 1125
based 1124
tweet 1123
@A@@ 1121
joke 1119
14 1119
Always 1119
@foxnews 1117
death 1117
nights 1115
#TimeToGetTough 1115
raised 1113
powerful 1112
Year 1112
Would 1112
Poll 1112
en@@ 1111
rest 1109
terrorism 1108
heart 1108
Amendment 1108
havent 1107
final 1107
gonna 1106
incompetent 1105
prices 1102
r@@ 1101
Cuts 1101
China, 1101
Maybe 1100
pretty 1099
lower 1097
okay 1097
replace 1095
process 1094
bless 1092
looked 1092
fine 1091
all, 1087
twitter 1087
NY 1087
@M@@ 1087
WILL 1086
dangerous 1082
this, 1082
Minister 1082
e: 1082
NO 1081
Times 1079
le@@ 1078
supposed 1077
@TrumpDoral 1077
es@@ 1075
er 1073
Ivanka 1073
Obama, 1072
h 1071
brand 1071
@EricTrump 1070
father 1069
discuss 1068
Take 1068
@J@@ 1068
OF 1067
de@@ 1066
Sanders 1066
W@@ 1066
i@@ 1065
money, 1065
Donald, 1065
N@@ 1064
Together, 1063
food 1062
victims 1062
More 1062
unfair 1061
N 1061
ar@@ 1059
tower 1058
owe 1058
books 1057
@barackobama 1056
H@@ 1055
look, 1054
Youve 1054
large 1053
behalf 1053
talent 1053
month 1052
focused 1052
sold 1051
t 1051
Give 1051
Reagan 1051
Ebola 1051
100 1047
Too 1046
NFL 1044
Pres 1039
Believe 1036
Saudi 1035
defeat 1033
work, 1032
Getting 1032
picture 1031
repeal 1030
positive 1030
simple 1030
Chinese 1030
ing@@ 1030
a: 1030
win, 1029
o 1028
half 1028
O@@ 1028
wins 1026
community 1026
Prime 1026
estate 1025
largest 1023
side 1023
Thanks, 1023
ing 1021
out, 1020
experience 1020
Democrat 1020
well, 1019
mine 1018
host 1018
it@@ 1017
reality 1015
reasons 1014
Court 1014
Show 1014
l@@ 1013
Stay 1013
lightweight 1012
living 1012
Supreme 1011
Wow 1011
Justice 1010
politically 1009
angry 1009
needed 1008
WH 1008
Does 1008
Tom 1006
Remember, 1005
whatever 1004
Did 1002
received 1001
hurt 1001
@P@@ 999
Wisconsin 997
write 996
Market 996
spoke 995
WIN 995
Carson 995
exactly 991
17 990
information 990
Universe 990
despite 988
nice, 988
businesses 987
sending 987
inspiration 987
J@@ 987
Yes, 986
Well 986
1st 985
reform 985
terms 985
While 984
Arizona 984
@nbc 983
guns 983
Turnberry 983
named 982
there, 982
Jobs 981
perhaps 980
worked 980
groups 980
E@@ 980
quickly 979
Macys 978
list 973
kids 972
calls 970
return 969
tired 969
Everybody 968
businessman 967
brilliant 966
Such 964
Trade 962
issue 961
negotiate 961
citizens 960
promise 960
sort 960
@POTUS 958
Veterans 958
role 956
ideas 954
Heading 954
Street 954
O 954
Tea 954
Thx 954
e 953
except 952
kill 950
OUR 950
er: 950
Blue 949
worry 948
#USA 948
Miami 948
sir 947
Ford 947
stronger 946
piece 945
regulations 944
dream 944
players 944
saved 943
rules 943
@greta 943
Mark 943
Eric 943
Touch 943
brave 941
pick 941
grow 940
safety 940
enemy 939
Super 939
w 936
Bad 936
Sad 936
PRESIDENT 936
thinks 934
Michigan 934
NOT 933
Midas 933
cast 931
y 931
Re@@ 930
Second 930
doubt 929
enemies 929
local 927
j 927
confidence 926
short 925
apologize 925
passed 923
financial 923
hands 922
Center 921
perfect 920
ridiculous 919
meetings 919
congratulations 916
hits 916
@K@@ 916
afternoon 914
hearing 913
surprise 913
themselves 913
Nice 913
many, 911
terror 910
track 910
signing 909
gun 909
San 909
sh@@ 908
expected 907
college 907
points 906
man@@ 906
Of 906
and, 905
amount 905
Intl 905
Yes 903
fortune 902
statements 902
third 902
Ben 902
$2 901
ET 901
drugs 900
Links 899
advantage 895
Friends 895
Tuesday 894
example 893
NEVER 893
spirit 892
Repeal 892
works 891
easily 891
destroyed 890
threat 890
finished 889
H 889
Whats 889
consider 887
arrived 887
stage 887
period 886
#DrainTheSwamp 886
Paul 885
Star 885
caught 884
facts 884
enjoyed 884
trip 883
dollar 882
changed 882
j@@ 882
later 882
tune 882
@apprenticenbc 882
Washington, 882
#Trump 882
ass 881
@R@@ 880
Birthday 879
@TrumpChicago 879
current 878
strongly 878
field 878
K 878
biased 875
smart, 875
Puerto 875
views 874
Military 874
Kasich 874
Where 873
Look, 873
Paris 870
decisions 869
opening 869
Palm 869
debates 868
Twitter 868
glad 866
ted 866
found 865
courage 865
majority 865
3@@ 865
boring 863
defend 863
@m@@ 862
Joe 860
records 859
B 859
held 856
serve 856
premiums 856
courses 856
V@@ 855
pushing 854
led 853
general 853
offer 853
on, 853
Chuck 853
republicans 852
weapons 852
comments 852
Friday 851
clue 850
pouring 850
costs 850
justice 849
keeping 849
disgrace 848
us, 848
Success 848
so, 847
is@@ 846
charge 845
guy, 845
crowds 844
@b@@ 844
starts 842
$5 842
18 842
Social 842
executive 841
Check 841
recent 840
States, 840
Old 840
wrote 839
dropped 838
career 838
recently 838
Don 838
Indiana 838
bet 837
members 836
at@@ 836
player 835
1@@ 835
James 834
moment 833
step 833
McCain 833
Muslim 832
worlds 831
dying 830
DONALD 830
shirts 829
st@@ 829
#VoteTrump 829
dinner 828
man, 828
am@@ 827
presidency 827
heres 827
one, 827
li@@ 826
response 826
talked 826
forced 825
25 825
often 824
AllStar 824
hasnt 823
federal 821
among 821
speaks 821
democrats 820
Steve 820
water 819
Most 819
letter 818
currency 818
attacks 818
3rd 817
tweeting 817
13 816
him, 816
IT 814
Mexican 813
June 812
tuned 811
#trumpvlog 811
_: 810
2: 809
ur 808
hand 807
school 807
property 806
March 806
@DonaldJTrumpJr 806
creating 805
born 805
passion 805
solve 804
opinion 804
Also, 804
SAFE 803
Business 803
@The@@ 803
unless 802
himself 802
fans 800
@d@@ 800
troops 799
clean 798
conservative 798
Russia, 798
difference 797
NAFTA 797
deal, 795
Must 795
be@@ 794
deliver 793
careful 793
not, 792
sick 792
LOVE 792
@k@@ 791
Barack 791
Their 790
RUN 790
ed 789
= 786
known 786
form 786
es 786
definitely 785
key 785
amnesty 785
speeches 785
hosting 785
Clinton, 785
day, 783
returns 783
Going 783
or@@ 783
controlled 782
di@@ 782
likes 781
tried 781
JOBS 781
BIG 781
right, 780
5@@ 780
path 778
seems 778
Y@@ 777
ability 776
Y 776
lobbyists 775
Hall 775
Senators 774
convention 770
clear 769
inner 769
Luther 768
@FLOTUS 768
hold 767
daughter 767
anywhere 766
model 766
refuses 764
Arabia 764
realize 763
TAX 763
America, 762
Canada 762
peace 761
Russian 761
Africa 761
genius 760
do@@ 758
trade, 758
Isnt 758
se@@ 756
begin 755
May 755
Mayor 755
Much 754
California 754
7:00 754
co@@ 753
soldiers 751
el@@ 751
Monster 751
treat 750
international 749
admit 749
alone 749
helping 748
ers 748
north 747
8@@ 747
handle 747
me@@ 747
destroying 746
Magazine 746
Nevada 746
involved 744
pathetic 744
spectacular 742
legal 742
Mexico, 739
7: 739
lucky 738
Should 738
OPEC 738
supported 736
pres 735
certainly 735
baby 734
hero 734
Tune 734
south 733
proven 733
communities 733
became 733
greatly 732
do, 731
@KarlRove 731
@F@@ 730
governor 729
Theyve 729
industry 728
desperate 727
fox 727
infrastructure 726
agenda 726
supporting 726
view 726
Live 725
Convention 724
Air 723
Pence 723
beyond 722
rated 722
theyd 722
potential 721
showed 720
criminal 720
expect 720
popular 719
succeed 719
2014 719
as@@ 719
@AlexSalmond 719
broken 718
Has 718
University 718
ro@@ 718
Rico 717
Chinas 717
From 717
Letterman 717
decades 715
DNC 715
ing, 715
shooting 714
page 714
AM 714
hour 713
Bob 713
according 711
loss 710
@nflcommish 710
Beach 710
VA 710
vision 709
per 709
walk 709
2017 708
historic 708
cause 708
I@@ 708
@H@@ 707
y, 705
year, 704
progress 703
expensive 703
ic@@ 703
@JebBush 703
heading 702
reporter 702
Nothing 702
myself 702
impact 699
relationship 699
overseas 698
secret 698
int 698
program 697
Hispanics 697
Department 697
coverage 696
prepared 696
cameras 696
luxury 696
Record 696
:@@ 696
Billionaire 696
rights 695
inside 695
Iraq, 694
@billmaher 693
7@@ 693
beauty 692
Next 692
goal 691
packed 691
France 691
refused 690
Pageant 690
missed 689
folks, 689
d: 689
becoming 688
@c@@ 688
post 687
court 687
words, 687
tough, 687
Benghazi 687
Atlantic 687
run, 686
donors 686
fail 686
available 686
former 686
illegally 685
fall 685
k: 685
magazine 684
stopped 684
00 684
Had 684
NOW 684
b 683
staff 683
tougher 683
fraud 682
congrats 682
Election 682
NATO 682
break 680
0@@ 680
RT 680
liberal 679
red 678
disgusting 678
construction 678
wishes 678
re: 678
z@@ 677
il@@ 675
Radical 675
offers 674
Watching 674
nasty 673
ch@@ 673
@L@@ 672
iran 671
beating 671
Was 671
Act 671
@s@@ 671
true, 670
tie 670
learned 670
Come 669
excuse 668
entrepreneurs 668
and@@ 668
@the@@ 668
gold 667
o: 667
approval 666
celebrate 666
alltime 666
good, 666
agreed 666
husband 666
died 665
2013 665
Work 665
er, 664
Georgia 664
buying 663
Afghanistan 663
investigation 662
sanctions 662
seriously 662
tells 662
Egypt 662
33,000 661
countrys 661
shape 659
drop 658
whose 658
poorly 657
land 657
buildings 657
issues 657
Border 657
events 656
Kelly 656
@HillaryClinton 656
si@@ 655
trump, 655
Keystone 655
@G@@ 655
values 654
helped 654
setting 654
ban 654
lowest 653
Open 653
represent 652
big, 652
Interesting 652
killer 650
impossible 650
ab@@ 650
@realDonaldTrump, 650
@p@@ 650
provide 649
ation 649
vs 649
un@@ 649
office, 648
add 648
cares 647
$150 647
ISIS, 647
drug 646
talk, 646
Boston 646
job, 645
plant 645
military, 644
within 644
enter 643
notice 643
Hillarys 643
Glad 643
silent 642
attacked 642
finest 640
hotels 640
@piersmorgan 640
Being 640
W 640
income 639
address 639
shut 639
:) 639
talented 638
negotiating 638
position 638
ground 637
allies 637
2015 637
lo@@ 637
Under 637
Scott 637
ARod 637
dealing 636
parents 636
judge 636
child 635
due 635
& 635
@BreitbartNews 635
possibly 634
insurance 634
ashamed 633
Oh 633
@Morning_Joe 633
#2016 632
youd 632
Common 632
accomplished 631
w@@ 630
funding 630
9@@ 630
cash 630
yes 629
sitting 629
ts 629
caused 628
Despite 627
@Newsmax_Media 627
intelligence 625
13th 625
EST 625
Her 625
standard 624
trust 624
Last 624
go@@ 623
study 622
enthusiasm 622
remain 622
Al 622
course, 621
filed 621
60 620
Bless 619
protecting 618
t, 618
what, 618
6@@ 617
z: 617
result 616
nearly 616
ra@@ 616
@E@@ 616
cutting 615
puts 615
boardroom 615
Hopefully 615
Iowa, 615
greater 614
selling 614
al 613
pressure 613
ripping 613
MaraLago 613
throughout 612
funny 612
Massive 612
ON 612
bad, 611
Without 611
reported 610
americans 610
sit 609
v@@ 609
overrated 609
Nations 609
@DannyZuker 609
effort 608
ad@@ 608
raising 608
@_@@ 608
Tell 608
violence 607
excellent 607
L 607
wages 606
parts 606
climate 606
Replace 606
$6 605
Looks 605
#ImWithYou 605
double 604
opportunities 604
@t@@ 604
Tickets: 604
Great, 604
thing, 603
cars 603
@g@@ 603
wasting 602
Order 601
AMERICAN 600
Sometimes 600
voice 599
travel 599
dummy 599
Comey 599
back, 598
@mcuban 598
@NBC 598
Jon 598
book, 597
age 597
investment 596
trillions 596
bank 596
momentum 596
apart 595
bankrupt 595
Merry 595
following 594
night, 594
Libya 594
rule 593
Man 593
ge@@ 592
election, 591
guts 591
Here 591
Park 591
@TrumpTowerNY 591
date 590
Jeff 590
SO 590
Joan 590
condolences 589
gift 589
end, 589
bo@@ 589
oh 588
cold 588
https://t 588
Thursday 587
corporate 586
attention 586
showing 586
sometimes 586
Beautiful 586
develop 585
nomination 585
doing, 585
deserves 585
share 585
fought 584
energy, 584
Fantastic 584
Trump@@ 584
listening 583
above 583
Gov 582
Got 582
@W@@ 582
secure 581
online 581
guest 581
Michael 581
for@@ 581
10@@ 581
social 580
es, 580
responsible 580
personal 580
absolute 580
Florida, 580
Press 580
socalled 579
(or 579
league 579
Real 579
Medicare 579
plus 578
keeps 578
@BrandiGlanville 578
#BigLeagueTruth 578
forever 577
Strange 577
Over 577
#Trump@@ 577
an: 577
committed 576
concerning 576
Up 576
3: 576
illegals 575
40 575
@r@@ 575
usa 574
missile 574
famous 574
benefit 574
football 574
Terrible 574
ly 574
Germany 574
es: 574
Ireland 574
tv 573
tonights 573
selffunding 573
@NBCNews 573
remember, 572
written 572
Fame 572
virtually 571
bills 571
iowa 570
reviews 570
bush 570
Cut 569
self 568
8:00 568
Greta 568
god 567
hair 567
cool 567
King 567
car 566
cruz 566
human 565
push 565
worker 565
done, 564
approved 564
birth 564
followers 564
touch 563
War 563
Any 563
isis 561
deserve 561
increased 561
here, 561
TPP 561
Heres 561
credibility 560
winners 560
Dem 560
#TrumpForPresident 560
officials 559
photo 558
stopping 558
Know 557
loyal 556
no@@ 556
@ABC 556
Weiner 556
miles 555
prior 555
apology 555
BEST 555
De@@ 555
concerned 554
are, 554
straight 554
@N@@ 554
approve 553
sorry 553
id 553
closing 553
JOBS, 553
@washingtonpost 552
mexico 552
officers 552
ugly 552
restore 551
banks 551
seven 551
fool 549
mother 549
resort 549
Those 549
Committee 548
January 548
six 547
entrepreneur 547
ta@@ 547
ate 547
hopefully 546
Facebook 546
much, 545
wise 544
anyway 544
further 544
Syrian 544
area 543
afford 543
racist 543
opposite 543
Andrew 543
BE 543
la@@ 543
together, 542
shown 542
24 542
coal 542
debate, 542
immigrant 542
allowing 541
stands 541
simply 541
seem 541
ships 541
#TrumpTrain 541
he@@ 541
@Yankees 541
Lyin 541
freedom 540
latest 540
dog 540
Robert 540
taxes, 539
respond 539
ru@@ 539
sa@@ 539
tens 538
show, 538
prisoners 538
properly 537
te@@ 537
Z@@ 537
core 536
negotiators 535
liked 535
Anthem 535
goals 534
Ronald 534
staying 533
ABC 533
9:00 533
Attorney 533
Anthony 533
brother 532
oh, 532
TRUE 532
Colorado 532
email 531
hosted 531
direction 531
ed@@ 531
@WSJ 531
ly@@ 531
blame 530
figure 530
days, 530
itself 530
contract 529
surprised 529
performance 528
ma@@ 528
#celebapprentice 528
challenge 527
planning 527
22 526
citizen 526
quality 526
names 525
Brian 525
), 524
$s 524
d, 524
@cnn 523
Night 523
Graham 523
product 522
Federal 522
Core 522
economy, 521
mistakes 521
Avenue 521
fairly 520
supports 520
agree, 520
pageant 520
smartest 520
Hurricane 520
be, 519
writing 519
owner 519
Read 519
claims 518
things, 518
LIVE 518
Once 518
man: 518
wear 517
destruction 517
Nation 517
plane 516
VERY 516
REAL 516
ally 515
Government 515
lying 514
4th 514
super 514
Democratic 514
subject 513
visited 513
professional 513
om@@ 513
NH 513
delegates 512
Dallas 512
7:30 512
Dubai 511
fed 510
unable 510
promised 509
campaign, 509
Stop 509
Course 509
closely 508
sue 508
importantly, 507
willing 507
ARE 507
Hispanic 507
secretary 506
agrees 506
Back 506
E 506
CBS 506
MOVEMENT 506
papers 505
Instead 505
reporters 504
sound 504
Hillary, 504
turning 503
kept 503
falling 503
Oval 503
tour 502
Council 502
border, 501
shame 500
innocent 500
Lincoln 499
korea 498
completely 498
like, 498
NOTHING 498
sources 497
center 497
finish 497
chicago 497
ating 497
increases 496
king 496
plenty 496
orders 495
u@@ 495
Aberdeen 495
compared 494
fabulous 494
earth 493
recovery 493
considered 493
heads 493
ac@@ 493
story, 492
vicious 492
ensure 492
near 492
daily 492
Rivers 492
yesterday, 491
Police 491
YES 491
Youll 491
believes 490
September 490
ONLY 490
achieve 489
vacation 489
Schneiderman 489
washington 488
heroes 488
immigration, 488
20% 488
down, 488
$ 488
Leaving 488
im@@ 488
son, 487
ha@@ 487
Marine 487
U@@ 487
endorse 486
ship 486
saying, 486
knock 486
yours 486
fools 485
demand 485
deals, 485
f 485
refugees 485
Tonight 485
Brady 485
@NYMag 485
@n@@ 484
#FITN 484
4: 484
AfricanAmerican 484
20,000 483
blue 483
toward 483
place, 483
PLEASE 483
reports 482
street 482
table 482
i: 482
gop 481
honestly 481
d 481
Need 481
MUST 481
Carter 481
F 481
Sir 481
11: 481
wasted 480
collusion 480
business, 480
upcoming 480
Executive 480
felt 479
45 479
schedule 479
access 479
die 479
signature 479
Ask 479
@MELANIATRUMP 479
pe@@ 478
state, 478
t: 478
sounds 477
smarter 477
week, 476
donaldtrump 476
heat 476
Number 476
light 475
campaigning 475
rise 475
pro@@ 475
Tennessee 475
Welcome 475
thrilled 474
landslide 474
carolina 474
games 474
poll, 474
life, 474
ri@@ 474
Two 474
out@@ 474
natural 473
Islam 473
landed 472
base 472
Force 472
Xi 472
ated 472
rapidly 471
deleted 471
skills 471
interested 471
card 471
attacking 471
Since 471
23: 471
GDP 470
mo@@ 470
Wish 470
Top 470
ol@@ 470
Snowden 470
ever, 469
knowledge 469
dumbest 469
decided 469
pays 469
plants 468
audience 468
Full 468
on: 468
stood 467
test 467
Korea, 467
present 466
werent 466
Find 466
unlike 465
HAPPY 465
predicted 464
disastrous 464
straighten 464
em 464
risk 464
According 464
Russians 464
the@@ 464
road 463
refuse 463
competition 463
Point 463
Hey 463
@AGSchneiderman 463
florida 462
weakness 462
7pm 462
Freedom 462
info 461
song 461
steel 461
employees 461
project 461
@mittromney 461
21 461
traitor 460
$10 460
Focus 460
UK 460
addition 459
yes, 459
rock 459
compete 459
ys 459
CPAC 459
one@@ 459
garbage 458
2016, 458
harder 458
schools 458
Could 458
award 457
society 457
Central 457
never, 456
amendment 456
10:00 456
Al@@ 456
extremely 455
flights 455
laugh 455
admire 455
Change 455
wow, 454
seek 454
necessary 454
added 454
$20 454
Care 454
$5M 454
disrespect 453
agreement 453
copies 453
assets 453
bu@@ 453
Bills 453
fear 452
rating 452
amounts 452
apologized 452
plan, 452
Sadly, 452
missing 451
equipment 451
average 450
ways 450
WALL 450
SC 450
fund 449
protected 449
representing 449
n: 449
tonight, 448
Iran, 448
Europe 448
Derek 448
@realDonaldTrumps 448
duty 447
damn 447
over@@ 447
@SquawkCNBC 447
divided 446
bankruptcy 446
Perhaps 446
Little 446
Rove 446
Loved 446
Howard 446
But, 446
accept 445
better, 445
$400 445
Immigration 445
Primary 445
ne@@ 445
Kerry 445
Signature 445
quote 444
doral 444
honestly, 444
Karl 444
incompetence 443
quit 443
suffering 443
hole 443
Wallace 443
crime, 442
voter 442
motivation 442
episodes 442
Money 442
Memorial 442
site 441
pundits 440
NEW 440
Crazy 440
leader, 439
changing 439
premiere 439
PEOPLE 439
non@@ 439
desperately 438
ObamaCare, 438
In@@ 438
Awesome 438
York, 438
fixing 437
accomplish 437
location 437
officially 436
gu@@ 436
choose 436
COUNTRY 436
Li@@ 436
#Debate 436
e, 435
Hell 435
con@@ 435
MR 435
son@@ 434
TIME 434
Lightweight 434
et@@ 434
in: 434
change, 433
holding 433
23 433
6: 433
receive 432
debt, 432
hampshire 432
;@@ 432
rebuilding 431
negotiation 431
Kate 431
Jerry 431
Liberty 431
ultimate 430
crisis 430
51 430
lack 430
difficult 430
op@@ 430
magnificent 430
stayed 430
ball 430
evangelicals 430
ings 430
le 429
disappointed 428
bottom 428
Healthcare 428
returned 427
mentioned 427
letters 427
Carolina, 427
@MittRomneys 427
more, 426
pushed 426
various 426
Hunt 426
purchase 425
appearance 425
doctor 425
Mar@@ 425
Way 425
pledge 424
boy 424
protection 424
airports 424
deficits 424
spot 424
~ 424
dollars, 423
jeb 423
happen, 423
town 423
rooms 423
Establishment 423
th@@ 423
criminals 422
@politico 422
ou@@ 422
Japan, 422
@GeraldoRivera 422
Stewart 422
@MissUniverse 422
TRUMP: 422
exist 421
joining 421
Sen 421
Both 421
brings 420
leadership, 420
environmental 420
ice 420
explain 420
re 420
Strong 420
CUTS 420
Witch 420
11@@ 420
ers, 420
13: 420
scotland 418
official 418
moved 418
Director 418
Working 418
ing: 418
constantly 417
rallies 417
Home 417
x: 417
corruption 416
flag 416
high, 416
before, 416
john 416
hire 416
saving 416
victories 416
upset 416
EVER 416
Wrong 416
disaster, 415
Navy 415
Dr 415
Christian 415
Leadership 415
govt 414
begins 414
board 414
decide 414
Learn 414
ZERO 414
IN@@ 414
z 414
begging 413
battle 413
crimes 413
renegotiate 413
letting 413
sleep 413
jealous 413
County 413
holiday 412
guilty 412
rebels 412
ine@@ 412
Failing 412
10: 412
appreciated 411
lawsuit 411
strong, 411
reduce 411
@w@@ 411
features 411
Toronto 411
Churchill 411
russia 410
phenomenal 410
sp@@ 410
member 409
original 409
expand 409
per@@ 409
matters 408
review 408
po@@ 408
protesters 408
hall 408
prove 408
Lots 408
driving 407
Hey, 407
deep 406
boss 406
5th 406
rates 406
blow 406
eyes 406
Roberts 406
actions 405
abuse 405
Room 405
Totally 405
x 405
500 404
clown 404
Flag 404
Be@@ 404
everyday 403
tool 403
forgotten 403
copy 403
designed 403
@i@@ 403
sales 402
rip 402
dopey 402
covered 401
trumps 401
others, 401
Rand 401
son: 401
Detroit 401
peoples 400
strategy 400
wall, 400
liar 400
lies, 400
effective 400
cards 400
Summit 400
ca@@ 399
St 399
African 399
Leader 399
And, 399
Elizabeth 399
mission 398
promises 398
@MikeAndMike 398
efforts 397
dirty 397
ag@@ 397
#celebrityapprentice 397
THANKS 397
Wednesday 397
Say 397
19@@ 397
ends 396
independent 396
minute 396
ceiling 396
Am 396
#GOPDebate 396
5: 396
Wind 396
exact 395
Whether 395
@Joan_Rivers 395
essentially 394
kick 394
planned 394
ten 394
prez 394
here: 394
senate 393
growing 393
sector 393
frankly, 393
x@@ 393
screen 393
Louisiana 393
ang@@ 393
9: 393
Award 393
media, 392
of, 392
really, 392
negotiator 392
Somebody 392
@VanityFair 392
anniversary 391
girl 391
Iranian 391
Reform 391
12@@ 391
states, 390
numbers, 390
foolish 390
invest 390
Mitch 390
en 390
The@@ 390
Mac 390
Negotiation 390
status 389
billionaire 389
$1@@ 389
iraq 388
west 388
elite 388
net 388
19 388
requires 388
Walker 388
Winston 388
scam 387
else, 387
ir@@ 387
stupidity 387
Abe 387
wounded 386
labor 386
History 386
poverty 385
Vietnam 385
@VP 385
+ 384
gang 384
blew 384
moron 384
firing 383
guarantee 383
kicked 383
CHANGE 383
Ed 383
Everything 383
capable 382
Consumer 382
#FakeNews 382
Ryan 382
a_@@ 382
le: 382
a, 381
embarrassed 381
Conference 381
#TrumpPence16 381
pleasure 380
visiting 380
Excited 380
Championship 380
Apple 380
wh 379
elections 379
grateful 379
anger 379
lines 379
server 379
Bedminster 379
Un@@ 379
id@@ 379
@HowardStern 379
Los 379
Mosul 379
regime 378
Video: 378
pre@@ 378
Einstein 378
de 377
Rosie 377
View 377
X@@ 377
Ferry 377
50% 376
train 376
clearly 376
@real@@ 376
all@@ 376
Charlotte 376
passing 375
includes 375
worried 375
Carl 375
Graydon 375
et 374
picked 374
fe@@ 374
over, 374
$100 374
Hard 374
@SeanHannity 374
Jewish 374
Le@@ 374
8: 374
Bo@@ 374
excitement 373
#C@@ 373
fairness 372
crowd, 372
admitted 371
obamas 371
fixed 371
conflict 371
CEO 371
@Rosie 371
ss@@ 371
jail 370
turns 370
answers 370
defending 370
dope 370
#trumpforpresident 370
Responders 370
changes 369
ho@@ 369
interviews 369
en: 369
@WWE 369
lifetime 368
drive 368
Journal 368
ex@@ 368
Growth 368
9PM 368
pa@@ 367
legislation 367
hacking 367
Tremendous 367
Tomorrow 367
Ro@@ 367
Ocean 367
generals 366
35 366
@tedcruz 366
inspiring 366
promote 365
8th 365
becomes 365
Debate 365
HE 365
impressed 364
deductibles 364
writer 364
polling 364
Class 364
Democrats, 364
Foundation 364
Trust 364
Q 364
Sorry 364
Politics 364
Vince 364
account 363
modern 363
polls, 363
machine 363
judgment 363
ot@@ 363
cases 363
Jones 363
For@@ 363
12: 363
solution 362
hurricane 362
murder 362
wed 362
Global 362
RNC 362
m: 362
Young 362
Albert 362
doubled 361
evidence 361
compliment 361
#TRUMP 361
dis@@ 361
clip 360
weather 360
UP 360
ObamaClinton 360
size 359
wow 359
contributions 359
mark 359
wake 359
delivered 359
2% 359
owned 359
quite 359
itll 359
solution, 359
Law 359
#CrookedHillary 359
critical 358
spread 358
security, 358
investments 358
students 358
Honored 358
DJT 358
Brotherhood 358
Cute 358
east 357
faith 357
@ivankatrump 357
backed 357
wild 357
CNN, 357
Kentucky 357
Politicians 357
vast 356
countries, 356
eight 356
fiscal 356
yourself, 356
Jersey 356
Henry 356
@AmSpec 356
Spitzer 356
prosperity 355
proper 355
opponent 355
hatred 355
round 355
Made 355
NEED 355
GLOBAL 355
wouldve 354
yrs 354
Prez 354
dems 353
express 353
southern 353
damage 353
Wishing 353
Gary 353
code 352
1% 352
penalty 352
network 352
doctors 352
phone 352
scandal 352
welfare 352
gi@@ 352
person, 352
percent, 352
Beach, 352
ENJOY 352
Christians 352
Bush, 352
Or 352
@TrumpScotland 352
closer 351
ds 351
annual 351
2011 351
publicity 351
sudden 351
gain 350
impressive 350
#trump 350
expanding 350
directly 350
style 350
su@@ 350
@RealDonaldTrump 350
lawyer 349
delivering 349
vital 349
@ericbolling 349
9/11 349
@krauthammer 349
us@@ 349
attitude 349
@TrumpSoHo 349
@Mike@@ 349
Tahmooressi 349
spends 348
th 348
nominee 348
$4 348
collection 348
FL 348
@O@@ 348
Ma@@ 348
@John@@ 348
Making 347
mar@@ 346
ending 346
links 346
w/@@ 346
Still 346
ley@@ 346
discussed 345
Fed 345
MSM 345
roads, 344
design 344
pour 344
paper 344
meant 344
honesty 344
judgement 344
Syria, 344
20@@ 344
NBC, 344
Cuban 344
70 343
phones 343
will, 343
classified 343
nine 343
planet 343
Polls 343
Con@@ 343
Scottish 343
ah@@ 343
TransPacific 343
las 342
universe 342
legend 342
sc@@ 342
FIRST 342
Bergdahl 342
Israel, 342
ers@@ 342
healthy 341
nbc 341
legendary 341
Douglas 341
@a@@ 341
Carrier 341
continued 340
miners 340
wanna 340
Grand 340
Matt 340
True, 340
feeling 339
Republicans, 339
Coast 339
DO 339
Team 339
Morning 339
13@@ 339
aid 338
onto 338
optimism 338
levels 338
shoot 338
myself, 338
movie 338
Yesterday 338
@TrumpLasVegas 338
g: 338
Me@@ 338
islamic 337
taxpayers 337
friend, 337
storm 337
com 337
radio 337
irrelevant 337
fame 337
personally 337
exclusively 337
certificate 337
Roy 337
High 337
Army 337
BAD 337
Bedminster, 337
ev@@ 337
DT 337
@BretBaier 337
borders, 336
leaders, 336
jo@@ 336
opponents 336
wife, 336
Sessions 336
Warren 336
ff@@ 336
@OMAROSA 336
@LeezaGibbons 336
Four 336
broke 335
quick 335
NJ 335
July 335
mis@@ 335
Incredible 335
He@@ 335
understands 334
grand 334
@sternshow 334
tax, 334
Moore 334
Chief 334
@Mr@@ 334
Thomas 333
Dinner 333
Doesnt 333
hey 332
Ratings 332
About 332
15@@ 332
r: 332
responders 331
administration, 331
hard, 331
relationships 331
twice 331
28 331
@chucktodd 331
sucks 331
Thanksgiving 331
Phoenix 331
Bring 331
da@@ 331
informed 330
protest 330
times, 330
scared 330
beaten 330
HealthCare 330
Administration, 330
Things 330
Save 330
St@@ 330
p: 330
@TrumpNewYork 330
Achievers 330
nation, 329
generation 329
consequences 329
nowhere 329
wisdom 329
Amazon 329
Rep 329
st 328
ring 328
commercials 328
checks 328
Rose 328
DAY 328
Proud 328
14@@ 328
@TrumpGolfLA 328
terminate 327
nonsense 327
@KenyaMoore 327
90 326
see, 326
# 326
wealthy 326
Orlando 326
Des 326
@TrumpTurnberry 326
WARMING 326
@whitehouse 325
everywhere 325
senator 325
Major 325
Philippines 325
ner 325
ING 325
Wheres 325
@CNNPolitics 325
this: 325
joined 324
@nytimes, 324
steal 324
was, 324
throw 324
complaining 324
200 324
danger 324
inaccurate 323
viewers 323
@buffalobills 323
back@@ 323
Phil 323
Car@@ 323
MAN 323
ke@@ 323
Jack 323
hates 322
prosperous 322
Andy 322
College 322
WHAT 322
Sgt 322
devastated 321
commercial 321
rising 321
ans 321
factories 321
says, 321
areas 321
ill@@ 321
end@@ 321
democrat 320
#maga 320
upon 320
rubio 320
bridges 320
million, 320
herself 320
Camp 320
#TaxReform 320
18@@ 320
ie@@ 320
Collection 320
stolen 319
respects 319
McConnell 319
Nov 319
@AnnCoulter 319
Dopey 319
Angeles 319
repealed 318
dy 318
Congressional 318
London 318
Patton 318
@Lord_Sugar 318
hoax 317
congratulate 317
bar@@ 317
leads 317
ow@@ 317
Sec 317
Again, 317
@h@@ 317
hide 316
disagree 316
door 316
negotiations 316
leverage 316
ballot 316
products 316
dont, 316
@yankees 316
Americans, 316
Dishonest 316
Defense 316
of@@ 316
to, 315
sexual 315
registered 315
comment 315
Congress, 315
AMAZING 315
Sugar 315
@DanScavino 315
numerous 314
est 314
inspire 314
race, 314
unemployed 314
restaurant 314
East, 314
Jr 314
Jeffrey 314
br@@ 314
arena 313
2,000 313
medical 313
challenges 313
/ 313
example, 313
car@@ 313
ation, 313
loving 312
pray 312
want, 312
alive 312
ni@@ 312
Doing 312
Policy 312
Australia 312
Apprentice, 312
VP 312
ant 312
presidents 311
currently 311
disgraceful 311
5% 311
foundation 311
hitting 311
Boeing 311
bi@@ 311
Youd 311
acts 310
capital 310
inspired 310
woman, 310
ties, 310
Irans 310
Ralph 310
ig@@ 310
LA 310
Baltimore 310
Buffalo 310
MacArthur 310
tomorrow, 309
courts 309
Tough 309
Same 309
assault 308
additional 308
or, 308
civil 308
lobbyist 308
spoken 308
indeed 308
toughest 308
@pennjillette 308
ann@@ 308
Sundays 308
Vets 308
is: 308
Unbelievable 308
@St@@ 308
ry@@ 308
har@@ 307
carried 307
youth 307
catastrophe 307
farms 307
GET 307
Roger 307
League 307
Thousands 307
CRIPPLED 307
so@@ 307
@TODAYshow 307
terrorism, 306
donations 306
soft 306
particular 306
focusing 306
@alexsalmond 306
@THEGaryBusey 306
ceremony 305
regulation 305
have, 305
thx 305
England 305
@CNBC 305
doctor, 304
MUCH 304
UN 304
#ICYMI 304
No@@ 304
@Israel 304
Muslims 304
BACK 304
@TrumpToronto 304
RE@@ 304
YOUR 304
@RNC 304
news, 303
iconic 303
masterpiece 303
ec@@ 303
congress 302
substantially 302
conversation 302
violent 302
owners 302
zone 302
Based 302
Kevin 302
Enough 302
my@@ 302
Se@@ 302
Christie 302
Bobby 302
@Real@@ 302
but, 301
ripped 301
ter 301
Sean 301
anti@@ 301
Arab 301
Larry 301
ations 301
nt@@ 301
0 300
include 300
resources 300
anyway, 300
@Late_Show 300
also, 299
hoping 299
treatment 299
ya 299
hed 299
nothing, 299
freezing 299
Schumer 299
Lady 299
HAVE 299
Want 299
April 299
#trump@@ 299
h: 299
@TraceAdkins 299
teams 298
tape 298
pull 298
bomb 298
qualified 298
State, 298
Hampshire, 298
@e@@ 298
ent@@ 298
PGA 298
defeated 297
worry, 297
solid 297
wanting 297
policy, 297
easier 297
ve@@ 297
Meet 297
horror 296
ineffective 296
considering 296
dreams 296
trial 296
concept 296
Pacific 296
Millions 296
Constitution 296
OReilly 296
ours 296
hated 295
$3 295
opposed 295
pride 295
towards 295
Wonderful 295
@Trump@@ 295
ard@@ 295
PACs 295
signs 294
effect 294
monster 294
bosses 294
about, 294
insane 294
Presidents 294
Hawaii 294
Moscow 294
AR@@ 294
Awards 294
to@@ 294
#DemDebate 294
air@@ 294
Fred 294
deepest 293
restrictions 293
opened 293
largely 293
writes 293
details 293
production 293
@meetthepress 293
at: 293
Review 293
ak@@ 293
sacrifice 292
prime 292
lunch 292
screaming 292
legacy 292
region 292
her, 292
central 292
pols 292
Million 292
Lindsey 292
Pre@@ 292
b: 292
ly, 292
Obamacare, 292
NAFTA, 292
sadly, 291
9% 291
fellow 291
ates 291
community, 291
projects 291
morning, 291
@kevinjonas 291
Patrol 291
US@@ 291
Miller 291
Free 291
Chicago, 291
workers, 290
cancelled 290
stamps 290
instincts 290
feet 290
ell@@ 290
Put 290
23@@ 290
als 290
Doonbeg 290
Jeter 290
peaceful 289
championship 289
losses 289
oil, 289
@celebapprentice 289
Wouldnt 289
Podesta 289
ER 289
les 289
Almost 289
greatness 288
mayor 288
main 288
event, 288
tea 288
FEMA 288
Wayne 288
ur@@ 288
ONE 288
bernie 287
sides 287
ended 287
sunday 287
target 287
hat 287
vote, 287
Pearl 287
Corker 287
Canadian 287
Which 287
important, 286
vet 286
finale 286
hello 286
count 286
sand 286
@Ch@@ 286
father, 285
gre@@ 285
weapon 285
al, 285
CUT 285
House, 285
CIA 285
$@@ 285
#GOP 285
Hi 285
elected, 284
version 284
ny 284
experts 284
cities, 284
organization 284
nobodys 284
suit 284
Also 284
Megyn 284
sk@@ 284
PAC 284
Lance 284
roof 283
listened 283
vigilant 283
green 283
lived 283
criticized 283
$19 283
series 283
Franklin 283
33: 283
announcing 282
earlier 282
meaning 282
Chairman 282
Better 282
Mrs 282
ay@@ 282
loud 281
authorities 281
praying 281
value 281
cancel 281
feels 281
@marcorubio 281
legally 281
skyline 281
are@@ 281
Party, 281
CAN 281
workforce 280
threats 280
negotiated 280
owes 280
character 280
uses 280
did, 280
#D@@ 280
Sorry, 280
Re 280
embrace 279
returning 279
openly 279
mouth 279
trail 279
score 279
Bloomberg 279
Vegas, 279
Tim 279
ster@@ 279
Okay, 279
lady 278
hospital 278
electric 278
slow 278
ranked 278
autism 278
gay 278
frankly 278
Sanctuary 278
%, 278
Mc@@ 278
Family 278
ker@@ 278
closed 277
basis 277
14th 277
yet, 277
thrown 277
Report 277
Congressman 277
Biggest 277
Rick 277
SAD 277
Jim 277
ick@@ 277
by@@ 277
Partnership 277
LE@@ 277
corporations 276
direct 276
15% 276
clintons 276
environment 276
expense 276
Watch: 276
ting 276
Penn 276
min@@ 276
Red 276
remarks 275
chaos 275
religious 275
oclock 275
problems, 275
letterman 275
hired 275
@jacknicklaus 275
bird 275
Geraldo 275
IA 275
Bin 275
Man@@ 275
MY 275
WikiLeaks 275
prison 274
nyc 274
politics, 274
goods 274
facing 274
responsibility 274
gorgeous 274
something, 274
Interview 274
Job 274
ment 274
GO 274
Pay 274
@f@@ 274
judges 273
recognize 273
9pm 273
resign 273
fallen 273
3% 273
anymore, 273
choice, 273
settle 273
Harry 273
Jimmy 273
show@@ 273
22: 273
ice@@ 273
21: 273
@Matt@@ 273
AfricanAmericans 273
receiving 272
ticket 272
ce@@ 272
idol 272
HEROES 272
Johnson 272
VETERANS 272
Island 272
Tuesday, 272
88: 272
Union 272
Moines 272
ate@@ 272
ous 272
iz@@ 272
eventually 271
reach 271
moves 271
chief 271
endorsing 271
larger 271
Do@@ 271
City, 271
Call 271
ber@@ 271
opens 270
question, 270
MORE 270
October 270
WAY 270
don@@ 269
vegas 269
elect 269
opinion, 269
knowing 269
mine, 269
$800 269
GOD 269
@FoxBusiness 269
Sarah 269
Piers 269
Face 269
@CBSNews 269
Yeah, 269
solutions 268
lawyers 268
comeback 268
married 268
Dec 268
Security, 268
Forbes 268
THIS 268
Kenya 268
documents 267
minister 267
writers 267
team, 267
leaves 267
supporter 267
27 267
purpose 267
stamina 267
theme 267
rough 267
flow 267
Diamond 267
commitment 266
forget, 266
firm 266
gotta 266
amazing, 266
@mike_pence 266
sen@@ 266
benefits 265
ch 265
embarrassment 265
acting 265
hot 265
manager 265
sir, 265
Mississippi 265
@AP 265
17: 265
gr@@ 265
sake 264
cases, 264
Unemployment 264
Use 264
@BarbaraJWalters 264
fu@@ 264
ons 264
@CPACnews 264
Honestly, 264
otherwise 263
16th 263
restaurants 263
Special 263
Ukraine 263
#Obamacare 263
School 263
_ 263
_B@@ 263
Manhattan 263
Theyd 263
source 262
100,000 262
claim 262
leaks 262
Small 262
69: 262
s) 262
ley 262
months, 261
emails, 261
an, 261
noon 261
@jimmyfallon 261
schools, 261
Tiger 261
August 261
Oklahoma 261
Secret 261
press, 260
onesided 260
catch 260
entertaining 260
bar 260
Bay 260
During 260
Network 260
OUT 260
al: 260
Organization 260
mainstream 259
shortly 259
produce 259
therefore 259
@nfl 259
Joint 259
Sounds 259
Huge 259
Five 259
#Oscars 259
point, 258
melania 258
previous 258
attack, 258
abandoned 258
fails 258
cyber 258
quickly, 258
busy 258
loan 258
keynote 258
December 258
Th@@ 258
MA@@ 258
mor@@ 258
Armstrong 258
networks 257
beats 257
lowering 257
sin@@ 257
two, 257
eliminate 257
Years 257
Harbor 257
Todd 257
Probably 257
@TeamCavuto 257
@Al@@ 257
A: 257
Power 257
ap@@ 257
hiring 256
contest 256
request 256
39 256
mostly 256
problem, 256
ppl 256
breaking 256
failures 256
#TBT 256
Co@@ 256
suing 255
underestimate 255
Dems, 255
Kansas 255
G: 255
S: 255
evil 254
budget, 254
candidacy 254
crap 254
tenacious 254
classy 254
@JudgeJeanine 254
int@@ 254
ling 254
17@@ 254
ES 254
sm@@ 254
fi@@ 254
friends, 253
tribute 253
fill 253
40% 253
$50 253
@donlemon 253
qu@@ 253
Hollywood 253
far@@ 253
se: 253
dy@@ 253
Theyll 253
Pinehurst 253
#Debates2016 253
Libya, 253
handled 252
injured 252
begun 252
(; 252
killers 252
lie, 252
Dream 252
Service 252
replaced 251
love, 251
predicted, 251
sued 251
file 251
Campaign 251
MASSIVE 251
(I 251
tion 251
ent 251
FOX 251
sha@@ 251
@HuffingtonPost 251
Kaine 251
seat 250
stole 250
visa 250
relief 250
saturday 250
31 250
Arabia, 250
TOTAL 250
Ch@@ 250
Van 250
Arnold 250
Having 250
ast@@ 250
az@@ 250
2018 249
monitoring 249
dump 249
company, 249
go, 249
fly 249
hundred 249
Korean 249
Rush 249
38@@ 249
Di@@ 249
celebrating 248
system, 248
determination 248
theft 248
extreme 248
achievement 248
ari@@ 248
Fifth 248
@DanAmira 248
far, 247
releasing 247
o, 247
strength, 247
brain 247
sports 247
till 247
forgot 247
windfarm 247
Board 247
WORLD 247
#POTUS 247
@David@@ 247
$5@@ 247
@Mark@@ 247
att@@ 247
@ArsenioHall 247
going, 246
development 246
candidates, 246
counts 246
temperament 246
Homeland 246
Abraham 246
someday 245
10,000 245
hacked 245
spin 245
low@@ 245
tone 245
46 245
Anyone 245
Harvey 245
UN@@ 245
@mike@@ 245
news@@ 245
@z@@ 245
Absolutely 245
Set 245
anything, 244
fabricated 244
remains 244
witch 244
boycott 244
ke 244
prepare 244
options 244
shop 244
@thehill 244
fell 244
@marklevinshow 244
hi 244
space 244
@FLGovScott 244
Adam 244
00@@ 244
AN@@ 244
#IACaucus 244
La@@ 244
Goofy 244
Resort 244
(which 243
stance 243
instance, 243
stick 243
store 243
Lake 243
Finally, 243
Out 243
AT 243
Lo@@ 243
ch: 243
her@@ 243
friendly 242
aliens 242
future, 242
8% 242
knowingly 242
awards 242
@macys 242
lol 242
@re@@ 242
Conservative 242
ble@@ 242
ED 242
1,000 241
expanded 241
$25 241
actually, 241
walls 241
obvious 241
Am@@ 241
an_@@ 241
Scotland, 241
fighters 240
fight, 240
str@@ 240
match 240
appoint 240
loses 240
Thoughts 240
Womens 240
Newsmax@iontv 240
@I@@ 240
oo@@ 240
Knight 240
bridges, 239
migration 239
summer 239
armed 239
minds 239
babies 239
Didnt 239
Hannity 239
Bridge 239
ste@@ 239
Something 239
#TeamTrump 239
land@@ 239
fronts 238
attorney 238
lift 238
wrong, 238
monday 238
laughed 238
wide 238
contestants 238
10% 238
walked 238
Total 238
Building 238
Rich 238
Nashville 238
@l@@ 238
ant@@ 238
AG 238
@Michael@@ 238
#W@@ 238
con 237
ohio 237
usual 237
empire 237
left, 237
destabilize 237
#LESM 237
ME 237
AL@@ 237
Guy 237
Pete 237
Tower, 237
mans 236
black 236
fault 236
park 236
lifted 236
journey 236
fast, 236
newspaper 236
idiots 236
proposed 236
Mon@@ 236
BIRTHDAY 236
#HurricaneHarvey 236
Wait 236
ner: 236
Smart 236
@Joe@@ 236
14: 236
Actually, 236
@MsVivicaFox 236
@MattGinellaGC 236
fundraiser 235
block 235
executives 235
coast 235
patrol 235
gangs 235
cents 235
roll 235
balancing 235
TODAY 235
Spoke 235
Yet 235
_S@@ 235
@TrumpFerryPoint 235
cnn 234
covering 234
tragedy 234
b/c 234
individuals 234
mike 234
mon@@ 234
advance 234
produced 234
deductions 234
Terrorism 234
Word 234
ens 234
ps 234
hunt 233
2000 233
delay 233
attending 233
register 233
#debate 233
wars 233
enforce 233
shirts, 233
hospitals 233
OCare 233
Fathers 233
22@@ 233
Morgan 233
33@@ 233
Whos 233
NC 233
ks 233
Williams 233
syria 232
christmas 232
solved 232
6% 232
8pm 232
RECORD 232
au@@ 232
WITH 232
Jo@@ 232
@be@@ 232
@Big@@ 232
@Chris@@ 232
@PianoBecca: 232
@Newsmax_Media: 232
85 231
horrendous 231
priority 231
sale 231
plateau, 231
smaller 231
pp@@ 231
stunning 231
suits 231
turbine 231
lan@@ 231
Wrong, 231
Jay 231
Spring 231
Stupid 231
Mac@@ 231
EN@@ 231
ton: 231
Eliot 231
obviously 230
merely 230
management 230
enormous 230
51% 230
broadcast 230
ton 230
shots 230
yr 230
literally 230
ER@@ 230
Late 230
gra@@ 230
ge 230
Reuters 230
@V@@ 230
@ro@@ 230
ver@@ 230
art@@ 230
Warren, 230
remaining 229
discussion 229
importance 229
forces 229
dad 229
caucus 229
attend 229
regarding 229
mi@@ 229
passionate 229
luxurious 229
politicians, 229
Debt 229
Stand 229
THAT 229
Todays 229
right@@ 229
Cleveland 229
jury 228
headed 228
allies, 228
lives, 228
hacks 228
longest 228
featuring 228
integrity 228
stealing 228
segment 228
Melania, 228
Black 228
Neil 228
Leading 228
@john@@ 228
av@@ 228
fa@@ 228
Been 228
representatives 227
suspend 227
accurate 227
finance 227
supportive 227
everybody, 227
shirt 227
walking 227
ego 227
farm 227
Emails 227
YOURE 227
16@@ 227
Watched 227
Bu@@ 227
16: 227
Hagel 227
privilege 226
disloyal 226
party, 226
savings 226
influence 226
developments 226
patriot 226
master 226
@newsmax_media 226
it: 226
Poll: 226
@belllabooo13: 226
hi@@ 226
@MissUSA 226
#VPDebate 226
filled 225
passage 225
sanders 225
crowds, 225
ist@@ 225
MAKING 225
Manufacturing 225
Trillion 225
WHY 225
Cabinet 225
w: 225
@al@@ 225
@fackinpeter: 225
referred 224
fbi 224
individual 224
israel 224
destructive 224
imploding 224
begged 224
pleased 224
places, 224
tries 224
normal 224
family, 224
Ad@@ 224
WWE 224
Taliban 224
ci@@ 224
me: 224
@TMobile 224
el: 224
res 224
real@@ 224
run@@ 224
supporters, 223
apologizing 223
payments 223
home, 223
fat 223
around, 223
dumping 223
invite 223
balanced 223
competitor 223
insight 223
cliff 223
Southern 223
Bill, 223
Charles 223
India 223
WOW 223
ICE 223
Icahn 223
strengthen 222
representative 222
intl 222
attempt 222
clowns 222
@ariannahuff 222
roads 222
Perry 222
@TIME 222
Fair 222
Lord 222
Seth 222
strange 221
investing 221
suffer 221
enemy, 221
awarded 221
inducted 221
kidding 221
music 221
Met 221
BS 221
Ar@@ 221
c: 221
USMC 221
@NRO 221
served 220
sees 220
counting 220
convinced 220
yeah, 220
ted, 220
chosen 220
demand, 220
Bowl 220
Help 220
Fired 220
@RickSantorum 220
Ex@@ 220
TR@@ 220
us: 220
@SenTedCruz 220
pictures 219
bl@@ 219
threatening 219
advertising 219
enjoying 219
imbalance 219
CommanderinChief 219
ation@@ 219
@DMRegister 219
#SuperTuesday 219
Danny 219
150 218
4% 218
boom 218
beginning, 218
confront 218
sorts 218
continuing 218
everyone, 218
explained 218
20th 218
ors 218
pipeline 218
commentary 218
none 218
does, 218
Whatever 218
Garden 218
#UNGA 218
Pathetic 218
Gen 218
night@@ 218
ding 218
@An@@ 218
77@@ 218
Towers 218
supreme 217
fighter 217
weeks, 217
horrible, 217
42 217
exclusive 217
@todayshow 217
record, 217
je@@ 217
sharp 217
400 217
employed 217
pervert 217
ourselves 217
Highest 217
Budget 217
STOP 217
ally, 217
Thanks@@ 217
mass 216
sharing 216
announces 216
heavy 216
vetting 216
yesterdays 216
Crime 216
Club, 216
Cruz, 216
Rally 216
#S@@ 216
OR 216
@De@@ 216
TH@@ 216
der@@ 216
hardworking 215
services 215
admitting 215
bombing 215
think, 215
topics 215
strike 215
unfit 215
93 215
est@@ 215
l: 215
senators 214
terrible, 214
@theviewtv 214
cancer 214
@fundanything 214
Illegal 214
Kim 214
Staff 214
co/@@ 214
#F@@ 214
ti@@ 214
@SarahPalinUSA 214
@60Minutes 214
Go@@ 214
funded 213
determined 213
tragic 213
careful, 213
partnership 213
agreements 213
campaigned 213
exchange 213
unleash 213
background 213
manipulation 213
renovations 213
interests, 213
COME 213
Bank 213
Gala 213
ASAP 213
Plan 213
Sandy 213
@TrumpWaikiki 213
cre@@ 213
#DonaldTrump 213
gg@@ 213
2016: 213
Vancouver 213
tal@@ 213
M: 213
Actually 213
our@@ 213
@DoralResort 213
kicking 212
completed 212
beautifully 212
mer@@ 212
era 212
viciously 212
require 212
applications 212
MS13 212
Coach 212
Try 212
ley: 212
31: 212
app@@ 212
@jeff@@ 212
beach 211
behavior 211
serving 211
jobless 211
burden 211
pu@@ 211
plays 211
2008 211
survive 211
mate 211
Meeting 211
lin@@ 211
up@@ 211
che@@ 211
regimes 210
outlets 210
programs 210
ep@@ 210
hostile 210
believed 210
everything, 210
| 210
nominated 210
sends 210
bid 210
pro 210
veteran 210
builds 210
nicely 210
af@@ 210
Patriots 210
Excellent 210
Mo@@ 210
SMART 210
Reading 210
See, 210
ter: 210
Wharton 210
invitation 209
bright 209
ry 209
affected 209
geniuses 209
pursue 209
happening, 209
golden 209
q@@ 209
inspirational 209
bubble 209
AD@@ 209
Intelligence 209
Stern 209
@Re@@ 209
Bible 209
understood 208
candidate, 208
rose 208
democracy 208
made, 208
par@@ 208
picks 208
fold 208
surrender 208
quarterback 208
unbelievably 208
depleted 208
Companies 208
Academy 208
Com@@ 208
Rs 208
Standing 208
Alabama, 208
Dummy 208
Ne@@ 208
@am@@ 208
ard: 208
@me@@ 208
ele@@ 208
@y@@ 208
fiction 207
48 207
crash 207
friendship 207
usual, 207
row 207
history, 207
loans 207
anchor 207
peanuts 207
atrium 207
aw@@ 207
Pro@@ 207
Fast 207
gh@@ 207
Rubio, 207
vi@@ 207
Yankees 207
causing 206
patient 206
marco 206
cute 206
acres 206
rooting 206
experience, 206
complicated 206
Gillespie 206
Jackson 206
Agree 206
we@@ 206
ek@@ 206
@v@@ 206
now@@ 206
Unlike 206
We@@ 206
@LilJon 206
gross 205
reputation 205
editorial 205
bridge 205
sport 205
intelligent 205
aspect 205
Confidence 205
below 205
Dept 205
Rule 205
Listen 205
Sh@@ 205
AC@@ 205
mc@@ 205
25@@ 205
ve, 205
ness 205
80 204
growth, 204
chinese 204
@nypost 204
ford 204
honoring 204
@barackobamas 204
@hardball_chris 204
language 204
financials 204
mat@@ 204
dining 204
preparing 204
Francisco 204
@CNN, 204
CA 204
@OANN 204
ba@@ 204
ed, 204
s_@@ 204
Lombardi 204
Other 204
Olympic 204
war, 203
shed 203
committee 203
tiny 203
ok 203
started, 203
9th 203
romney 203
33% 203
amenities 203
@st@@ 203
Amendment, 203
Assad 203
Easter 203
Barbara 203
Me 203
@Macys, 203
Saw 203
99: 203
inappropriate 202
subjects 202
gained 202
brutal 202
entitled 202
flying 202
badly, 202
@bobvanderplaats 202
intellectual 202
scandals 202
shit 202
donate 202
Fire 202
Ross 202
Mary 202
ABC, 202
RIGHT 202
NEEDS 202
@FoxNewsSunday 202
IF 202
backbone 201
exposed 201
proudly 201
appropriate 201
defeating 201
discredited 201
markets 201
educated 201
positions 201
den 201
clueless 201
5,000 201
hack 201
necessarily 201
Liberal 201
KNOW 201
Insurance 201
Emmys 201
Travel 201
British 201
Martin 201
country@@ 201
AT@@ 201
Presidency 201
ter@@ 201
Bret 201
innovation 200
contact 200
(as 200
militarily 200
texas 200
soldier 200
newspapers 200
k, 200
believing 200
forming 200
spy 200
hardest 200
ovation 200
sons 200
$21 200
Frank 200
Irma 200
Support 200
ent, 200
http://bit 200
ans@@ 200
#TRUMP2016 200
T: 200
girl@@ 200
bro@@ 200
Rev 200
protests 199
@breitbartnews 199
cu@@ 199
resolution 199
@nbcsnl 199
thanks, 199
combination 199
horribly 199
75@@ 199
population 199
Weak 199
FAST 199
Texas, 199
Energy 199
#Trump16 199
sa: 199
Hello 199
@Jo@@ 199
Bre@@ 199
se, 199
@TigerWoods 199
Petraeus 199
critics 198
dealt 198
thru 198
women, 198
dc 198
$500 198
ruining 198
ary 198
too, 198
tomorrows 198
birds 198
apartment 198
reforms 198
#sweepstweet 198
Pensacola, 198
LIKE 198
hard@@ 198
Cadillac 198
un 197
productive 197
arms 197
reaching 197
carry 197
speaker 197
bed 197
baseball 197
el 197
off, 197
30,000 197
kid 197
celebrities 197
investor 197
eminent 197
Speaking 197
OR@@ 197
ate: 197
Win 197
eri@@ 197
Har@@ 197
Univision 197
@Ar@@ 197
anne@@ 197
sho@@ 197
whom 197
shutdown 196
killed, 196
transparency 196
25% 196
unpredictable 196
data 196
36 196
thanking 196
goofy 196
best, 196
uk 196
avoid 196
Shows 196
Forces 196
LI@@ 196
Benjamin 196
inter@@ 196
Virginia, 196
Daily 196
77: 196
YOU, 196
ck@@ 196
os 196
81: 196
any@@ 196
internet 195
empty 195
@erictrump 195
sanctuary 195
8th, 195
reelection 195
shared 195
whenever 195
creation 195
secrets 195
hostages 195
negate 195
Senate, 195
Asia 195
Pretty 195
Susteren 195
CEOs 195
Green 195
30@@ 195
ack@@ 195
#MissUniverse 195
ers: 195
sch@@ 195
Michelle 195
60@@ 195
ity@@ 195
ee@@ 195
understand, 194
convince 194
floor 194
others) 194
epic 194
away, 194
choked 194
passion, 194
training 194
victorious 194
Qaeda 194
Build 194
50@@ 194
him@@ 194
ss 194
ner@@ 194
0: 194
again@@ 194
@VinceMcMahon 194
ic 194
suffered 193
budgets 193
difficulties 193
unique 193
outsider 193
32 193
circulation 193
television, 193
picking 193
eat 193
Vice 193
ins 193
Karen 193
Generals 193
Poland 193
Bar@@ 193
os@@ 193
ine: 193
Trace 193
OK, 193
warriors 192
mistake, 192
35% 192
gov 192
18% 192
scale 192
leaked 192
disrespecting 192
cross 192
beef 192
incorrect 192
2010 192
properties 192
teach 192
spe@@ 192
Speech 192
Off 192
th: 192
day@@ 192
D: 192
gan@@ 192
@Jay@@ 192
Life 192
Seriously 192
haters, 191
predict 191
cheating 191
platform 191
womens 191
38 191
ger@@ 191
differently 191
@davidaxelrod 191
stuck 191
companies, 191
72 191
assume 191
messenger 191
Departing 191
antiTrump 191
MEDIA 191
@se@@ 191
ale@@ 191
Yemen 191
ll@@ 191
heartbeat 190
2004 190
@netanyahu 190
unfairly 190
pledged 190
capability 190
finances 190
element 190
@USNavy 190
Museum 190
Commissioner 190
#APEC2017 190
Earth 190
Bushs 190
@Ro@@ 190
ance 190
CNBC 190
@JohnLegere 190
S, 190
wa@@ 190
lu@@ 190
na@@ 190
delegation 189
authority 189
housing 189
children, 189
importantly 189
success, 189
allstar 189
households 189
Flynn 189
@IngrahamAngle 189
Highly 189
Pope 189
Someone 189
Gulf 189
Gi@@ 189
dd@@ 189
40@@ 189
ve: 189
ine 189
palm 188
demands 188
primaries 188
whoever 188
dynamic 188
ms 188
dealmaker 188
@morningmika 188
then, 188
stops 188
checking 188
fundraisers 188
balls 188
@sh@@ 188
billion, 188
documentary 188
Financial 188
Guard 188
Tennessee, 188
ham@@ 188
Laden 188
ts, 188
DEAL 188
@de@@ 188
Bur@@ 188
@Dan@@ 188
virginia 187
holidays 187
warm 187
ordered 187
simple, 187
indiana 187
sailors 187
proof 187
charges 187
believer 187
combined 187
neither 187
usually 187
@trumpdoral 187
silence 187
favors 187
shake 187
just@@ 187
improve 187
RED 187
Vanity 187
ity 187
IS@@ 187
Crippled 187
fer@@ 187
great@@ 187
@SRQRepublicans 187
@InTheElections: 187
oval 186
guys, 186
puppet 186
deaths 186
carrier 186
fireworks 186
watch, 186
morons 186
abolish 186
landmark 186
windmills 186
Square 186
Channel 186
ALWAYS 186
Honor 186
Treasury 186
Billion 186
@1@@ 186
REALLY 186
MO@@ 186
78: 186
So@@ 186
ess@@ 186
ank@@ 186
ful@@ 186
Mexicos 186
@JonahNRO 186
estimates 185
november 185
enthusiastic 185
rescue 185
march 185
shootings 185
entry 185
nominate 185
publicly 185
stupidly 185
icon 185
downtown 185
JOB 185
Stuart 185
Him 185
Gitmo 185
@FrankLuntz 185
20: 185
100@@ 185
shi@@ 185
granted 184
hurting 184
likely 184
featured 184
settled 184
formed 184
@dennisrodman 184
radicalized 184
Week 184
Natl 184
Stone 184
ly/@@ 184
46@@ 184
@Me@@ 184
as: 184
Pastor 184
@IanZiering 184
2017, 183
task 183
realized 183
law, 183
support, 183
opposition 183
ethic 183
deny 183
profiling 183
A, 183
Harvard 183
Senators, 183
Says 183
der: 183
Pipeline 183
@dan@@ 183
Sch@@ 183
Gold 183
ler 183
Realize 183
Edison 183
Jan 183
allows 182
jet 182
originally 182
recorded 182
involved, 182
groups, 182
blind 182
fathers 182
longterm 182
delayed 182
relying 182
tied 182
yeah 182
racial 182
earn 182
Finally 182
Said 182
DONT 182
com@@ 182
@Bill@@ 182
T, 182
Dad 182
Amnesty 182
@Alex@@ 182
conditions 181
rollout 181
se 181
knowledge, 181
(a 181
retweet 181
accepted 181
reasonable 181
detail 181
beautiful, 181
happened, 181
Alaska 181
Foreign 181
EVERY 181
En@@ 181
am: 181
PA 181
@big@@ 181
ite@@ 181
pure 180
sugar 180
taxpayer 180
sooner 180
plain 180
borrow 180
$$ 180
jump 180
shell 180
stake 180
ar 180
800 180
lacks 180
AGAIN, 180
END 180
NATIONAL 180
Statement 180
Safe 180
Ge@@ 180
@Le@@ 180
AM@@ 180
Achievement 180
house, 179
launch 179
streets 179
chris 179
52 179
thugs 179
aware 179
midas 179
sometime 179
rich, 179
fuel 179
employ 179
hats 179
ultimately 179
jobkilling 179
from, 179
NATION 179
Problem 179
Marines 179
Peter 179
Stephen 179
ore@@ 179
ate, 179
s; 179
guy@@ 179
Sha@@ 179
purposely 178
threatened 178
thankful 178
15,000 178
admits 178
george 178
grown 178
#tcot 178
hedge 178
fresh 178
past, 178
sense, 178
@SenateMajLdr 178
Palestinian 178
February 178
Speaker 178
fre@@ 178
sto@@ 178
24: 178
ind@@ 178
du@@ 178
ence 178
Soon 178
stimulus 177
department 177
producing 177
pic 177
happier 177
calm 177
spa 177
basically 177
endless 177
buyers 177
cheapest 177
unleashed 177
extent 177
Networks 177
24@@ 177
Video 177
Sergeant 177
ics 177
67: 177
@GStephanopoulos 177
approximately 176
photos 176
vets, 176
class, 176
relations 176
fraudulent 176
unit 176
heavily 176
collapse 176
bombed 176
zones 176
breeds 176
builder 176
regulations, 176
@LouDobbs 176
XL 176
WATCH 176
ce: 176
Nashville, 176
Steven 176
@Am@@ 176
Tweet 176
ris@@ 176
Hotel, 176
@ThisWeekABC 176
Sarasota 176
66: 176
@AC360 176
ker 176
Collection, 176
Dennis 176
Nobodys 176
extraordinary 175
potus 175
quarter 175
renovation 175
mentions 175
(not 175
bunch 175
@ma@@ 175
quotes 175
Vladimir 175
ence, 175
NY@@ 175
@TheReal@@ 175
@Steve@@ 175
san@@ 175
ve 175
pl@@ 175
Then, 175
Justices 175
phrase 174
ia 174
slogan 174
(who 174
pennsylvania 174
failed, 174
bc 174
ht 174
engaged 174
attended 174
wedding 174
mitt 174
nervous 174
factor 174
tweeted 174
wearing 174
profits 174
trillion, 174
stubborn 174
fate 174
charities 174
stuff, 174
stamp 174
ruined 174
Ron 174
Infrastructure 174
Roosevelt 174
Fox, 174
Hopefully, 174
Ever 174
ster 174
Sta@@ 174
_T@@ 174
Cuomo 174
Treat 174
Season 174
projected 173
dishonesty 173
runoff 173
civilization 173
rarely 173
learning 173
inept 173
boys 173
appointed 173
electricity 173
bs 173
holes 173
sets 173
airports, 173
unite 173
fit 173
cor@@ 173
Moon 173
Panama 173
ach@@ 173
Buy 173
AWESOME 173
BUT 173
X 173
28@@ 173
@NYDailyNews 173
ko@@ 173
del@@ 173
Oscars 173
Mitts 173
faster 172
consumer 172
basketball 172
#s 172
puerto 172
eye 172
desk 172
immediate 172
devastating 172
funeral 172
profit 172
speech, 172
warned 172
41% 172
mad 172
selection 172
entering 172
blown 172
@bretmichaels 172
Protection 172
Govt 172
Jared 172
@TheBrodyFile 172
Before 172
ODonnell 172
sy@@ 172
TRUTH 172
Mor@@ 172
ere@@ 172
Part 172
@GolfChannel 172
RT@@ 172
ful 172
Cold 172
pages 171
san 171
muslim 171
active 171
battlefield 171
adding 171
chances 171
appearing 171
issued 171
bus 171
complex 171
cheap 171
fees 171
timing 171
although 171
@david@@ 171
fraud, 171
Phony 171
Caucus 171
Oil 171
st, 171
#VoteTrump2016 171
Du@@ 171
WE@@ 171
j: 171
Tampa 171
Bronx 171
Entrepreneurs 171
#americafirst 170
basic 170
@gop 170
unnecessary 170
can@@ 170
venue 170
focus, 170
reserves 170
3pm 170
massively 170
Day, 170
Maine 170
STRONG 170
123: 170
Dan 170
od@@ 170
@CadillacChamp 170
62 169
offering 169
proposal 169
patriots 169
dare 169
turnout 169
traveled 169
bail 169
planes 169
idiot 169
Gun 169
WAS 169
TS 169
ANY 169
Ireland, 169
@IsraeliPM 169
IQ 169
Ohio, 169
SNL 169
ane@@ 169
#TheApprentice 169
square 168
heed 168
parties 168
gifts 168
measured 168
began 168
prevent 168
businesses, 168
acquisition 168
@pressjournal 168
STATE 168
Sheriff 168
ITS 168
bel@@ 168
pping 168
@Y@@ 168
ey@@ 168
s,@@ 168
_j@@ 168
THE@@ 168
@Scott@@ 168
ple@@ 168
ic, 168
re, 168
Yorkers 168
Mandela 168
merry 167
david 167
countless 167
reminded 167
violation 167
for, 167
siege 167
celebration 167
crucial 167
talent, 167
incapable 167
blog 167
seconds 167
carrying 167
truth, 167
seasons 167
grade 167
ways, 167
Turkey 167
FROM 167
PR 167
REPEAL 167
@FoxNews: 167
Illinois 167
01: 167
fan@@ 167
My@@ 167
mb@@ 167
sing 167
lam@@ 167
ph@@ 167
le, 167
@kyleraccio: 167
Each 167
remembered 166
premium 166
fewer 166
podium 166
ali@@ 166
coach 166
biz 166
releases 166
reckless 166
mu@@ 166
carson 166
ati@@ 166
pulling 166
cycle 166
mentor 166
carbon 166
ser@@ 166
boy, 166
parttime 166
Important 166
https:// 166
Boring 166
@LibertyU 166
News@@ 166
@Rick@@ 166
te 166
Fiorina 166
@MasterBaxter8: 166
Alone 166
backwards 165
overtime 165
americas 165
hearts 165
nfl 165
ny@@ 165
coincidence 165
11th 165
( 165
dropping 165
charged 165
statement, 165
justices 165
Country, 165
Kingdom 165
Editorial 165
2016@@ 165
Gas 165
BY 165
ved 165
HAS 165
C: 165
__@@ 165
good@@ 165
@Mar@@ 165
28: 165
Follow 165
Palos 165
Verdes 165
@alex@@ 165
customers 164
old, 164
service, 164
49 164
pr@@ 164
weekly 164
horrific 164
towns 164
surge 164
capacity 164
answered 164
noticed 164
care, 164
recommend 164
par 164
92 164
Individual 164
Far 164
Alex 164
Us 164
Monmouth 164
pri@@ 164
@Trump_Charlotte 164
33 163
more) 163
arrested 163
ballistic 163
saudi 163
research 163
obstruction 163
rush 163
represented 163
blood 163
referring 163
disasters 163
stripped 163
warfare 163
industrial 163
Electoral 163
I, 163
DISASTER 163
#Hannity 163
SHOW 163
@Forbes 163
mp@@ 163
Su@@ 163
@Mary@@ 163
ss: 163
Failed 163
Bi@@ 163
aL@@ 163
@FrankCaliendo 163
@PaulRyanVP 163
dumber 162
clock 162
agents 162
5, 162
votes, 162
decisive 162
believe, 162
replacement 162
list, 162
teachers 162
murders 162
first, 162
crude 162
lately 162
nuts 162
happens, 162
warming, 162
ride 162
VA, 162
Steinle 162
Long 162
@BarackObama, 162
Y, 162
POLL 162
pi@@ 162
red@@ 162
Romney, 162
fun@@ 162
e_@@ 162
Pennsylvania, 162
First, 162
Goldman 162
seeks 161
dem 161
nukes 161
pretending 161
tops 161
dominant 161
honor, 161
murdered 161
Dow 161
Justice, 161
Deal, 161
gri@@ 161
@Patriots 161
Cannot 161
Register 161
ks@@ 161
Rink 161
@sp@@ 161
illy@@ 161
@The_@@ 161
@Mike_Pence 161
proved 160
um 160
joint 160
tom 160
reelected 160
deeply 160
entered 160
shores 160
mistakes, 160
exceptional 160
brains 160
body 160
screwed 160
fun, 160
wig 160
hiding 160
BUILD 160
Zero 160
Loser 160
ings, 160
TONIGHT 160
$1M 160
Respect 160
money@@ 160
@GovChristie 160
Jebs 160
itt@@ 160
Fight 160
Eric, 160
and/or 159
embassy 159
funds 159
solidarity 159
confident 159
facility 159
associated 159
washington, 159
placed 159
pol 159
lousy 159
developing 159
@jo@@ 159
momentum, 159
windfarms 159
cufflinks 159
FIRED 159
HillaryClinton 159
@SteveKingIA 159
ON@@ 159
job@@ 159
iti@@ 159
ade@@ 159
@Z@@ 159
Obama@@ 159
andy@@ 159
_D@@ 159
Spa 159
Nicklaus 159
Dwight 159
ash@@ 159
IRS 159
encourage 158
roaring 158
(with 158
aboard 158
treating 158
unprecedented 158
eric 158
dealings 158
daughter, 158
backs 158
competitive 158
tip 158
laid 158
fundraising 158
remove 158
because, 158
control, 158
Dossier 158
Pensacola 158
Economic 158
@DanScavino: 158
yn@@ 158
ses 158
tr@@ 158
Cor@@ 158
Carlos 158
Lee 158
Doral, 158
Baton 158
combat 157
subpoena 157
union 157
easy, 157
char@@ 157
inflation 157
weapons, 157
7% 157
30% 157
offered 157
cash, 157
@squawkcnbc 157
$58 157
BILLION 157
Greece 157
Ambassador 157
Six 157
@TrumpCollection 157
QVC 157
,000,000 157
Wh@@ 157
bol@@ 157
GO@@ 157
@FoxNewsInsider 157
DonaldTrump: 157
@dcfoodsafety: 157
off@@ 157
_C@@ 157
terminated 156
landing 156
scheduled 156
majority, 156
delivers 156
ft 156
dignity 156
magnet 156
located 156
insightful 156
generations 156
cheat 156
standpoint 156
Jerusalem 156
mil@@ 156
Winner 156
WEAK 156
Ocare 156
sh 156
73 156
to: 156
self@@ 156
10pmE 156
Hol@@ 156
ations, 156
ic: 156
Wont 156
Dear 156
Worst 156
like@@ 156
Po@@ 156
public@@ 156
Bryant 156
partners 155
existence 155
winter 155
renew 155
welcoming 155
tears 155
victim 155
side, 155
sophisticated 155
recover 155
ignore 155
figured 155
fan, 155
incentive 155
knockout 155
Weekly 155
Peace 155
Boom 155
Paris, 155
Chelsea 155
Cuba 155
Ru@@ 155
News: 155
ed: 155
Carly 155
sal@@ 155
um@@ 155
Talk 155
Huffington 155
not@@ 155
Te@@ 155
unpopular 154
partner 154
stays 154
praise 154
athletes 154
#draintheswamp 154
repeatedly 154
meddling 154
provided 154
skin 154
ratings, 154
government, 154
handed 154
knocked 154
@jaketapper 154
followed 154
magic 154
decent 154
song, 154
taste 154
grab 154
mornings 154
line, 154
3,000 154
Serious 154
Louisiana, 154
Italy 154
NSA 154
ated, 154
dr@@ 154
ty 154
84@@ 154
ina@@ 154
B: 154
Wil@@ 154
IC@@ 154
@mr@@ 154
Successful 154
#WWEHOF 154
long, 153
traveling 153
courageous 153
falsely 153
laws, 153
removed 153
miami 153
subsidies 153
reform, 153
defund 153
lovely 153
lobbyists, 153
shouldve 153
cable 153
citizenship 153
rebuilt 153
@kilmeade 153
superior 153
crumbling 153
building, 153
won, 153
maker 153
donation 153
cat@@ 153
Rights 153
Puppet 153
Airport 153
Went 153
Newsmax 153
BUSH 153
AS@@ 153
Ho@@ 153
AB@@ 153
o_@@ 153
boy@@ 153
AAA 153
smith@@ 153
ide@@ 153
ki@@ 153
Buffett 153
@TheRealMarilu 153
Nelson 153
insult 152
demanding 152
9, 152
edge 152
reagan 152
dependent 152
rolling 152
turnberry 152
bobby 152
tank 152
stars 152
raises 152
buys 152
chapter 152
ick 152
@EmmanuelMacron 152
Third 152
@LindseyGrahamSC 152
Baseball 152
nu@@ 152
Sp@@ 152
Times, 152
@ch@@ 152
@King@@ 152
ard 152
te, 152
Boycott 152
@Car@@ 152
Please, 152
Rolling 152
#WIPrimary 152
century 151
threaten 151
bilateral 151
@jessebwatters 151
satisfied 151
recently, 151
acted 151
death, 151
breath 151
balance 151
pulled 151
II 151
Fort 151
Norman 151
Town 151
Needs 151
ka@@ 151
d_@@ 151
Taking 151
stra@@ 151
abroad 150
army 150
prison, 150
ric@@ 150
dedication 150
earned 150
delaying 150
imagination 150
explaining 150
definition 150
dummies 150
en, 150
consistent 150
handsome 150
decimated 150
poverty, 150
evangelical 150
bing, 150
Jobs, 150
Omarosa 150
Pelosi/Schumer 150
Remembrance 150
Obstructionist 150
Rocket 150
BAN 150
Players 150
Madame 150
Peng 150
Tiffany 150
Filibuster 150
Summer 150
CBS, 150
Olympics 150
Coming 150
ney 150
Tr@@ 150
sed 150
Furious 150
SH@@ 150
Bernardino 150
ens@@ 150
SE@@ 150
Myrtle 150
73: 150
32: 150
key@@ 150
y_@@ 150
u: 150
WGC 150
Maher 150
Oscar 150
0,000 150
35,000 149
percentage 149
manner 149
power, 149
bias 149
comparison 149
tt@@ 149
interview, 149
10pm 149
ran@@ 149
deserved 149
snake 149
Rex 149
Uranium 149
Feds 149
bec@@ 149
Fin@@ 149
RADICAL 149
bur@@ 149
#SNL 149
JUST 149
Wa@@ 149
Truth 149
pay@@ 149
199@@ 149
83: 149
Potomac 149
ju@@ 149
Johnny 149
Wright 149
Afghan 149
fashion 148
voices 148
gratitude 148
aircraft 148
fest 148
obama, 148
ambassador 148
grew 148
extra 148
intact 148
57th 148
bullshit 148
joke, 148
creates 148
season, 148
minimum 148
fraction 148
airplane 148
Eve 148
Nancy 148
Leaders 148
M, 148
Armed 148
MS 148
out: 148
LEADER 148
ena@@ 148
stin@@ 148
@RealBenCarson 148
Ber@@ 148
10PM 148
19: 148
ous@@ 148
#TrumpVlog 148
TE@@ 148
Sharpton 148
leg@@ 148
@TrumpGolfDC 148
have@@ 148
Ferguson 148
cra@@ 148
#2 147
paul 147
presents 147
sided 147
invited 147
refreshing 147
economically 147
ite 147
del 147
spinning 147
eric@@ 147
lyin 147
Missouri 147
Phoenix, 147
cr@@ 147
@EWErickson 147
El 147
70@@ 147
Evangelicals 147
cap@@ 147
Beyond 147
ck: 147
Stevens 147
ana@@ 147
ves 147
15: 147
eb@@ 147
Clint 147
Icahn, 147
pas@@ 147
mur@@ 147
illi@@ 147
Dis@@ 147
families, 146
sits 146
helps 146
breaks 146
blessings 146
missiles 146
sworn 146
spending, 146
islam 146
decline 146
type 146
@donaldjtrumpjr 146
furious 146
42% 146
@andersoncooper 146
presidency, 146
models 146
debates, 146
parents, 146
rt 146
note 146
revealed 146
reverse 146
correct, 146
perspective 146
factory 146
crushed 146
measure 146
Remarks 146
Jinping 146
FAIR 146
@FEMA 146
#Harvey 146
11:00 146
Cincinnati, 146
Montana 146
ats 146
Biden 146
ns 146
cur@@ 146
#A@@ 146
@el@@ 146
@Ben@@ 146
#Chicago 146
@Trump_Ireland 146
Although 146
Per@@ 146
@ronmeier123: 146
Jose 146
ivanka 145
friday 145
prosper 145
(just 145
communication 145
panel 145
@mark@@ 145
smile 145
celeb 145
businessmen 145
once, 145
grave 145
generous 145
aspiring 145
unity 145
reduction 145
fairness, 145
VETS 145
NY, 145
$3@@ 145
Out@@ 145
Drudge 145
win@@ 145
kin@@ 145
:I 145
ED@@ 145
An@@ 145
@Josh@@ 145
Celeb 145
deal@@ 145
Zimmerman 145
me) 144
inform 144
justify 144
swing 144
(by 144
city, 144
capabilities 144
accurately 144
reached 144
carnage 144
champions 144
12% 144
outstanding 144
ben@@ 144
fence 144
expert 144
lot, 144
anytime 144
vacuum 144
separate 144
respect, 144
$18 144
impress 144
infected 144
ruling 144
tournament 144
legally, 144
escalator 144
Lauer 144
Congresswoman 144
MSNBC 144
Blumenthal 144
NYPD 144
Shinzo 144
Former 144
Political 144
Sleepy 144
YouTube 144
ia@@ 144
47@@ 144
NO@@ 144
95: 144
oll@@ 144
Book 144
Scary 144
fin@@ 144
Wow@@ 144
cy@@ 144
@TrumpDorals 144
Ray 144
Simon 144
@ForQ2 144
Ashley 144
blocked 143
safer 143
rico 143
donald, 143
strongest 143
incoming 143
summit 143
district 143
misleading 143
tariffs 143
disclosure 143
why, 143
streaming 143
@club4growth 143
99 143
4,000 143
opinions 143
aggressive 143
please, 143
separates 143
reject 143
08 143
obligation 143
later, 143
YEAR 143
Funny 143
Vietnam, 143
Charlottesville, 143
Ford, 143
@JoeNBC 143
@Nick@@ 143
@Jack@@ 143
on_@@ 143
Start 143
lo: 143
ment@@ 143
ins: 143
golf@@ 143
Praying 143
Ko@@ 143
@TrumpPanama 143
Statesman 143
Player 143
Gates 143
insider 142
margin 142
predicting 142
sentence 142
1%, 142
46% 142
belief 142
taxed 142
liberty 142
proving 142
6th 142
sleazebag 142
ani@@ 142
answer, 142
casting 142
architect 142
dark 142
minutes) 142
chose 142
compliments 142
donor 142
sudden, 142
Comey, 142
remarks: 142
Gorsuch 142
Airlines 142
Tickets 142
Unless 142
Chancellor 142
CBO 142
Liberals 142
FAR 142
rat@@ 142
ars 142
th, 142
ATION 142
ky@@ 142
IT@@ 142
mac@@ 142
love@@ 142
N: 142
#R@@ 142
@Toure 142
@flotus 141
ment, 141
(in 141
revolution 141
flood 141
switch 141
bases 141
belongs 141
hurts 141
goals, 141
kicks 141
charitable 141
wait, 141
ruin 141
98% 141
area, 141
@dannyzuker 141
room, 141
Pakistan 141
@WashTimes 141
at, 141
THEY 141
@GMA 141
s/@@ 141
Men 141
Kennedy 141
@tr@@ 141
Guess 141
HQ 141
ney: 141
@not_that_actor: 141
ENT 141
tip: 141
arizona 140
sacrificed 140
commission 140
cri@@ 140
gone, 140
deported 140
personable, 140
obsolete 140
Office, 140
CHRISTMAS 140
SHOULD 140
#PRStrong 140
Admin 140
TY 140
DE@@ 140
Sr 140
line@@ 140
@Sen@@ 140
8PM 140
say@@ 140
@matt@@ 140
Ric@@ 140
Institute 140
67 140
Inside 140
77 140
Mobile, 140
@NBC@@ 140
bb@@ 140
Perfect 140
@bahia6085: 140
ob@@ 140
Catholic 140
confirmed 139
time) 139
steve 139
putin 139
va 139
motivated 139
massive, 139
wasteful 139
permit 139
slot 139
ads, 139
slaughter 139
group, 139
hook 139
@stephenfhayes 139
hidden 139
nationwide 139
positively 139
talents 139
Media, 139
Is@@ 139
Person 139
Conde 139
Nast 139
@UnionLeader 139
@Ne@@ 139
@Jim@@ 139
Sun 139
@steve@@ 139
gs 139
Mondays 139
Dec@@ 139
CO@@ 139
USC 139
flunky 138
damages 138
surveillance 138
destination 138
elsewhere 138
drain 138
(the 138
reception 138
bigotry 138
@newtgingrich 138
suggest 138
coverup 138
@ab@@ 138
controls 138
conservatives 138
pretend 138
with, 138
snow 138
reward 138
trader 138
coldest 138
activity 138
BORDER 138
Visit 138
Richard 138
#USWomensOpen 138
ALS 138
Fallon 138
Ben@@ 138
cal@@ 138
Trump2016 138
36@@ 138
05@@ 138
=@@ 138
lie@@ 138
SP@@ 138
#Trump4Prez 138
@hillarysusans: 138
Brand 138
@RealGilbert 138
101 138
Likewise, 138
@theFAMiLYLEADER 138
director 137
reducing 137
tickets 137
conversations 137
by, 137
turmoil 137
yard 137
competent 137
winning, 137
$1,000,000 137
rink 137
savvy 137
sequester 137
Address 137
ked 137
Association 137
Imagine 137
Sharia 137
ies 137
ker: 137
ren@@ 137
loo@@ 137
hol@@ 137
LO@@ 137
fair@@ 137
101: 137
@NCGOP 137
@Jennifer75AR: 137
trusted 136
rocket 136
challenged 136
taught 136
winds 136
volunteers 136
jets 136
tradition 136
bold 136
macys 136
ocean 136
shocked 136
dose 136
accountable 136
books, 136
box 136
pleasure, 136
grant 136
lessons 136
competitors 136
betrayed 136
whove 136
Internet 136
Civil 136
General, 136
Worth 136
Argentina 136
EPA 136
Reports 136
Shame 136
ha 136
Clapper 136
Double 136
Send 136
under@@ 136
@MacMiller 136
Action 136
@Sha@@ 136
200@@ 136
@BreitbartNews: 136
P: 136
play@@ 136
de, 136
ar: 136
PA@@ 136
TV: 136
26 136
fr@@ 136
35@@ 136
Emerson 136
Schultz 136
hu@@ 136
been, 135
achieved 135
estimated 135
$7 135
culture 135
ceasefire 135
steps 135
waste, 135
#timetogettough 135
costing 135
struggling 135
interesting, 135
refugee 135
frontrunner 135
veterans, 135
@cspan 135
ideal 135
asshole 135
surprises 135
financially 135
terribly 135
domain 135
BLESS 135
Arena 135
Tillerson 135
USS 135
Department, 135
3, 135
9pmE 135
Than 135
Russell 135
@JonHuntsman 135
#Apprentice 135
AS 135
sh: 135
be: 135
ond@@ 135
@michael@@ 135
@o@@ 135
@Tim@@ 135
CLIMATE 135
@IvankaTrumps 135
happen@@ 135
Indiana, 135
accident 134
japan 134
keystone 134
prevail 134
leakers 134
message, 134
truck 134
flight 134
window 134
@johnboehner 134
commander 134
lost, 134
37 134
brothers 134
@trumpchicago 134
independence 134
mindset 134
incomes 134
#NoKo 134
der 134
@RandPaul 134
Prayer 134
@FaceTheNation 134
book@@ 134
$4@@ 134
2012: 134
34: 134
Turnberry, 134
ISLAMIC 134
:Donald 134
CH@@ 134
d) 134
Disney 134
ge: 134
Day@@ 134
sli@@ 134
88 134
GOOD 134
_K@@ 134
bow@@ 134
Fact 134
Reagan, 134
ver 134
Michaels 134
#TrumpTuesday 134
ments, 134
territory 133
8, 133
joe 133
surplus 133
successes 133
unwatchable 133
feature 133
weiner 133
collar 133
@stuartpstevens 133
everyones 133
competence 133
concert 133
@antbaxter 133
Game 133
Anniversary 133
To@@ 133
Pelosi 133
Played 133
#MissUSA 133
Sa@@ 133
X: 133
@DailyCaller 133
ul@@ 133
42: 133
bre@@ 133
County, 133
pe: 133
ear@@ 133
Smith 133
50: 133
ski: 133
MacLeod 133
Ted, 133
Serta 133
2020 132
thousand 132
rampant 132
airport 132
standards 132
tuesday 132
116% 132
fleeing 132
explode 132
tapping 132
relax 132
new@@ 132
title 132
pack 132
effectively 132
64 132
sticking 132
handling 132
film 132
riots 132
filming 132
upstate 132
WOW, 132
Embassy 132
Scarborough 132
Index 132
Japanese 132
Tony 132
FANTASTIC 132
Charlottesville 132
6:00 132
ot 132
one: 132
#The@@ 132
pol@@ 132
Cha@@ 132
Gre@@ 132
P, 132
@chris@@ 132
Hu@@ 132
sey@@ 132
its@@ 132
C, 132
Instead, 132
Wiener 132
constant 131
aired 131
ovations 131
cherish 131
withdraw 131
useless 131
practically 131
peace, 131
apply 131
@karlrove 131
@trump@@ 131
submit 131
crying 131
covers 131
favorability 131
ignoring 131
locker 131
deadly 131
oppressive 131
HOPE 131
@MichaelCohen212 131
king@@ 131
Mark@@ 131
J: 131
dam@@ 131
@adam@@ 131
Ste@@ 131
65: 131
2013: 131
@Jake@@ 131
@CahlRStorrie 131
@WrestleMania 131
Ed@@ 131
fel@@ 131
$6T 131
accomplishments 130
clinton, 130
kneeling 130
china, 130
precious 130
thrive 130
investigation, 130
prestige 130
impression 130
affordable 130
inversions 130
mind, 130
spreading 130
policemen 130
losers, 130
Barry 130
m, 130
Protect 130
#ICYMI: 130
Germany, 130
Enjoyed 130
Challenge 130
Judge 130
ma 130
Avenue, 130
exp@@ 130
Herald 130
@GolfMagazine 130
people@@ 130
Wollman 130
@DRUDGE_REPORT 130
AK@@ 130
26: 130
@TrumpChicagos 130
Chris, 130
hand@@ 130
@Jackshallis: 130
ism 130
Ruth 130
Scalia 130
Shark 130
Caterpillar 130
correctly 129
liberals 129
land, 129
stadium 129
sn@@ 129
agencies 129
crisis, 129
wisconsin 129
can, 129
automobile 129
hal@@ 129
des 129
mom 129
cheaper 129
wondering 129
setbacks 129
col@@ 129
renewal 129
nomination, 129
audit 129
13,000 129
strongly, 129
Warming 129
Doug 129
Gods 129
Administrations 129
Drug 129
Coalition 129
OT@@ 129
Anybody 129
ili@@ 129
NBC@@ 129
deb@@ 129
ation: 129
@U@@ 129
Tonights 129
Forget 129
@mar@@ 129
ass@@ 129
news: 129
@tom@@ 129
@RealSQUEZZ: 129
@nikkio: 129
Dress 129
leader@@ 129
Golf@@ 129
@StJude 129
Danny, 129
smarter, 128
richer 128
agreement, 128
mccain 128
outrage 128
warning 128
help, 128
spiral 128
farmers 128
embassies 128
sneak 128
#votetrump 128
@melaniatrump 128
ark@@ 128
lights 128
brutally 128
Jones, 128
LAST 128
Intel 128
Lynch 128
Donna 128
News, 128
MANY 128
Poll, 128
don 128
Already 128
Limbaugh 128
ents 128
Rock@@ 128
sted 128
Winning 128
Massachusetts 128
v: 128
FOR@@ 128
Magazine, 128
Rose@@ 128
Sir, 128
business@@ 128
Z 128
@Andy@@ 128
sta@@ 128
izing 128
Native 128
james 127
scene 127
anthem 127
locally 127
dear 127
alert 127
pointed 127
built, 127
chair 127
childrens 127
tactics 127
arm 127
girls 127
gays 127
weakest 127
End 127
Public 127
FBI, 127
@IvankaTrump, 127
WORK 127
Rico, 127
LESS 127
Connecticut 127
Cross 127
Wasserman 127
ces 127
Ave 127
Mubarak 127
Iranians 127
Hilary 127
Er@@ 127
,000, 127
Kasich, 127
race@@ 127
#America 127
Pe@@ 127
life@@ 127
Tru@@ 127
ize 127
@ScottWalker 127
Wisconsin, 127
ying 127
:DonaldTrump 127
bas@@ 127
ingly 127
@ryanbushby: 127
@Citizens_United 127
Ice 127
Meyers 127
iPhone 127
progrowth 126
forgiveness 126
mystery 126
arabia 126
equal 126
grossly 126
thought, 126
cried 126
refusing 126
hypocrites 126
11pm 126
presented 126
understanding 126
surprising 126
asset 126
hours, 126
appeal 126
corner 126
africa 126
twist 126
possibilities 126
@msnbc 126
flexible 126
757 126
facilities 126
gut 126
clean, 126
excuses 126
lands 126
straightened 126
7pmE 126
@Reince 126
Monday, 126
mo 126
or: 126
Palin 126
AN 126
die@@ 126
Gar@@ 126
Re: 126
@_Snurk: 126
ICYMI, 126
sw@@ 126
wifes 125
claimed 125
extend 125
blames 125
moral 125
lifeline 125
soaring 125
principles 125
@kimguilfoyle 125
throwing 125
protester 125
barack 125
game, 125
creative 125
cool, 125
em@@ 125
instruct 125
movement, 125
fourth 125
evangelicals, 125
HISTORIC 125
TRADE 125
@BillyGraham 125
Disgraceful 125
Dakota 125
Commission 125
Im@@ 125
Ca@@ 125
ser: 125
45@@ 125
Ba@@ 125
@My@@ 125
#INPrimary 125
camp 124
newest 124
anticipated 124
shooter 124
always, 124
anthony 124
jr 124
color 124
however, 124
rude 124
sadly 124
touched 124
execute 124
@hannityshow 124
unilaterally 124
nightmare 124
lawsuits 124
clients 124
perseverance 124
600 124
dress 124
monstrosity 124
ebola 124
rise, 124
55 124
Anna 124
Alan 124
Islands 124
Mi@@ 124
ill: 124
Truly 124
66 124
Q@@ 124
Fabulous 124
Waste 124
@BornToBeGOP: 124
ad: 124
SAVE 124
ure 124
@mo@@ 124
Col@@ 124
co: 124
tra@@ 124
@Golf@@ 124
gin@@ 124
@Chris_R_2014: 124
Samsung 124
alabama 123
vice 123
limits 123
consideration 123
cooperation 123
atlantic 123
boston 123
religion 123
boost 123
mothers 123
editor 123
spring 123
proves 123
screw 123
predictions 123
ty@@ 123
anybodys 123
liars 123
@jack_welch 123
soon, 123
hand, 123
naming 123
devalue 123
ator 123
Republic 123
https:/ 123
you@@ 123
Ms 123
ct 123
Wounded 123
ah 123
ger 123
74 123
61: 123
RO@@ 123
Hussein 123
sion@@ 123
yearold 123
@Jennifer75AR 123
Ag@@ 123
Spent 123
Punta 123
ship@@ 123
Rudy 123
Sachs 123
California, 123
cry 122
successfully 122
declared 122
information, 122
thanked 122
priorities 122
legs 122
devastation 122
amateur 122
@rushlimbaugh 122
memory 122
potentially 122
#theapprentice 122
declare 122
awful 122
tips 122
determine 122
golf, 122
@lisarinna 122
rolls 122
domestic 122
Until 122
NYC, 122
#PuertoRico 122
NRA 122
Train 122
Kates 122
Brussels 122
Putin, 122
Golden 122
Lead 122
Mike@@ 122
ver: 122
law@@ 122
68: 122
mom@@ 122
Clinton@@ 122
Wi@@ 122
down@@ 122
On@@ 122
men@@ 122
MM@@ 122
ong@@ 122
Just@@ 122
Maryland 122
52: 122
@di@@ 122
pt@@ 122
age@@ 122
Pl@@ 122
ERS 122
ene@@ 122
@TurnberryBuzz 122
@Letterman 122
Scotlands 122
foolishly 121
sat 121
citizens, 121
submitted 121
#usa 121
testing 121
general, 121
update 121
benghazi 121
pen 121
which, 121
shine 121
restored 121
lord 121
ben 121
trending 121
smarts 121
wherever 121
tread 121
tee 121
regular 121
moments 121
stupid, 121
maniac 121
black@@ 121
while, 121
Mainstream 121
Jordan 121
FLORIDA 121
Angela 121
Merkel 121
WI 121
Among 121
lea@@ 121
@Ron@@ 121
Run@@ 121
bra@@ 121
00: 121
ain@@ 121
8:30 121
right: 121
sel@@ 121
Waldo 121
rist@@ 121
Radio 121
ail@@ 121
n, 121
Wal@@ 121
loser@@ 121
Charlotte, 121
incorrectly 120
club, 120
return, 120
conspiracy 120
fla@@ 120
subsidy 120
ams 120
civilians 120
positive, 120
epidemic 120
inaccurately 120
choices 120
rejected 120
hardly 120
prefer 120
goodness 120
soccer 120
sweet 120
girlfriend 120
watches 120
genuine 120
screening 120
vaccinations 120
smallest 120
childcare 120
similar 120
jails 120
Border, 120
Mandate 120
MOST 120
Vets, 120
REBUILD 120
Economy 120
WALL, 120
Liyuan 120
Bought 120
AMERICA, 120
ments 120
GrahamCassidy 120
Nuclear 120
#Fake 120
Control 120
open@@ 120
American, 120
Canada, 120
Amy 120
Super@@ 120
Research 120
NE@@ 120
DS 120
bri@@ 120
sor@@ 120
pan@@ 120
Captain 120
success@@ 120
Vi@@ 120
@Espngreeny 120
Bergdahl, 120
Wed 120
travesty 119
cohosting 119
guests 119
russian 119
burn 119
weight 119
blowing 119
owns 119
church 119
article, 119
fiasco 119
haha 119
walks 119
final, 119
identify 119
franchise 119
concerned, 119
seen, 119
worthy 119
$6@@ 119
coaches 119
SECURITY 119
Horrible 119
Nick 119
Sweden 119
Ernie 119
USA, 119
Oprah 119
MS@@ 119
PPP 119
ff 119
@Dr@@ 119
Jamiel 119
@Jeff@@ 119
27: 119
Nearly 119
bir@@ 119
stand@@ 119
Jonathan 119
@fa@@ 119
ming 119
ket@@ 119
amp@@ 119
read@@ 119
@tony@@ 119
president@@ 119
ically 119
69 119
bla@@ 118
hurricanes 118
agreeing 118
updates 118
applaud 118
denied 118
0% 118
desire 118
evening, 118
abused 118
organizations 118
regulatory 118
cartels 118
crippled 118
puppets 118
offended 118
polled 118
wins, 118
cronies 118
forcing 118
slightly 118
student 118
entertainment 118
guns, 118
patriotic 118
location, 118
11/8 118
quiet 118
Afghanistan, 118
MERRY 118
Yesterday, 118
Capitol 118
Elections 118
forms 118
Arizona, 118
#P@@ 118
Ban 118
ace@@ 118
Schumer, 118
Thursday, 118
Hotels 118
friend@@ 118
Bor@@ 118
10:30 118
Or@@ 118
[@@ 118
ud@@ 118
fo@@ 118
Wor@@ 118
short@@ 118
New@@ 118
@Col@@ 118
Ann 118
za: 118
ano: 118
Madison 118
old@@ 118
@EricTrumpFdn 118
Holiday 118
sub@@ 118
rin@@ 118
59 118
Minutes 118
Giuliani 118
Sea 118
Haiti 118
actual 117
inherited 117
homeland 117
la 117
warmest 117
protesting 117
channel 117
crushing 117
53% 117
auto 117
finding 117
operation 117
11% 117
headline 117
highways, 117
horse 117
overlooking 117
earning 117
Access 117
Disaster 117
Irish 117
Crimea 117
Sunday, 117
123@@ 117
ally@@ 117
62: 117
cha@@ 117
@TheBrodyFile: 117
Brilliant 117
@jd@@ 117
@Sam@@ 117
@an@@ 117
@StephenBaldwin7 117
bs@@ 117
IL@@ 117
@Jason@@ 117
press@@ 117
Cour@@ 117
God, 117
Gruber 117
Utah 117
Tank 117
unhappy 116
sleepy 116
informative 116
stores 116
(but 116
establish 116
$100,000 116
ferry 116
teacher 116
tools 116
undertake 116
#bigleaguetruth 116
invested 116
McCabe, 116
Military, 116
Woods 116
Flake, 116
Accord 116
(even 116
Medicaid 116
ity: 116
Planned 116
Sheriffs 116
BETTER 116
Worlds 116
Invitational 116
%@@ 116
@su@@ 116
Ha@@ 116
9/@@ 116
Incompetent 116
AOL 116
squ@@ 116
AL 116
gar@@ 116
Trump,@@ 116
nie@@ 116
ct@@ 116
den@@ 116
Cla@@ 116
Lyn@@ 116
@Da@@ 116
ish@@ 116
wage 116
adi@@ 116
River 116
Nabisco 116
wages, 115
chuck 115
giant 115
pence 115
donating 115
owed 115
intention 115
material 115
colluded 115
treaty 115
form, 115
struck 115
airs 115
judge, 115
another, 115
responded 115
robbing 115
limit 115
mess, 115
failing, 115
camera 115
mattress 115
3rd, 115
journalist 115
controversial 115
required 115
late, 115
range 115
@trumpwinery 115
debut 115
somehow 115
bear 115
disgusted 115
Mattis 115
ver, 115
Wilson 115
Ceremony 115
FL@@ 115
ded 115
European 115
grand@@ 115
gy@@ 115
H: 115
head@@ 115
USA: 115
Y: 115
@Bob@@ 115
ton@@ 115
@josh@@ 115
Air@@ 115
Ra@@ 115
tractors 115
act@@ 115
VE 115
_R@@ 115
Trump/@@ 115
Truman 115
ret@@ 115
change@@ 115
Carnegie 115
@DNC 115
rent 115
hungry 114
booming 114
moms 114
meantime, 114
safe, 114
young, 114
island 114
aluminum 114
patience 114
practices 114
meltdown 114
victory, 114
60% 114
passport 114
backing 114
prestigious 114
arrogant 114
possibility 114
residents 114
we, 114
@serenawilliams 114
mastermind 114
@sethmeyers 114
onethird 114
SA 114
GREATNESS 114
Rigged 114
Winter 114
say: 114
Talking 114
#ISIS 114
44 114
Criminals 114
III 114
Real@@ 114
med 114
@Its@@ 114
2015: 114
@NBCNightlyNews 114
de: 114
@Rep@@ 114
88@@ 114
@co@@ 114
Romneys 114
MILLION 114
OL@@ 114
LY 114
08@@ 114
@CahlRStorrie: 114
ze 114
super@@ 114
Dor@@ 114
Steinbrenner 114
Nevada, 114
#RNCinCLE 114
Sebelius 114
rights, 113
roughly 113
tunnels, 113
untrue 113
acid 113
@ed@@ 113
process, 113
fun) 113
catastrophic 113
waited 113
statute 113
belittle 113
developer 113
panels 113
revenue 113
quest 113
diplomatic 113
hosts 113
contribution 113
corrupt, 113
waits 113
household 113
excellence 113
18th 113
praised 113
judgment, 113
leave, 113
bullets 113
devaluation 113
unifier 113
pupil 113
noisy 113
SINGLE 113
Finale 113
@Gretawire 113
@ShawnJohnson 113
Down 113
Bl@@ 113
il 113
Green@@ 113
Definitely 113
pped 113
TOP 113
med@@ 113
ow 113
37@@ 113
Stars 113
Arianna 113
SU@@ 113
@MLB 113
47% 112
speak, 112
penalties 112
employee 112
sorry, 112
24/7/365 112
awaiting 112
accountability 112
threatens 112
providing 112
complaints 112
grid 112
michigan 112
feelings 112
university 112
strikes 112
report, 112
witnessed 112
advised 112
unmasking 112
purposes 112
patients 112
reasons, 112
sa 112
subscribers 112
dudes 112
inaugural 112
lose, 112
husband, 112
reliable 112
doors 112
credible 112
disavowed 112
knows, 112
serves 112
flags 112
wing 112
governments 112
cheated 112
adore 112
pockets 112
critic 112
trading 112
routine 112
devaluing 112
piggy 112
Proclaims 112
enn@@ 112
Governors 112
part@@ 112
Remarks: 112
Joseph 112
WRONG 112
ble 112
#TimeToGetTough, 112
da 112
$10@@ 112
Megan 112
pin@@ 112
Sarasota, 112
44@@ 112
John@@ 112
@sam@@ 112
HUGE 112
Fall 112
300 112
speech@@ 112
pen@@ 112
@ha@@ 112
medi@@ 112
Twain 112
Opening 112
Pa@@ 112
@warrencasselljr: 112
Britain 112
Jodi 112
luther 111
communities, 111
heard, 111
gains 111
chemistry 111
respectful 111
cuts, 111
fol@@ 111
ones, 111
renovated 111
blows 111
burning 111
gallon 111
wastes 111
borrowing 111
sol@@ 111
falls 111
eating 111
rhetoric 111
math 111
educational 111
journalists 111
app 111
golfer 111
parent 111
architectural 111
classic 111
hrs 111
donated 111
exposing 111
convention, 111
tremendously 111
@jayleno 111
businessperson 111
someplace 111
more: 111
JFK 111
Wacky 111
8pmE 111
AZ 111
Falwell 111
Shawn 111
THINK 111
REPLACE 111
mark@@ 111
@CBNNews 111
fore@@ 111
cou@@ 111
Spectacular 111
cas@@ 111
Rapids, 111
ry: 111
Cup 111
@Taylor@@ 111
White@@ 111
@Adam@@ 111
abe@@ 111
71: 111
f: 111
ra: 111
por@@ 111
WA@@ 111
196@@ 111
Don@@ 111
bor@@ 111
Leno 111
#CaucusForTrump 111
@VattenfallGroup 111
endure 110
charge, 110
heartfelt 110
(for 110
factories, 110
fatal 110
acquire 110
wiped 110
testify 110
link 110
70% 110
aberdeen 110
represents 110
criticizing 110
settlement 110
endeavor 110
reacts 110
rivers 110
promoting 110
inspires 110
audience, 110
insiders 110
backgrounds 110
Jupiter, 110
ELECTION 110
dies 110
Pal@@ 110
Project 110
@NYTimes 110
Majority 110
El@@ 110
Par@@ 110
Others 110
ade 110
itz@@ 110
GA@@ 110
know@@ 110
75: 110
Huckabee 110
defense, 110
te: 110
hat@@ 110
Future 110
http://t 110
@No@@ 110
Da@@ 110
Breitbart 110
Terrific 110
sion 110
OP@@ 110
john@@ 110
ad, 110
Fran@@ 110
Lord: 110
Babe 110
#Debates 110
LGBT 110
@JoeNBC: 110
eve 109
asi@@ 109
discussions 109
operations 109
pose 109
freedoms 109
veto 109
cell 109
parade 109
agenda, 109
stream 109
bin 109
criticize 109
financing 109
wi@@ 109
businessman, 109
checked 109
mile 109
dead, 109
manage 109
politician, 109
6, 109
pastor 109
topped 109
visionary 109
plz 109
#golf 109
invaded 109
expectations 109
horizons 109
@nyjets 109
glass 109
risks 109
forward, 109
sought 109
statistics 109
temporary 109
fragile 109
application 109
reduced 109
awfully 109
Prince 109
ABOUT 109
Equal 109
RESPECT 109
AMERICANS 109
PROTECT 109
Rasmussen 109
TO@@ 109
PS 109
Forum 109
Of@@ 109
Gang 109
Lewis 109
Mur@@ 109
see@@ 109
Factor 109
74@@ 109
Root 109
Ur 109
@ra@@ 109
27@@ 109
#B@@ 109
Billy 109
ano@@ 109
Crowd 109
Loving 109
66@@ 109
@NRA 109
@Mo@@ 109
dre@@ 109
11:30 109
Bushes 109
80@@ 109
ite: 109
tion, 109
)@@ 109
@th@@ 109
Sal@@ 109
Michigan, 109
@rodmonium91: 109
payer 108
impeccable 108
possible, 108
belong 108
espionage 108
$59 108
answering 108
asks 108
gracious 108
elites 108
universal 108
introduce 108
aint 108
examples 108
@jdickerson 108
requests 108
Drain 108
ck 108
La 108
LOWER 108
Pittsburgh 108
@USGA 108
Vatican 108
Company 108
07@@ 108
2014: 108
ator@@ 108
@Th@@ 108
Min@@ 108
CC 108
Can@@ 108
ga@@ 108
fl@@ 108
loc@@ 108
91: 108
mid@@ 108
NYCs 108
Edward 108
crown 107
lake 107
thoughts, 107
worship 107
arsenal 107
bureaucracy 107
types 107
values, 107
boat 107
driven 107
employers 107
@morning_joe 107
complain 107
reporter, 107
exists 107
longtime 107
imports 107
lazy 107
gathering 107
telecast 107
column 107
sad, 107
vaccine 107
incident 107
animals 107
collect 107
@autismspeaks 107
soil 107
incredibly 107
Story 107
Blasio 107
FREEDOM 107
Motors 107
ative 107
25: 107
hot@@ 107
all: 107
@AnnCoulter: 107
@Tom@@ 107
@NY@@ 107
Win@@ 107
@realDonaldTrump@@ 107
Leads 107
ye@@ 107
TVs 107
ess 107
Notice 107
ana 107
09@@ 107
DONE 107
Walk 107
@Mc@@ 107
Honest 107
@car@@ 107
gen@@ 107
Negotiation: 107
ages 107
lif@@ 107
ors, 107
hel@@ 107
Palmer 107
Cu@@ 107
ough@@ 107
ath@@ 107
Final 107
@JoeBiden 107
bravery 106
phenomenon 106
@potus 106
chairman 106
disappoint 106
democratic 106
briefing 106
marks 106
costly 106
journalism 106
provides 106
confidential 106
succeed, 106
brotherhood 106
crook 106
nationally 106
tricks 106
applause 106
expose 106
innovative 106
til 106
awake 106
interest, 106
@espn 106
testament 106
draw 106
feed 106
6pm 106
Houston 106
@DanaPerino 106
Move 106
vin@@ 106
Barron 106
American@@ 106
+@@ 106
Signing 106
FIGHT 106
Fox@@ 106
Fri@@ 106
year@@ 106
@Jordan@@ 106
Holidays 106
64: 106
side@@ 106
girl: 106
R: 106
Bush@@ 106
inst@@ 106
#M@@ 106
ent: 106
BE@@ 106
Cities 106
Winners 106
@ApprenticeNBC, 106
Genius 106
@Ma@@ 106
ar, 106
explo@@ 106
Pan 106
equ@@ 106
investigating 105
fires 105
distorted 105
ke, 105
talking, 105
still, 105
ca 105
hypocrite 105
tariff 105
@rosie 105
scientists 105
sacrifices 105
discipline 105
correctness 105
liking 105
11, 105
tubes 105
views, 105
bust 105
@brandiglanville 105
drama 105
implemented 105
were, 105
technology 105
explains 105
zz@@ 105
powers 105
DOLLARS 105
Brady, 105
SPIRIT 105
Nation, 105
Packed 105
WSJ 105
cru@@ 105
Sanders, 105
Pocahontas 105
Reince 105
Large 105
3:00 105
Israeli 105
Frankly, 105
43 105
69@@ 105
WWII 105
Solyndra 105
Poor 105
@wh@@ 105
#CrippledAmerica 105
#H@@ 105
@Robert@@ 105
Katie 105
Sm@@ 105
85: 105
ever@@ 105
@MailOnline 105
sen: 105
Tzu 105
she@@ 105
n_@@ 105
eng@@ 105
ja@@ 105
@Andrew@@ 105
,and 105
#President 105
Repubs 105
World, 105
@ho@@ 105
lows 105
fil@@ 105
,but 105
fatal: 105
Aberdeenshire 105
Guys 105
Iraqi 105
@maathewdavis: 105
ups 105
November, 105
Deere 105
squandered 104
margins 104
harm 104
fine, 104
obstruct 104
homes 104
leaker 104
sacred 104
media) 104
powerful, 104
oppose 104
weakening 104
loyalty 104
downgraded 104
managing 104
caring 104
profile 104
mocking 104
newly 104
championships 104
towers 104
joan 104
atmosphere 104
44% 104
expression 104
taunting 104
handing 104
convicted 104
sleeping 104
Terror 104
DACA 104
Numbers 104
#G20Summit 104
Advice 104
Susan 104
Show@@ 104
68 104
@QVC 104
] 104
@Bar@@ 104
@Rketeltas: 104
EVERYTHING 104
Ger@@ 104
@Daniel@@ 104
Aberdeen, 104
YORK 104
rock@@ 104
some@@ 104
PREZ 104
REA@@ 104
Int@@ 104
@Dave@@ 104
@TheApprentice9 104
@LandExpo 104
Z: 104
Jay@@ 104
$200M 104
@BillMaher 104
$7@@ 104
nonexistent 103
formula 103
flies 103
advancing 103
ist 103
wounded, 103
ra 103
narrative 103
truthful 103
happy, 103
solar 103
tours 103
disavow 103
daughters 103
quo 103
fucking 103
surface 103
concentrated 103
insecure 103
demos 103
comedian 103
follows 103
globalism 103
false, 103
dislike 103
significantly 103
enterprise 103
Asia, 103
Few 103
Flake 103
Strange, 103
Man, 103
Legion 103
McCain, 103
Nice, 103
Walter 103
Message 103
@Sir@@ 103
63 103
formerly 103
Mil@@ 103
ily 103
WH@@ 103
ious 103
Bat@@ 103
360 103
@nick@@ 103
@x@@ 103
Greatest 103
spo@@ 103
CB@@ 103
PC 103
_t@@ 103
CT 103
@sc@@ 103
Identify 103
Sony 103
doubling 102
agent 102
shopping 102
sen 102
stop, 102
barely 102
kelly 102
endorsement, 102
hearings 102
removing 102
senses 102
agency 102
questions, 102
triple 102
hotel, 102
32% 102
quit, 102
approach 102
worldwide 102
addressing 102
computers 102
@latoyajackson 102
@tim@@ 102
#KatesLaw 102
Rice 102
Kraft 102
Faith 102
Couldnt 102
Increase 102
mm@@ 102
#CNN 102
TING 102
Hor@@ 102
sett@@ 102
Feb 102
@bl@@ 102
Saudis 102
Ailes 102
ency 102
1/@@ 102
Bro@@ 102
Patriot 102
point@@ 102
APPRENTICE 102
@theRealKiyosaki 102
land: 102
Patrick 102
#ThankYouTour2016 102
#VoteTrumpSC 102
enemies, 101
paris 101
endorses 101
worse, 101
computer 101
tallest 101
socialist 101
school, 101
borrowed 101
bag 101
touches 101
detailed 101
scary 101
sleazy 101
pundit 101
12, 101
deficit, 101
destined 101
activities 101
stor@@ 101
accounts 101
@kyleraccio 101
gridlock 101
baby, 101
Corey 101
#FlashbackFriday 101
@Netanyahu 101
SUPPORT 101
Debbie 101
Australia, 101
led, 101
@US@@ 101
Rom@@ 101
ne 101
Hilton 101
WHO 101
Done 101
Boardroom 101
Seems 101
Shi@@ 101
record@@ 101
BO@@ 101
@le@@ 101
@Forbes: 101
day: 101
Sad@@ 101
Cooper 101
Entrepreneur 101
II: 101
@Drake4444444: 101
Ter@@ 101
Presiden@@ 101
prof@@ 101
Autism 101
Learning 101
ders 101
Jon@@ 101
rum@@ 101
#VoteTrumpPence16 101
@TimTebow 101
Carl, 101
Boy, 101
grows 100
motivate 100
marine 100
freedom, 100
memorial 100
weekend, 100
van 100
$200 100
treasure 100
pump 100
memo 100
pollster 100
los 100
persistence 100
hottest 100
sky 100
awareness 100
ignorant 100
several 100
aside 100
air, 100
#imwithyou 100
Deputy 100
bing 100
ils 100
Starting 100
Apologize 100
tones 100
Lan@@ 100
Boys 100
Europe, 100
Told 100
alike 100
DO@@ 100
German 100
WELL 100
foot 100
sts 100
@ObamaCare 100
rey@@ 100
Cho@@ 100
Staying 100
#MAKEAMERICAGREATAGAIN 100
ical 100
Reno, 100
Easy 100
ce, 100
@Paul@@ 100
ILLEGAL 100
EL@@ 100
Pen@@ 100
call@@ 100
sting 100
iss 100
@lo@@ 100
Mag@@ 100
@Rich@@ 100
@Ed@@ 100
home@@ 100
@Lisa@@ 100
Bel@@ 100
@JUrciuoli19: 100
Westchester 100
Villa 100
ces, 100
races 99
wishing 99
transition 99
mother, 99
move, 99
rogue 99
california 99
witnessing 99
adviser 99
bleeding 99
bru@@ 99
web 99
reads 99
avenue 99
harsh 99
employment 99
99% 99
addicted 99
buffalo 99
reveals 99
reason, 99
heck 99
@johnrich 99
degrees 99
tourism 99
eligible 99
schneiderman 99
pool 99
dry 99
somewhat 99
published 99
bureaucrats 99
SUCCESS 99
CANNOT 99
reason: 99
CLINTON 99
Primaries 99
high@@ 99
ESPN 99
Spain 99
Melbourne, 99
Hospital 99
Businesses 99
Cs 99
America@@ 99
CARSON 99
@piersmorgan: 99
Sign 99
01 99
ox@@ 99
Sam@@ 99
Anderson 99
er_@@ 99
Gu@@ 99
39@@ 99
A_@@ 99
Speak 99
@2014_vince: 99
Sho@@ 99
@Richard@@ 99
critic@@ 99
Windy 99
contractors 99
McMahon 99
D, 99
Trojan 99
350 98
annually 98
attendance 98
seeking 98
surging 98
chan@@ 98
dads 98
analysis 98
himself, 98
hike 98
faces 98
@hillaryclinton 98
tonite 98
debating 98
predictable 98
@trumptowerny 98
hopes 98
may@@ 98
$25,000 98
ladies 98
tear 98
@ronmeier123 98
ignorance 98
overturn 98
suites 98
participation 98
circumstances 98
prosecutor 98
certified 98
finished, 98
records, 98
Corps 98
False 98
AFTER 98
Virgin 98
lines, 98
@GovMikeHuckabee 98
MILLIONS 98
Chamber 98
Commerce 98
29 98
ov@@ 98
Sand@@ 98
Together 98
oni@@ 98
@jim@@ 98
ino@@ 98
@Gary@@ 98
@Patrick@@ 98
Explain 98
ier@@ 98
W: 98
@BrandenRoderick 98
other@@ 98
#2A 98
Arkansas 98
@Jon@@ 98
CC@@ 98
Granite 98
74: 98
Fun 98
season@@ 98
@Kateplusmy8 98
Apprentice@@ 98
forth 98
beat@@ 98
@JustinRose99 98
@David_Cameron 98
ty, 98
@BuzzFeed 98
David@@ 98
Dark 98
decade 97
yuan 97
issue, 97
hands, 97
traffic 97
describe 97
entrepreneurial 97
name, 97
dopes 97
sweat 97
other, 97
anyones 97
earliest 97
darling 97
sexting 97
@macy 97
FREE 97
Repub 97
Came 97
Questions 97
Philadelphia, 97
pm@@ 97
@Team@@ 97
dri@@ 97
multi@@ 97
post@@ 97
ak 97
Cavuto 97
All@@ 97
@greta: 97
yed 97
@PeteRose_14 97
@JenniferJJacobs: 97
#I@@ 97
shoes 97
OHIO 97
ity, 97
TOLD 97
777: 97
44: 97
my, 97
non 97
@sa@@ 97
@Michelle@@ 97
@scott@@ 97
@All@@ 97
OBAMA 97
@dj@@ 97
Through 97
@steven@@ 97
ta: 97
HRC 97
en_@@ 97
smart@@ 97
@li@@ 97
Br@@ 97
Ebola, 97
Shar@@ 97
delegates, 97
ships, 97
Except 97
hang 96
w/you 96
enrich 96
smiling 96
2009 96
retired 96
disease 96
@theblaze 96
@dallasmavs 96
repealing 96
offense 96
deserter 96
characters 96
@katyperry 96
wine 96
heritage 96
trigger 96
Demand 96
NAME 96
Crown 96
Finance 96
#WeeklyAddress 96
own@@ 96
Talks 96
Detroit, 96
ning 96
CRUZ 96
Je@@ 96
@my@@ 96
ss, 96
Bruce 96
ma: 96
Nebraska 96
#No@@ 96
@Sean@@ 96
Walters 96
cer@@ 96
ST@@ 96
Against 96
shar@@ 96
count@@ 96
ell: 96
Voter 96
ami@@ 96
65@@ 96
Up@@ 96
80: 96
@seankesser: 96
kelly@@ 96
ire 96
Resolve 96
Donalds 96
@TheView 96
@THE@@ 96
sight 96
dot@@ 96
Melissa 96
bun@@ 96
gener@@ 96
@DJ@@ 96
dnc 95
preexisting 95
existing 95
expressed 95
coordination 95
q 95
misrepresents 95
anyone, 95
dismal 95
appear 95
apologies 95
knight 95
teleprompter 95
finger 95
criticism 95
@fitsnews 95
standpoint, 95
@terrellowens 95
cops 95
kills 95
senior 95
delegate 95
wisely 95
21@@ 95
Ricardo 95
Abbas 95
cont: 95
Qatar 95
ita@@ 95
atic 95
Mr@@ 95
uc@@ 95
key: 95
des@@ 95
ant, 95
92: 95
Sim@@ 95
President@@ 95
ze@@ 95
Atlanta 95
@Knight276: 95
@4@@ 95
@mor@@ 95
Lee@@ 95
hor@@ 95
ale 95
team@@ 95
@la@@ 95
problem@@ 95
Lying 95
Breaking 95
han@@ 95
Pls 95
@SixteenChicago 95
kers 95
mann: 95
@Bu@@ 95
Especially 95
90@@ 95
you: 95
Gra@@ 95
follow@@ 95
Ellen 95
Aristotle 95
Four@@ 95
Cleveland, 95
well@@ 95
@dcexaminer 94
search 94
assistance 94
joins 94
scott 94
prediction 94
insisted 94
leaking 94
videos 94
@megynkelly, 94
ce 94
dominating 94
fav 94
elizabeth 94
robbed 94
@rosannascotto 94
valuable 94
penny 94
embarrassing 94
4:00 94
ut@@ 94
@EdWGillespie 94
Program 94
Next, 94
@DHSgov 94
Rather 94
connect 94
TRUMP, 94
Wintour 94
THe 94
@JebBush, 94
IOWA 94
and: 94
Cool 94
ef@@ 94
ik@@ 94
Mas@@ 94
@ByronYork 94
sey: 94
Center, 94
shing@@ 94
ano 94
Sc@@ 94
MAN@@ 94
@ju@@ 94
@ph@@ 94
DCs 94
tu@@ 94
ace: 94
Jr: 94
past@@ 94
els 94
Baldwin 94
Thanksand 94
it; 94
large, 93
mexican 93
mike@@ 93
rely 93
laying 93
essential 93
allegations 93
eleven 93
commerce 93
questioning 93
diverse 93
ranks 93
memories 93
forum 93
hammer 93
flip 93
besides 93
restaurant, 93
humble 93
boring, 93
arming 93
payforplay 93
Christmas, 93
Hate 93
Ukraine, 93
Health 93
Low 93
BRAVE 93
PRESIDENTIAL 93
FRAUD 93
Accountability 93
Whenever 93
Islamists 93
Giving 93
Tra@@ 93
Pri@@ 93
E: 93
@TrumpGolf 93
st: 93
THAN 93
Res@@ 93
Typical 93
Exactly 93
ings@@ 93
did@@ 93
Strength 93
OU@@ 93
AP@@ 93
ron@@ 93
Pew 93
allen@@ 93
ane: 93
hy@@ 93
Bri@@ 93
resorts 93
sof@@ 93
Gotta 93
double@@ 93
ands 93
ites 93
@HMunjal: 93
Chris@@ 93
@Stephen@@ 93
mag@@ 93
87: 93
Brandi 93
ord@@ 93
fights 93
need@@ 93
Remain 93
Rio 93
Modern 93
Secy 93
met, 93
tt 93
able, 93
drew 93
Tampa, 93
claiming 93
Folks, 93
county 92
memorable 92
locked 92
inviting 92
strategic 92
tapes 92
jon 92
session 92
ronald 92
recklessly 92
graduate 92
@limbaugh 92
concerns 92
accomplishment 92
hey, 92
obsessed 92
@leezeldin 92
laughs 92
salary 92
transcripts 92
signed, 92
watch: 92
Members 92
Coo@@ 92
onal@@ 92
Annual 92
Choice 92
RUSSIA 92
z, 92
Dumb 92
ax@@ 92
Brooklyn 92
err@@ 92
ie: 92
ES@@ 92
@MarkHalperin 92
Goldberg 92
Amen 92
2001 92
@no@@ 92
,000 92
READ 92
Harwood 92
rocks 92
rocked 92
Hearing 92
ian@@ 92
@Billy@@ 92
_A@@ 92
pla@@ 92
IMMIGRATION 92
PRO@@ 92
yourself: 92
Whitestone 92
Time@@ 92
bite 92
ars, 92
loaded 92
Positive 92
Web 92
retire 91
drone 91
tur@@ 91
funny, 91
kasich 91
kinda 91
option 91
promising 91
skyscrapers 91
9/8c 91
soul 91
persistent 91
wat@@ 91
DOWN 91
Luck 91
barrel 91
ned 91
Mad@@ 91
ized 91
MI@@ 91
ators 91
*@@ 91
ates, 91
BU@@ 91
ts@@ 91
care@@ 91
KE@@ 91
@paul@@ 91
@Br@@ 91
@christ@@ 91
deli@@ 91
26@@ 91
comfortable 91
WON 91
sid@@ 91
better@@ 91
K: 91
@Justin@@ 91
elle@@ 91
@NatashaOwnfan: 91
Ir@@ 91
@TalismanJohnnyA: 91
30: 91
EX@@ 91
@Gre@@ 91
@Don@@ 91
Early 91
#FreeOurMarine 91
True@@ 91
1,@@ 91
broadcasting 91
#NYPrimary 91
Kristen 91
Gumbel 91
guard 90
underway 90
carter 90
bob 90
works, 90
cabinet 90
investigated 90
miller 90
disabled 90
delusional 90
11am 90
unsustainable 90
stewart 90
arod 90
drawn 90
kerry 90
10th 90
gasoline 90
curb 90
surged 90
assaults 90
minor 90
(including 90
demean 90
approved, 90
PROSPERITY 90
Crime, 90
Wall, 90
Schumer/Pelosi 90
Election, 90
Theresa 90
LaVar 90
2, 90
Obstruction 90
Military/Veterans 90
@PacificCommand 90
Corker, 90
grip 90
Time, 90
COUNTRY, 90
encourages 90
HealthCare, 90
Mapp 90
#FEMA 90
Juan, 90
Un 90
helpful 90
AFTER, 90
Guard, 90
cant, 90
disruption 90
(enthusiastic, 90
(respectful 90
strong) 90
misrepresent 90
Replace, 90
inauguration, 90
TRAVEL 90
Manchester 90
PRE@@ 90
Sally 90
drugs, 90
poisoning 90
$12 90
terror, 90
Bean 90
Motor 90
every@@ 90
FIX 90
kn@@ 90
Dan@@ 90
@Com@@ 90
@Kathy@@ 90
Ly@@ 90
63: 90
Syrians 90
NYC: 90
PO@@ 90
Carson, 90
mental 90
Sept 90
Mom@@ 90
JEB 90
UNITED 90
thing: 90
ATE 90
roc@@ 90
sign@@ 90
zz: 90
7:@@ 90
Val@@ 90
amazed 90
STATES 90
acknowledging 90
ID@@ 90
Bow@@ 90
bab@@ 90
admired 90
trouble, 90
pleasurable 90
Jersey, 90
recieved 90
GE 90
fam@@ 90
TV, 90
ART 90
#1: 90
84: 90
successful, 90
Rouge, 90
conditioners 90
Twitter, 90
16,500 90
Cruzs 90
audited 90
$6,000,000 90
ms, 90
beings 90
literally, 90
Organization, 90
Bernardino, 90
league, 90
bills, 90
society, 90
after, 90
everythings 90
chunk 90
Komatsu 90
devalued 90
three, 90
lumps 90
gor@@ 89
@abc 89
cy 89
consecutive 89
w/the 89
choices, 89
governors 89
canada 89
removal 89
june 89
admin 89
advisor 89
cla@@ 89
(via 89
oreilly 89
suicide 89
pt 89
purchased 89
vince 89
formidable 89
follower 89
@bu@@ 89
shark 89
Comm 89
@USCG 89
abt 89
Light 89
significant 89
ston@@ 89
Workers 89
Pure 89
Hill 89
EVERYONE 89
LAW 89
aches 89
Labor 89
revival 89
Chrysler 89
pressing 89
Mer@@ 89
za 89
embraced 89
Voters 89
Palestinians 89
198@@ 89
@RichLowry 89
ars@@ 89
les, 89
dat@@ 89
contributed 89
@foxandfriends: 89
able@@ 89
@PiersMorgan 89
@FallonTonight 89
bon@@ 89
It@@ 89
ach 89
kay@@ 89
@GovernorPerry 89
donors, 89
Agreed 89
54 89
Plz 89
ir: 89
@Univision 89
Dev@@ 89
sses 89
@da@@ 89
ance@@ 89
mediocrity 89
Clare 89
temperatures 89
@nbc@@ 89
greats 89
@ar@@ 89
division 89
Western 89
Street, 89
Moreland 89
Paula 89
cars, 89
Egypt, 89
website, 89
joking 89
rnc 88
scheme 88
24% 88
marriage 88
securing 88
merchandise 88
drivers 88
confused 88
experienced 88
opposes 88
endorsements 88
fracking 88
Lottery 88
influential 88
shining 88
refusal 88
stress 88
Jesus 88
LONG 88
terminating 88
@TuckerCarlson 88
Base 88
Ser@@ 88
Powell 88
@LaraLeaTrump 88
Far@@ 88
STAY 88
Plus 88
Adams 88
Jefferson 88
chance, 88
Pope, 88
IT, 88
@FaithandFreedom 88
HO@@ 88
Charleston, 88
Busy 88
MaraLago, 88
Ent@@ 88
@ralphreeds 88
Newt 88
Shooting 88
cau@@ 88
@thehill: 88
ise 88
tter 88
4Trump 88
CANT 88
@Lo@@ 88
vo@@ 88
in_@@ 88
08: 88
inc@@ 88
ya@@ 88
els@@ 88
gun@@ 88
ford@@ 88
Depression 88
es) 88
ici@@ 88
Qu@@ 88
energized 88
kill@@ 88
cli@@ 88
crazy@@ 88
marie@@ 88
#NCGOPcon 88
anna@@ 88
Conservatives 88
Cover 88
53 88
reply 88
jr@@ 88
entrepreneurs: 88
Links, 88
OH 88
Emmy 88
highway 88
break@@ 88
toured 88
HBO 88
5M 88
@du@@ 88
related 88
#DebateNight 88
force, 88
Roves 88
moment, 88
deadline 87
seemed 87
france 87
greta 87
holds 87
inevitable 87
meets 87
bald 87
tender 87
Stocks 87
co 87
Regulations 87
verdict 87
Taxes 87
pressed 87
developed 87
Credit 87
volunteer 87
Kelly, 87
A+ 87
Ke@@ 87
Study 87
blessing 87
LOVED 87
interviews, 87
Correspondents 87
Voting 87
stock@@ 87
Mal@@ 87
bloo@@ 87
Wolf 87
@Eric@@ 87
RA@@ 87
@blue@@ 87
TI@@ 87
fields 87
7PM 87
enti@@ 87
@YouTube 87
Honestly 87
@sk@@ 87
ca: 87
ban@@ 87
action, 87
Waiting 87
coo@@ 87
ance, 87
lis@@ 87
GIVE 87
crazy, 87
Secure 87
yr@@ 87
Ready 87
ately 87
la: 87
predic@@ 87
Eisenhower 87
@jake@@ 87
Passion 87
menswear 87
@joniernst 87
golfers 87
TER@@ 87
Jamie 87
however 87
previously 87
$125 87
Sharon 87
Salmond 87
2,@@ 87
550% 87
graduates 87
Pattinson 87
brag 87
violate 87
luck, 87
Qatar, 87
nobody, 87
brian 86
lyn@@ 86
facebook 86
analyst 86
vows 86
gan 86
rises 86
winston 86
25th 86
ignored 86
replay 86
@ca@@ 86
ta 86
charging 86
travelled 86
outside, 86
swearing 86
Bahrain 86
Griffin 86
ches 86
benefits, 86
Playing 86
Market, 86
unmatched 86
HIRE 86
Indianapolis 86
TOGETHER 86
collude 86
Macron 86
MiddleEast 86
@Greta 86
Ivanka, 86
Bringing 86
Subcommittee 86
41 86
SEE 86
@ABC2020 86
Spe@@ 86
@MS@@ 86
@New@@ 86
Estates 86
Childrens 86
7th 86
http://www 86
Phyllis 86
NY: 86
@HowardKurtz 86
ez@@ 86
helm 86
%) 86
@sal@@ 86
@jack@@ 86
LIES 86
Scot@@ 86
197@@ 86
plan@@ 86
Ac@@ 86
$50@@ 86
:00pm 86
ago@@ 86
@Jen@@ 86
cul@@ 86
ons@@ 86
ps@@ 86
#L@@ 86
negoti@@ 86
Watch, 86
deduct 86
47: 86
Miami, 86
stats 86
possibilities, 86
Warner 86
Soho 86
prote@@ 86
tw@@ 86
investors 86
@AberdeenCC 86
Due 86
SOTU 86
LETS 86
knocking 86
Judd 86
48% 86
mad@@ 85
hikes 85
troubled 85
cares, 85
@gatewaypundit 85
recovered 85
conduct 85
worldclass 85
shout 85
presentation 85
@bahia6085 85
Amb 85
sympathies 85
industries 85
it) 85
Representatives 85
Push 85
participating 85
EM@@ 85
suggesting 85
Historic 85
Linda 85
ight@@ 85
Hispanics, 85
professionals 85
ence@@ 85
Card 85
inauguration 85
star@@ 85
banks, 85
control@@ 85
Ft 85
od 85
Mis@@ 85
6/@@ 85
@Se@@ 85
fied 85
red, 85
@rob@@ 85
@James@@ 85
shares 85
chi@@ 85
ake@@ 85
ft@@ 85
Turn 85
WOULD 85
tweets, 85
k1: 85
_k@@ 85
34 85
Latinos 85
Huma 85
disc@@ 85
Dur@@ 85
@Kim@@ 85
BB@@ 85
@Con@@ 85
ously 85
kes 85
Arent 85
Josh@@ 85
NB@@ 85
Rhode 85
def@@ 85
ded, 85
conservative, 85
Nic@@ 85
embar@@ 85
educate 85
practice 85
Leeza 85
ice: 85
Yay 85
devoted 85
asse@@ 85
Bibi 85
utter 85
Windmills 85
Momentum 85
public, 85
fifty 85
Islam, 85
nice@@ 85
honest, 85
$1B 85
tape, 85
russia, 84
egypt 84
maralago 84
ame 84
michael 84
america, 84
revoked 84
ville 84
else@@ 84
georgia 84
compare 84
thomas 84
defends 84
opec 84
mac 84
nite 84
ruled 84
western 84
achievements 84
difficulty 84
visas 84
Along 84
@CBS 84
Death 84
REFORM 84
Year, 84
Series 84
mourn 84
kneel 84
@RicardoRossello 84
WORKERS 84
Virtually 84
condemns 84
tz@@ 84
delays 84
Unfair 84
ir 84
NYT 84
manipulator 84
And@@ 84
real, 84
OWS 84
Express 84
goods, 84
voters, 84
pathway 84
#Tump2016 84
Moines, 84
@Brian@@ 84
@that@@ 84
@ny@@ 84
@Jimmy@@ 84
KEEP 84
Sure 84
Jeb, 84
@brithume 84
do: 84
PAY 84
Charity 84
Dangerous 84
@Ken@@ 84
BECAUSE 84
sh, 84
58 84
DC: 84
Sam 84
sleaze 84
sions 84
50,000 84
ets@@ 84
Championships 84
Politics: 84
Gets 84
house@@ 84
Care@@ 84
ily@@ 84
comm@@ 84
Travel@@ 84
ke: 84
Ayrshire 84
Rivera 84
V: 84
riot 84
Listen, 84
@Di@@ 84
Republican, 84
Veteran 84
fle@@ 84
Ivy 84
exports 84
chopping 84
incompetent, 84
Three 84
Columbia 84
honor@@ 84
Wednesday, 84
PAC, 84
boxes 84
@GiulianaRancic 84
Pervert 84
snowing 84
@MittRomney, 84
Frack 84
Blackdog 84
destabilized 84
accountants 84
trucks 84
andrew 83
congressional 83
comey 83
sec 83
thursday 83
@realdonaldtrump, 83
libya 83
ona@@ 83
cl@@ 83
oscars 83
#oscars 83
WOMEN 83
police, 83
90% 83
Legal 83
Lt 83
content 83
STAND 83
LA, 83
sooo 83
Lara 83
Cyber 83
US, 83
fall@@ 83
#MSM 83
@HouseGOP 83
IF@@ 83
Connecticut, 83
@SuperBowl 83
Parenthood 83
demanded 83
Stu@@ 83
Ignore 83
Libyan 83
Roast 83
li: 83
RUBIO 83
@GeorgeWill 83
ica@@ 83
WR@@ 83
@Christian@@ 83
07: 83
appe@@ 83
Sat 83
_e@@ 83
29@@ 83
fic@@ 83
Jacksonville 83
differences 83
ac: 83
@james@@ 83
98@@ 83
@In@@ 83
PL@@ 83
Pot@@ 83
ton, 83
Bru@@ 83
Exclusive: 83
94: 83
HILLARY 83
keep@@ 83
ber: 83
@at@@ 83
acti@@ 83
FO@@ 83
Masters 83
#VoteTrump@@ 83
@Pro@@ 83
App 83
aming 83
fact@@ 83
insulted 83
@Miss@@ 83
ants 83
French 83
Cur@@ 83
gem 83
FLIGHTS 83
surrounding 83
Este 83
@GolfDigestMag 83
Rouge 83
supply 83
@Oprah 83
112 83
Russia@@ 83
model, 83
unify 83
@BeaumontAnthony: 83
Orlando, 83
clo@@ 83
#VoteTrumpNH 83
education, 83
disaster@@ 83
negotiation, 83
#no@@ 82
justice, 82
nevada 82
testimony 82
reminds 82
churchill 82
ireland 82
thug 82
flew 82
Email 82
Pass 82
BLUE 82
NEWS, 82
Anthem, 82
Report: 82
Islamist 82
Springs, 82
Hanoi, 82
River@@ 82
@SteveScalise 82
Otto 82
package 82
PEACE 82
extortion 82
unacceptable 82
Hel@@ 82
delighted 82
legislative 82
G7 82
caught, 82
investigate 82
strengthening 82
@exxonmobil 82
Schwarzenegger 82
:00@@ 82
approving 82
sources, 82
Chiefs 82
plants, 82
ham 82
rein 82
@RedState 82
applying 82
Ti@@ 82
el, 82
Vineyard 82
Dem@@ 82
sed@@ 82
Ry@@ 82
PH@@ 82
fortune, 82
ler@@ 82
ideas, 82
lifelong 82
#Election2016 82
cam@@ 82
Drudge, 82
ney@@ 82
lem@@ 82
dominate 82
dge@@ 82
ray@@ 82
Asians 82
Pres@@ 82
Hypocrite 82
sister 82
Mag 82
ter, 82
#Trump4President 82
Counting 82
ag: 82
dan@@ 82
#G@@ 82
confirm 82
@Co@@ 82
@Gi@@ 82
Defund 82
May@@ 82
kindness 82
dro@@ 82
light@@ 82
influenced 82
Saddam 82
disadvantage 82
ined 82
wave 82
Built 82
aspects 82
forms, 82
path, 82
me; 82
50th 81
nafta 81
praises 81
destroys 81
mel@@ 81
vp 81
w/o 81
treats 81
nn@@ 81
@glennbeck 81
jerk 81
wonderful, 81
torture 81
unlimited 81
phoney 81
Ryan, 81
tall 81
MONEY 81
@SpeakerRyan 81
Increases 81
Christopher 81
Hence, 81
Authority 81
articles 81
David, 81
seldom 81
Pence, 81
Carolinas 81
LIVE: 81
ile 81
Warriors 81
nes@@ 81
ribbon 81
Deal@@ 81
Smith: 81
threw 81
ISIS@@ 81
theory 81
War@@ 81
@keksec_org: 81
195@@ 81
swear 81
makers 81
Pi@@ 81
border@@ 81
@Red@@ 81
OVER 81
@jay@@ 81
TRUMPS 81
ted@@ 81
amazing@@ 81
Fal@@ 81
@DLoesch 81
freed 81
93: 81
@Rob@@ 81
stal@@ 81
headlines 81
ator, 81
Allen 81
Host 81
hair@@ 81
as_@@ 81
KS 81
O: 81
lett@@ 81
ving 81
cure 81
negotiates 81
@DannyZuker: 81
individual, 81
11/8/16 81
founder 81
Bain 81
safety, 81
inversion 81
probe 80
i, 80
criticizes 80
sc 80
medicare 80
exercise 80
tz 80
brady 80
45% 80
locations 80
Maria 80
LED 80
@JBA_NAFW 80
Enforcement 80
nations, 80
gentleman 80
@AntonioGuterres 80
ink 80
ONCE 80
57 80
W/ 80
3%, 80
Swamp 80
overwhelming 80
Gerald 80
India, 80
lame 80
Turkey, 80
dra@@ 80
Won 80
extended 80
displayed 80
maintain 80
Ivankas 80
oc@@ 80
@Lawrence 80
manipulating 80
$8@@ 80
week@@ 80
way@@ 80
ATED 80
Women 80
HIS 80
POLLS 80
happiness 80
@BillKristol 80
lau@@ 80
Rises 80
95@@ 80
Discussing 80
OIL 80
@ke@@ 80
case, 80
ino: 80
bye 80
suc@@ 80
NN@@ 80
@BackOnTrackUSA: 80
lee@@ 80
@po@@ 80
Dutchess 80
86: 80
gal@@ 80
aa@@ 80
@San@@ 80
40: 80
Star@@ 80
2011: 80
Fre@@ 80
driver 80
@BackOnTrackUSA 80
@ti@@ 80
@eli@@ 80
_P@@ 80
keynoting 80
49@@ 80
gle@@ 80
DUMB 80
ino 80
look@@ 80
8/7c 80
Unity 80
Millers 80
compassionate 80
Giants 80
Rock 80
indi@@ 80
@DeannaSpillyard: 80
7,000 80
sponsor 80
help@@ 80
brackets 80
_E@@ 80
perform 80
fastest 80
intent 80
France, 80
teleprompters 80
cheerleader 80
journal 79
reference 79
stone 79
apprentice, 79
@jebbush 79
jewel 79
@agschneiderman 79
@mboyle1 79
@extratv 79
Goes 79
PE@@ 79
doubt, 79
Place 79
assist 79
Friday, 79
acceptable 79
34@@ 79
JOKE 79
Pentagon 79
civilized 79
Holocaust 79
preserving 79
secretly 79
wire 79
posted 79
leak 79
defended 79
shock 79
Dean 79
proposing 79
PR@@ 79
pace 79
low, 79
W/@@ 79
category 79
@GovernorPataki 79
igh@@ 79
@DiamondandSilk 79
crowd@@ 79
@Te@@ 79
elegant 79
no: 79
#TrumpTower 79
Tyson 79
Losers 79
ff: 79
Hat@@ 79
54: 79
dysfunctional 79
Newsweek 79
ball@@ 79
HIM 79
Inc 79
29% 79
rac@@ 79
nor 79
mon 79
MACYS 79
None 79
Slams 79
ea@@ 79
numb@@ 79
goo@@ 79
restoring 79
ism, 79
caps 79
ay 79
ish 79
@LateShow 79
Rodman 79
waves 79
Woody 79
hit, 79
bombs 79
institutions 79
dramatically 78
@wsj 78
kevin 78
fifth 78
nor@@ 78
http 78
led@@ 78
dge 78
remembering 78
scot@@ 78
okay, 78
gear 78
conservation 78
free, 78
@UN 78
continues, 78
Priebus 78
Girls 78
outlook 78
criminals, 78
@GolfDigest 78
ners 78
opp@@ 78
ski@@ 78
Unfortunately, 78
Ri@@ 78
electing 78
Israels 78
sells 78
less@@ 78
12,000 78
Bob@@ 78
BEAUTIFUL 78
chu@@ 78
ey 78
hilarious 78
@king@@ 78
Cra@@ 78
cow@@ 78
stri@@ 78
@todd@@ 78
alized 78
k_@@ 78
@kevin@@ 78
English 78
politic@@ 78
connected 78
with@@ 78
Hot@@ 78
Big@@ 78
Christianity 78
@Ian@@ 78
drove 78
@aj@@ 78
@TrumpNationalNY 78
FE@@ 78
gers 78
toughness 78
rel@@ 78
Might 78
Mar 78
ion@@ 78
@StateDept 78
unreal 78
Surprise 78
@iam@@ 78
@IvankaTrump: 78
ats@@ 78
gutted 78
busines@@ 78
timeless 78
ah, 78
Lev@@ 78
flo@@ 78
BREXIT 78
TPP, 78
Kristol 78
#SCPrimary 78
Watergate 78
@NaghmehAbedini 78
@MileyCyrus 78
competing 78
praising 77
scar@@ 77
@bpolitics 77
graham 77
rove 77
sunk 77
#donaldtrump 77
@mikeandmike 77
eagles 77
@michellemalkin 77
tire 77
S;P 77
thin 77
McConnell, 77
chemical 77
LIFE 77
um, 77
Blasts 77
Bannon 77
Not@@ 77
#Obama 77
Thre@@ 77
Days 77
@MSNBC 77
readers 77
CRAZY 77
West@@ 77
debate@@ 77
$30 77
hear@@ 77
aD@@ 77
111: 77
AR 77
2M 77
911 77
bell@@ 77
imp@@ 77
Photo 77
Corporate 77
punches 77
Greatly 77
Rockefeller 77
29: 77
#CNNDebate 77
ink@@ 77
NEXT 77
interview@@ 77
#O@@ 77
offensive 77
Eastwood 77
ech@@ 77
@susan@@ 77
@jj@@ 77
Mason 77
kel@@ 77
@AplemonLemon: 77
hur@@ 77
Don, 77
lay@@ 77
#i@@ 77
Medal 77
minded 77
request, 77
Price 77
go: 77
ched 77
King@@ 77
styles 77
ile@@ 77
blu@@ 77
@au@@ 77
Tre@@ 77
Kay 77
month, 77
sive 77
Miami@@ 77
@HBO 77
Weiners 77
hows 77
navy 76
ol 76
@geraldorivera 76
nailed 76
pls 76
@cadillacchamp 76
lesson 76
len@@ 76
Official 76
comprehensive 76
flooding 76
statistically 76
@Cabinet 76
Lowest 76
today: 76
dominated 76
Results 76
@RedCross 76
Youngstown, 76
scream 76
Head 76
killings 76
AF@@ 76
Changed 76
activists 76
crew 76
sav@@ 76
Fe@@ 76
ACK@@ 76
@Bo@@ 76
Makes 76
free@@ 76
3/@@ 76
war@@ 76
shaking 76
jack@@ 76
yB@@ 76
Luc@@ 76
LIE 76
need, 76
Koch 76
luv 76
@ken@@ 76
Carter, 76
97: 76
@DNorrell: 76
commenting 76
Good@@ 76
abu@@ 76
Line 76
nail 76
GREAT, 76
blamed 76
* 76
Ton@@ 76
Tan@@ 76
cast, 76
guy: 76
joy 76
@Senator@@ 76
Negoti@@ 76
anch@@ 76
place@@ 76
AG@@ 76
Fil@@ 76
drawing 76
Mayweather 76
Talent 76
style, 76
@KeatsBen: 76
words: 76
30th 76
gie@@ 76
personality 76
f/@@ 76
ANOTHER 76
unconstitutional 76
brightest 76
studying 76
@il@@ 76
lifting 76
oblivion 76
Ginsburg 76
212 76
enrollment 76
ARods 76
salaries 76
#NeverHillary 76
obamacare, 75
iraq, 75
humanitarian 75
erson 75
excessive 75
bother 75
colorado 75
sun 75
wildlife 75
@billmahers 75
violations 75
economics 75
2009, 75
pile 75
worst, 75
themselves, 75
unnamed 75
rules, 75
preventable 75
wildfires 75
(he 75
humanity 75
preserve 75
TAXES 75
provision 75
simpler 75
tolerate 75
vile 75
Reform, 75
dreams, 75
participated 75
INCREDIBLE 75
Jerome 75
chain 75
DEATH 75
Goodell 75
broken, 75
Juan 75
Norfolk, 75
tirelessly 75
advising 75
knees 75
larger, 75
extremism 75
wellbeing 75
hate, 75
succeeded 75
TOTALLY 75
secure, 75
slanted 75
scorned 75
ene 75
16% 75
pact 75
Denmark, 75
sums 75
expensive, 75
phase 75
Gitmo, 75
principals 75
@Hot@@ 75
#SuperBowl 75
primaries, 75
Chair 75
List 75
wan@@ 75
http://@@ 75
ited 75
houses 75
entirely 75
support@@ 75
separately 75
Pageant, 75
yourselves 75
15, 75
Latinos, 75
soundly 75
Between 75
ich 75
12/3 75
@eric@@ 75
board@@ 75
already, 75
ug@@ 75
CE@@ 75
Nor@@ 75
FL: 75
Over@@ 75
cont@@ 75
rent@@ 75
arri@@ 75
fantastic, 75
@jimlibertarian: 75
que@@ 75
stated, 75
changer 75
sur@@ 75
sa_@@ 75
Running 75
SS 75
WIN, 75
Jason 75
ining 75
ACTION 75
_H@@ 75
Philly 75
16, 75
@VeryOddDog: 75
71 75
@WarrenBuffett 75
@williamgardanis: 75
mart@@ 75
als, 75
overcome 75
kid@@ 75
confined 75
bal@@ 75
Inter@@ 75
sey 75
POTUS, 75
nuclear, 75
gentleman, 75
entrepreneur, 75
cuz 75
Todd, 75
important@@ 75
@ApprenticeNBC: 75
introduction 75
@WinPropP: 75
@itsRyanHilton: 75
@mat@@ 75
Durst 75
@TMZ 75
PGA: 75
deception 75
Obama: 75
Learn, 75
City@@ 75
weaker 75
Robb 75
stiff 75
@KieranLalor 75
16th, 75
leaving, 75
LEAGUE 75
Senator, 75
MVP 75
LIMITED 75
EDITION 75
$184 75
YOURS 75
stupid@@ 75
NRA, 75
heroin 75
station 75
drained 75
@gallupnews 75
inefficient 75
sales, 75
exempt 75
date, 75
outplayed 75
compassion 75
fixed, 75
millions, 75
Itll 75
overall 75
mistreated 75
entrance 75
Partnership, 75
alone, 75
hat, 75
Lester, 75
overthrow 75
six, 75
attacked, 75
yen 75
announced, 75
24day 75
spray 75
Jews 75
slaughter, 75
landslides 75
selfinspect 75
anyways 75
anna 74
hispanics 74
rick 74
bowl 74
mexico, 74
@missuniverse 74
@huffingtonpost 74
zero, 74
howard 74
@not_that_actor 74
worthless 74
mit@@ 74
Agenda 74
ungrateful 74
button 74
RIGGED 74
Jong 74
Prosperity 74
TRILLION 74
delete 74
lo 74
#POTUSAbroad 74
ged 74
accuracy 74
oath, 74
GM 74
October, 74
Keith 74
Missed 74
appeared 74
hom@@ 74
Road 74
$2@@ 74
commentator 74
Whoever 74
@BarackObama@@ 74
Reid 74
Timepieces 74
Sanders@@ 74
@dave@@ 74
isa@@ 74
noone 74
Columbus, 74
DonaldTrumps 74
bert@@ 74
Lies 74
ran, 74
@mis@@ 74
aci@@ 74
ille@@ 74
closet 74
@businessinsider 74
intro 74
Thought 74
Private 74
ther@@ 74
Her@@ 74
Tim@@ 74
World@@ 74
fac@@ 74
@lu@@ 74
1/2 74
IM 74
@Zach@@ 74
starved 74
fragrance 74
James@@ 74
number, 74
@puppyslug: 74
abandon 74
@jsilva74366572: 74
imagine, 74
Justin 74
coolest 74
vel 74
pun@@ 74
sealed 74
breakfast 74
Ryan@@ 74
rave 74
FiveStar 74
65 74
Seeing 74
science 74
strong@@ 74
Tourism 74
equally 74
g, 74
2004, 74
civilian 74
employees, 74
Cincinnati 74
Heritage 74
sick, 74
#NHPrimary 74
policies, 74
Saeed 74
79 74
jeff 73
soars 73
lincoln 73
gitmo 73
@jon@@ 73
@timkaine 73
likewise, 73
bow 73
@nymag 73
reporting, 73
$700,000 73
HISTORY 73
miles, 73
Seven 73
REMEMBER 73
Judges 73
Inspector 73
unsolved 73
hostage 73
trophy 73
Hundreds 73
commit 73
Progress 73
sovereign 73
Crisis 73
25%, 73
clips 73
Houston, 73
purchases 73
entrepreneurship 73
https: 73
Deals 73
roundtable 73
rig 73
Advisor 73
slowest 73
Georgia, 73
Caucus, 73
data, 73
executed 73
unwilling 73
liber@@ 73
800,000 73
resolute 73
shoot@@ 73
ENOUGH 73
@DRUDGE_REPORT: 73
q: 73
@Charles@@ 73
@Li@@ 73
ire@@ 73
21st 73
likewise 73
DID 73
$1,000 73
@frank@@ 73
62% 73
2001: 73
Fo@@ 73
ood@@ 73
Webb 73
happily 73
roast 73
context 73
ging 73
@ge@@ 73
wreck 73
controversy 73
Boone 73
sensitive 73
field, 73
ened 73
1) 73
Listening 73
les@@ 73
@mboyle1: 73
ARD 73
rest@@ 73
Bravo 73
programs, 73
ie 73
Clearly 73
creator 73
ara@@ 73
@GZervs: 73
POWER 73
@Marco@@ 73
@Ray@@ 73
Bold 73
@brian@@ 73
@Go@@ 73
Ailsa 73
lineup 73
@Tony@@ 73
@Max@@ 73
fascinating 73
Caesars 73
@TV@@ 73
@Mad@@ 73
@He@@ 73
gil@@ 73
Pulse 73
increasing 73
signage 73
Snowden, 73
Tournament 73
unified 73
Wilmington, 73
situations 73
steelworkers 73
Rowanne 73
31,000 73
ped, 73
landscape 73
$16T 73
easiest 73
currency, 73
face, 73
rotten 73
Pickens 73
addition, 73
@DannyZuker, 73
generals, 73
bigger, 73
infrastructure, 73
admissions 73
electoral 72
hopefully, 72
karl 72
yall 72
habit 72
pocket 72
decades, 72
negative, 72
fulfilled 72
dishonest, 72
Side 72
theories 72
CY 72
dozen 72
pipelines 72
analyzing 72
religion, 72
unleashes 72
Received 72
Congratulation 72
injured, 72
Worse 72
Lines 72
plate 72
monopoly 72
Celebrate 72
VOTER 72
Memorandum 72
vacations 72
Unfortunately 72
lining 72
Julian 72
Assange 72
@Rosie@@ 72
fair, 72
ges 72
OBAMACARE 72
@dr@@ 72
constitutional 72
Incompetence 72
poll: 72
refugees, 72
lat@@ 72
Marco, 72
stu@@ 72
Donald@@ 72
MAJORITY 72
@Mac@@ 72
@Cher 72
D_@@ 72
topic 72
ath 72
11th, 72
@jen@@ 72
@so@@ 72
Wo@@ 72
Hur@@ 72
@fe@@ 72
@mj@@ 72
Universe, 72
FAILED 72
cunning 72
accolades 72
@Matthew@@ 72
@don@@ 72
Krist@@ 72
morning@@ 72
55@@ 72
golfing 72
tourists 72
Kravis, 72
sellout 72
split 72
LL@@ 72
admirer 72
from@@ 72
ego, 72
ko: 72
designs 72
identified 72
citys 72
true@@ 72
normally 72
issuing 72
Great@@ 72
ita 72
commodity 72
jewelry 72
25,000 72
lists 72
professor 72
$1T 72
ces@@ 72
said@@ 72
Teo 72
abc 71
amendment, 71
@us@@ 71
cia 71
ardo 71
afghanistan 71
finally, 71
@mari@@ 71
multiple 71
@cb@@ 71
wallace 71
york, 71
more@@ 71
occupy 71
1:00 71
declaring 71
withdrawn 71
WaPo 71
regard 71
Oakland 71
display 71
bounds 71
Kenneth 71
revisit 71
any, 71
Station 71
conquer 71
businesspeople 71
7:15 71
rdy 71
3M 71
Norman, 71
Pray 71
bravest 71
firstever 71
wires 71
Likewise 71
lowlife 71
evenings 71
Post: 71
Iraqis 71
Dick 71
loopholes 71
sters 71
pm, 71
@daniel@@ 71
SIR 71
Cedar 71
@Lady@@ 71
boring) 71
Brothers 71
concern 71
ills@@ 71
Mill@@ 71
@Diane@@ 71
airing 71
ump 71
ns@@ 71
ek 71
bul@@ 71
ition 71
#WakeUpAmerica 71
@Greg@@ 71
@Ali@@ 71
LEAD 71
big@@ 71
@Mediaite 71
Polling 71
rell@@ 71
@mad@@ 71
pic@@ 71
odds 71
immigrants, 71
causes 71
Ver@@ 71
bone 71
ange@@ 71
Pols 71
THEM 71
da: 71
Shouldnt 71
@wa@@ 71
:Trump 71
Roll@@ 71
dog@@ 71
fronting 71
mer: 71
@BillRancic 71
Verizon 71
@rick@@ 71
arguments 71
Eugene 71
obstacles 71
BBC 71
address, 71
lin: 71
@ericleebow: 71
ini: 71
chess 71
Mariano 71
ree@@ 71
prospects 71
boot 71
ith@@ 71
essence 71
res: 71
messing 71
champ 71
,you 71
@Team_Mitch 71
Ryder 71
gro@@ 71
insist 71
footprint 71
suicidal 71
Turbines 71
dozens 71
ans, 71
JUDGEMENT 71
interventions 71
Glenfiddich 71
Ladens 71
wears 71
dismantle 71
traitor, 71
Stewart( 71
Here, 71
gentlemen, 71
10%, 71
wacky 70
lar@@ 70
jersey 70
henry 70
ave 70
sa, 70
@wwe 70
einstein 70
@trumpgolfla 70
destiny 70
Points 70
Christ 70
$9 70
witness 70
Fan 70
King, 70
Extreme 70
Broadway 70
@GovAbbott 70
9p 70
OWN 70
#USAatUNGA 70
htt 70
uniform 70
Add 70
Sick 70
Queen 70
Education 70
Reverend 70
easily, 70
ger: 70
execu@@ 70
Google 70
quits 70
figures 70
sell@@ 70
dotcom 70
Wake 70
Gadhafi 70
affairs 70
weather, 70
IP@@ 70
shipped 70
uninsured 70
instinct 70
acking 70
act, 70
@Ash@@ 70
Eng@@ 70
soldiers, 70
You@@ 70
@carrillo_pete: 70
consistently 70
IC 70
soar 70
ll 70
ful, 70
person@@ 70
applied 70
shall 70
Meanwhile, 70
Tw@@ 70
engagement 70
surrounded 70
cent@@ 70
EXCLUSIVE 70
Matt@@ 70
lab@@ 70
ball: 70
rare 70
Ju@@ 70
#Trumpforpresident 70
@kissangel864: 70
Greater 70
grow@@ 70
direction, 70
Cal@@ 70
@Jeremy@@ 70
office@@ 70
72: 70
@BestBergerEver: 70
@kwrcrow: 70
reps 70
@SamDoyle12 70
$$$$ 70
@News@@ 70
;) 70
Tour 70
PLE@@ 70
Tor@@ 70
ness@@ 70
Str@@ 70
Estate 70
Boy@@ 70
ner, 70
crossing 70
clubs 70
Ali 70
guaranteed 70
Lau@@ 70
ought 70
Matt, 70
emergency 70
websites 70
@AFPhq 70
just, 70
I: 70
@LodgeatDoonbeg 70
reviewing 70
extension 70
communism 70
Bernie, 70
2005 70
@Telemundo 70
permanently 70
risen 70
banking 70
uncle 70
#TrumpVine 70
@_KatherineWebb 70
Manti 70
130 70
2,300 70
syrian 69
@lawrence 69
winery 69
derek 69
customer 69
rou@@ 69
filling 69
cheating, 69
confirms 69
DREAM 69
rapid 69
violated 69
disrespected 69
restoration 69
swift 69
fall, 69
beloved 69
beyond, 69
protects 69
constructed 69
Community 69
@GovWalker 69
Khan 69
clearance 69
exit 69
overturned 69
generally 69
Ride 69
OFF 69
swiftly 69
seats 69
Eli 69
Imus 69
outsourcing 69
Latin 69
trash 69
stage, 69
#the@@ 69
reck@@ 69
Jude 69
Pat 69
emphasize 69
Dog 69
matches 69
@AndreaTantaros 69
basket 69
60: 69
2014@@ 69
11/@@ 69
Many, 69
ash 69
Curtis 69
DonaldTrump, 69
inep@@ 69
TN 69
Kno@@ 69
concer@@ 69
ME@@ 69
82: 69
$$$ 69
der, 69
Fi@@ 69
@Neil@@ 69
ABLE 69
sink 69
unheard 69
Latino 69
MC@@ 69
@sj@@ 69
anny@@ 69
SAY 69
@Ross@@ 69
lock@@ 69
#foxandfriends 69
biz@@ 69
Peninsula 69
guide 69
Problems 69
ared 69
103 69
mansion 69
AW@@ 69
@ForbesInspector 69
@RealPro4Real: 69
#love@@ 69
JCOPE 69
aring 69
@NewYorkObserver 69
91 69
HE@@ 69
@kim@@ 69
@Val@@ 69
motivates 69
premieres 69
movies 69
laughingstock 69
Mel@@ 69
Africa, 69
ous, 69
@The_Open 69
expansion 69
1, 69
Fans 69
madness 69
ins, 69
ssi@@ 69
FACT 69
Karzai 69
Tran@@ 69
term, 69
Pocahontas, 69
here@@ 69
masters 69
Chavez 69
bragging 69
notices 69
rates, 69
Knicks 69
#MakeDCListen 69
Toure 69
picture, 69
Erin 69
Research, 69
fal@@ 68
#fitn 68
wheres 68
dt 68
#president 68
apprentice@@ 68
lee 68
guestrooms 68
superb 68
oli@@ 68
erg@@ 68
@lancearmstrong 68
@joe@@ 68
Sanctions 68
Charlie 68
Optimism 68
6%, 68
associates 68
ue 68
Countries 68
DEPLORABLES 68
collected 68
lock 68
District 68
Smartest 68
recruitment 68
labor, 68
alternative 68
Scandal 68
GOVERNMENT 68
hold, 68
world: 68
transparent 68
PRES 68
@JustinTrudeau 68
choosing 68
(at 68
Netanyahu 68
Hi@@ 68
Med@@ 68
5pm 68
mountain 68
Presidentelect 68
Woodward 68
hero, 68
@TeamTrump 68
feat 68
hn@@ 68
ently 68
wacko 68
38: 68
DAT@@ 68
Black@@ 68
Endorses 68
Lane 68
WINNING 68
Iowas 68
filing 68
load 68
212: 68
establishment, 68
@TheFix 68
51: 68
@bo@@ 68
@Fox@@ 68
least, 68
@Ph@@ 68
@ad@@ 68
87 68
Hed 68
only@@ 68
ny: 68
Sioux 68
Hands 68
deportation 68
anc@@ 68
il, 68
TED 68
ady@@ 68
tax@@ 68
Valley 68
ses@@ 68
@Mrs@@ 68
_le@@ 68
severely 68
TRULY 68
glasses 68
sand@@ 68
confidence, 68
NEGOTI@@ 68
Sixteen 68
@DNorrell 68
Anything 68
@bostonherald 68
@j_@@ 68
ly: 68
sport@@ 68
Yeah 68
Spo@@ 68
regain 68
Cool@@ 68
bat@@ 68
segments 68
blip 68
Cub@@ 68
ee 68
bc@@ 68
Cat@@ 68
@TrumpTO 68
ise@@ 68
toying 68
dealmakers 68
Howards 68
Gabriel 68
SoHo 68
beneficiary 68
Pittsburgh, 68
ceiling@@ 68
@MacMillers 68
command 68
dealmaking 68
anymore@@ 68
Heat 68
@salesdan48: 68
thriving 68
come@@ 67
nan@@ 67
nam@@ 67
ell 67
gh 67
#crookedhillary 67
ics, 67
hum@@ 67
ary@@ 67
dubai 67
approx 67
venue, 67
Entrepreneurship 67
MILITARY 67
unfunny 67
demented 67
cautious 67
MA 67
harms 67
Following 67
Mine 67
ports 67
Roll 67
Blumenthal, 67
speedy 67
comfort 67
@DonaldJTrumpJr: 67
signings 67
analy@@ 67
manufactured 67
crystal 67
outcome 67
Fazio 67
15th 67
Classic 67
goes, 67
@Peggynoonannyc 67
fra@@ 67
#New@@ 67
pul@@ 67
gaining 67
band@@ 67
clar@@ 67
cock@@ 67
BRING 67
sie@@ 67
@For@@ 67
oner@@ 67
minutes, 67
cho@@ 67
@0@@ 67
ai@@ 67
@ryan_@@ 67
ID 67
sy 67
67@@ 67
Luxury 67
alla@@ 67
age, 67
53: 67
Scott@@ 67
len 67
@ru@@ 67
trained 67
escaped 67
ds, 67
@David_@@ 67
@Kevin@@ 67
bit@@ 67
@4kmiddlebrook: 67
reign 67
beauty@@ 67
@NHGOP 67
parking 67
@TrumpRink 67
pper@@ 67
Senior 67
ike@@ 67
inch 67
prices, 67
57@@ 67
intense 67
product, 67
Ditka 67
adds 67
Calls 67
promotes 67
#BringBackOurMarine 67
4000 67
endlessly 67
#ALSIceBucketChallenge 67
@PIERPAOLOMONNI 67
subsidize 67
140 67
Nine 67
Sher@@ 67
lined 67
ObamaCares 67
statement@@ 67
ARod, 67
contribute 67
aged 67
2008, 67
completed, 67
Olivia 67
recession 67
unthinkable 67
tolerant 67
admirals 67
Pfizer 67
Ladies 67
rand 66
marines 66
filibuster 66
cpac 66
nh 66
penn 66
typical 66
albert 66
achievers 66
gary 66
state@@ 66
snowden 66
sam@@ 66
forever, 66
@USArmy 66
Tonight, 66
#GES2017 66
Exchange 66
magazines 66
Lessons 66
Response 66
2002 66
#NFL 66
Information 66
healing 66
ced 66
Heather 66
drops 66
DOJ 66
enthusiasm, 66
initiative 66
ment: 66
verify 66
Own 66
@MariaBartiromo 66
@RepMarkMeadows, 66
@Jim_Jordan 66
Turned 66
collapsing 66
believable 66
@ErinBurnett 66
rr@@ 66
charity@@ 66
ome@@ 66
reaction 66
03@@ 66
@sun@@ 66
HES 66
coherent 66
story@@ 66
rails 66
SE 66
@scottienhughes 66
BI@@ 66
ato@@ 66
Bushy 66
roo@@ 66
well: 66
@Black@@ 66
ion 66
quarter@@ 66
@ta@@ 66
ase@@ 66
TAKE 66
@OutFrontCNN 66
92@@ 66
hating 66
drilling 66
Post@@ 66
ex: 66
hon@@ 66
ning@@ 66
ud 66
lar 66
@sm@@ 66
Key 66
ening 66
duc@@ 66
iting 66
@5@@ 66
201@@ 66
cleaning 66
pts 66
eli@@ 66
@HillaryClintons 66
stein 66
Han@@ 66
amnesty, 66
Off@@ 66
@SharylAttkisson 66
SM@@ 66
ering 66
ick: 66
Tri@@ 66
TIC@@ 66
trend 66
lifestyle 66
#quote 66
Dri@@ 66
DM@@ 66
kar@@ 66
Tom@@ 66
Dam@@ 66
bud@@ 66
Tells 66
efficient 66
@EastonWestwood 66
fox@@ 66
Outstanding 66
,,@@ 66
TMobile 66
som@@ 66
GREATEST 66
respect@@ 66
significance 66
optimist 66
Gilbert 66
Traveler 66
Drew 66
@Eye@@ 66
@Ryan@@ 66
argue 66
nt 66
notch 66
disappeared 66
permanent 66
skating 66
@ashley@@ 66
refs 66
guil@@ 66
doses 66
@IamStevenT 66
wash 66
much@@ 66
loose 66
ironic 66
vaccines 66
Dave 66
invest@@ 66
applicants 66
blocks 66
Foundation, 66
alists 66
Springs 66
bluecollar 66
@AnnDRomney 66
#TheArtofTheDeal 66
adversaries 66
fear, 66
Arias 66
huh 66
share, 66
isis, 65
mitch 65
hillarys 65
@nbcnews 65
russians 65
angel@@ 65
warren 65
constitution 65
ry, 65
graydon 65
@bill@@ 65
yay 65
CONGRATULATIONS 65
condemned 65
smoothly 65
animal 65
hospitality 65
cred 65
withdrawing 65
officers, 65
Smart, 65
Venezuela, 65
impact, 65
impacted 65
rain 65
battles 65
solely 65
Left 65
Os 65
Watch@@ 65
partnerships 65
Lou 65
Reed 65
one) 65
hail 65
suspect 65
FA@@ 65
Independent 65
TV@@ 65
consumers 65
Cost@@ 65
Bachmann 65
lay 65
Obam@@ 65
lead, 65
competitiveness 65
LOVES 65
Walker, 65
Emanuel 65
breathtaking 65
pilot 65
finds 65
Tur@@ 65
@tweet@@ 65
Christie, 65
PT 65
321: 65
ster, 65
campaigns 65
GR@@ 65
Anyway, 65
ka: 65
ory: 65
Some@@ 65
Dunes 65
full@@ 65
TWO 65
curious 65
@ne@@ 65
lec@@ 65
long@@ 65
BIN@@ 65
vely 65
@jason@@ 65
Wy@@ 65
scenes 65
aka 65
ahead, 65
ett@@ 65
yle@@ 65
shrunk 65
61 65
ating, 65
tr 65
Char@@ 65
@andrew@@ 65
fierce 65
rad@@ 65
#MidasTouch 65
Vision 65
Practice 65
often, 65
capture 65
trains 65
Enjoying 65
Greenville, 65
Simp@@ 65
MarALago 65
8,000 65
ines 65
hill 65
aker@@ 65
mee@@ 65
ath: 65
persuasion 65
Life@@ 65
zy 65
shines 65
02: 65
ville: 65
strategy, 65
@Cheryl@@ 65
CARE 65
van@@ 65
crossroads 65
Create 65
master@@ 65
#BlueMonster 65
dee@@ 65
equity 65
piece, 65
Rory 65
@PrimeMinisterSX 65
deserted 65
@ali@@ 65
ship, 65
hun@@ 65
blessed 65
performed 65
notes 65
ssed 65
CO 65
Departments 65
Colin 65
argument 65
surprise, 65
Burnett 65
esand 65
Dale 65
cologne 65
@Rizz_Lizz: 65
@CondeNastCorp 65
rapidly, 65
stocks 64
mandate 64
moore 64
pacific 64
sgt 64
@vp 64
cuban 64
jeffrey 64
hil@@ 64
@wolfblitzer 64
icen@@ 64
ber 64
native 64
stacked 64
MOORE 64
lonely 64
7, 64
Mu@@ 64
destroyed, 64
Champions 64
professionally 64
TX 64
#USVI 64
19,000 64
transactions 64
track, 64
Arpaio 64
protestors 64
@DeptVetAffairs 64
MADE 64
ace 64
Opens 64
Classified 64
Venezuela 64
PresidentElect 64
Water@@ 64
fundrais@@ 64
alist 64
Agents 64
esI 64
Tal@@ 64
Comedy 64
loser, 64
miserably 64
@En@@ 64
43% 64
Complete 64
@3@@ 64
jm@@ 64
celebr@@ 64
PAR@@ 64
moderator 64
Gives 64
Ta@@ 64
Cr@@ 64
stab 64
@Dee@@ 64
closest 64
Ka@@ 64
TOO 64
@Jared@@ 64
row@@ 64
Sen@@ 64
GW 64
GA 64
App@@ 64
WHEN 64
@john_@@ 64
ven@@ 64
fantastic@@ 64
Ken@@ 64
@TheFive 64
les: 64
Cash 64
crashing 64
ters, 64
elses 64
Miller@@ 64
@MalachiNorris: 64
male 64
@PaulaDuvall2: 64
zes 64
ack 64
comb@@ 64
Rap@@ 64
rapists 64
C_@@ 64
Guy: 64
suite 64
Wrestlemania 64
@ash@@ 64
negotiations, 64
medal 64
Sue 64
headquarters 64
Well@@ 64
SURE 64
ander@@ 64
gam@@ 64
bie@@ 64
Motiv@@ 64
@BackOnTrackUSA:@@ 64
#oreillyfactor 64
Empire 64
@johnny4arizona: 64
@Prayformetoo: 64
mean@@ 64
L: 64
Sar@@ 64
Donate 64
ers) 64
sum@@ 64
documentation 64
OB@@ 64
BarackObama 64
@Free@@ 64
Plaza 64
pay, 64
athlete 64
ders, 64
@tx_shaun: 64
Legendary 64
Capitalism 64
@TheDailyShow 64
bump 64
nicer 64
Sterling 64
pra@@ 64
ine, 64
turbines, 64
Drop 64
close, 64
setback 64
subscription 64
$17T 64
artificial 64
dele@@ 64
CPAC: 64
speak@@ 63
natl 63
geraldo 63
ian 63
@washtimes 63
january 63
pa 63
sea 63
bosses, 63
horrifying 63
@Lu@@ 63
looking, 63
carefully 63
@SpeakerRyan, 63
specific 63
NS@@ 63
NASCAR 63
Fascinating 63
Teresa 63
Acting 63
requested 63
impenetrable 63
hammer, 63
longstanding 63
briefings 63
prolife 63
optimistic 63
45,000 63
Investment 63
RE: 63
mic 63
Minnesota 63
#HappyNewYear 63
Hormuz 63
urging 63
$100@@ 63
span 63
Occupy 63
@oreillyfactor, 63
recognized 63
Into 63
BALANCE 63
visitors 63
Quinnipiac 63
Joe@@ 63
winner, 63
Diet 63
digits 63
ing) 63
TWITTER 63
bird@@ 63
nau@@ 63
McC@@ 63
@nbcsnl: 63
itch@@ 63
print 63
Taylor 63
@Ver@@ 63
Gravis 63
Indi@@ 63
@MLauer 63
@d_@@ 63
now: 63
fan: 63
@Jam@@ 63
Steven@@ 63
inspecting 63
morally 63
SI@@ 63
PLAY 63
#KellyFile 63
Beck 63
downward 63
Sub@@ 63
path@@ 63
Everyones 63
@TpGraf82: 63
targeted 63
@GOP@@ 63
max@@ 63
Plans 63
@lor@@ 63
eds 63
@SpeakerBoehner 63
110 63
port@@ 63
Roy@@ 63
B, 63
WI@@ 63
jam@@ 63
Mon 63
illu@@ 63
playoffs 63
iring 63
unfortunately 63
supplies 63
Terry 63
Philadelphia 63
attached 63
crowned 63
am, 63
Staten 63
Denver, 63
NV 63
mo: 63
2/@@ 63
@Gov@@ 63
1237 63
@lil@@ 63
ratings@@ 63
$8 63
Beijing 63
elements 63
550 63
fri@@ 62
#trumptrain 62
chinas 62
ates@@ 62
@howardstern 62
gru@@ 62
@ml@@ 62
deck 62
ratings) 62
best: 62
Appeals 62
High@@ 62
#Dobbs 62
defined 62
notify 62
#HurricaneIrma 62
#MS13 62
repercussions 62
launched 62
Rating 62
Terrorists 62
Victory 62
#LIUB 62
Ve@@ 62
machine, 62
Ethics 62
ges@@ 62
form@@ 62
bomber 62
b4 62
OMG 62
28% 62
@FoxNews, 62
Kick 62
gart@@ 62
acknowledge 62
Cre@@ 62
#Periscope: 62
@CN@@ 62
MIN@@ 62
va: 62
edition 62
clear@@ 62
warrior 62
ctor@@ 62
bored 62
elly@@ 62
Irelands 62
Zucker 62
@USATODAY 62
que 62
@ryan@@ 62
bankrupt, 62
cowards 62
hers 62
SO@@ 62
ultra 62
Play 62
F: 62
@chi@@ 62
@TheRevAl 62
Manchester, 62
@Steven@@ 62
files 62
@Hol@@ 62
erri@@ 62
Saturdays 62
Lodge 62
JP 62
exc@@ 62
@har@@ 62
ns: 62
gd@@ 62
Fix 62
Heard 62
@Craig@@ 62
ANYTHING 62
@Char@@ 62
entertain@@ 62
favourite 62
ats: 62
tasks 62
ena 62
DA@@ 62
ROCK 62
omg 62
Cruz@@ 62
thinking, 62
MT 62
Wat@@ 62
@AllenWest 62
exhausted 62
Flying 62
insights 62
ballots 62
bby: 62
Nunn 62
Visited 62
Cancer 62
Horse 62
Scotland@@ 62
QU@@ 62
@SharkGregNorman 62
bucket 62
sthe 62
careers 62
itting 62
five@@ 62
rewarded 62
ransom 62
Kelly@@ 62
Toledo, 62
Crookeds 62
proposals 62
Daytona 62
Republicans@@ 62
unstable 62
jumped 62
apartments 62
east, 61
intel 61
tiger 61
#fakenews 61
bedminster, 61
#tbt 61
yemen 61
@traceadkins 61
bed@@ 61
MSNBC, 61
@WashingtonPost 61
pursued 61
Level 61
revitalize 61
Jennifer 61
deplorables 61
distinguished 61
recommended 61
Ceiling 61
parks 61
Guam 61
goal: 61
17% 61
State@@ 61
needs, 61
electronic 61
info, 61
Fla 61
results, 61
glorious 61
Agreement 61
skyrocketed 61
Pin@@ 61
Sol@@ 61
solution@@ 61
client 61
repeat 61
House@@ 61
ast, 61
up: 61
YEARS 61
POLL@@ 61
81 61
DVR 61
Rick@@ 61
Gold@@ 61
min 61
FULL 61
Sw@@ 61
Att@@ 61
@She@@ 61
report@@ 61
12pm 61
Mario 61
pos@@ 61
Ren@@ 61
TRUMP2016 61
spell 61
Personally, 61
Hen@@ 61
ot: 61
89: 61
disa@@ 61
31@@ 61
therefore, 61
YS 61
outing 61
Hal@@ 61
ky: 61
license 61
Boo@@ 61
needless 61
ds@@ 61
NICE 61
Smith@@ 61
Announce 61
@PGATOUR 61
@mon@@ 61
@te@@ 61
net@@ 61
architecture 61
Fra@@ 61
instincts, 61
@Glenn@@ 61
beheading 61
there@@ 61
Damon 61
icks 61
acy@@ 61
pig@@ 61
@Ram@@ 61
fire@@ 61
so: 61
Has@@ 61
motto 61
2022 61
this@@ 61
awkward 61
LEADERSHIP 61
transformed 61
importing 61
Pla@@ 61
@gretawire: 61
of) 61
Arsenio 61
Parents 61
tonight@@ 61
2010, 61
road@@ 61
MI 61
SEAL 61
conclude 61
poor, 61
ards 61
Dallas, 61
occasions 61
Florida@@ 61
@Follow@@ 61
dumped 61
recall 61
ities, 61
@RSPBScotland 61
revealing 61
douglas 60
roy 60
hillary, 60
xi 60
tas 60
dr 60
september 60
senators, 60
nie 60
#gopdebate 60
@bretbaier 60
street, 60
(D 60
communicate 60
(Crooked 60
28, 60
TRILLIONS 60
grief 60
1/20 60
inaugurated 60
17,500 60
12/21, 60
1,900 60
@jamiejmcintyre 60
Rescue 60
bogus 60
cherished 60
Mandate, 60
emails) 60
DOW 60
DuPont, 60
occurred 60
AllTime 60
TAPE 60
gathered 60
Immigration, 60
ROY 60
written, 60
separated 60
TRUSTED 60
Life, 60
Guns 60
PEARL 60
preparation 60
monuments 60
Pro 60
ered 60
lawful 60
@SenOrrinHatch 60
SEEN 60
PUT 60
COMMUNITIES, 60
practitioners 60
Investigate 60
Comcast 60
sentiment 60
Networks, 60
cowardly 60
Recep 60
Tayyip 60
EVER, 60
(MaraLago) 60
LaVar, 60
shoplifting 60
anemic 60
obstructionists 60
UCLA 60
(jobs) 60
#PearlHarbor 60
@USSArizona 60
Sutherland 60
50s 60
mtgs 60
#ASEANSummit 60
RELATED 60
bonds 60
greet 60
STRONGER 60
Assembly 60
Brazile 60
UNITY 60
(we 60
onceinageneration 60
amid 60
Alexis 60
Tsipras 60
GROW 60
FEMA, 60
Harrisburg, 60
awarding 60
OT 60
fiction, 60
Penguins 60
mike, 60
discusses 60
NATION, 60
upward 60
reconciliation 60
Roy, 60
Paul, 60
Petro 60
Poroshenko 60
height 60
specificbut 60
stupidly, 60
proactive 60
Hurry 60
restore, 60
recover, 60
doings 60
strengthens 60
HONOR 60
@USMC 60
Yuma 60
Yuma, 60
Clapper, 60
famously 60
(somber), 60
#ALConv2017 60
Improvement 60
@SecShulkin 60
souls 60
Myer, 60
heal, 60
heel, 60
Ken 60
vulnerable 60
#PurpleHeartDayI 60
pick, 60
jobs,border 60
LEAKS 60
priced 60
Toyota 60
18,000 60
MAGA 60
BAILOUTS 60
1st, 60
Billions 60
obstruct, 60
tournament, 60
dedicated 60
open, 60
mus@@ 60
West, 60
#POTUSinPoland 60
blood, 60
poured 60
soul, 60
cold, 60
Handel 60
#VoteKarenHandel 60
Russians, 60
proof, 60
Ambassadors 60
Trip 60
Colombia 60
Yates, 60
Trump/Russia 60
Teacher 60
@FLOTUS, 60
Ossoff 60
decides 60
Car 60
Kyle 60
MESS 60
(failing 60
@TheBig_Easy, 60
Els, 60
F35 60
INNOVATION 60
halt 60
indeed, 60
string 60
Bikers 60
Considering 60
supposedly 60
270 60
schedule, 60
keychain 60
checks, 60
$15 60
6:30 60
Tough: 60
deal: 60
bury 60
@ralphreed 60
FF@@ 60
manu@@ 60
One, 60
export 60
ble, 60
Dad, 60
Jets 60
cancelling 60
deport 60
@kelly@@ 60
WORSE 60
TERRORISM 60
(Eastern) 60
bin@@ 60
@NewDay 60
gain@@ 60
Boy 60
WINS 60
sites 60
Reasons 60
09 60
#truth 60
ina: 60
@BB@@ 60
waving 60
tar@@ 60
@Angel@@ 60
1975: 60
@laurencristmann: 60
jokes 60
11AM 60
taining 60
bull 60
@robert@@ 60
female 60
vision, 60
lear@@ 60
Dar@@ 60
photo@@ 60
core, 60
JF@@ 60
iled 60
c_@@ 60
mail 60
@Chad@@ 60
@jimlibertarian 60
211: 60
17th 60
ty: 60
Land 60
contr@@ 60
@andre@@ 60
adult 60
U: 60
get, 60
crow@@ 60
punished 60
RES 60
andy: 60
Ike 60
@im@@ 60
@Jess@@ 60
Business@@ 60
@MrInsaf: 60
Fact@@ 60
relevant 60
course@@ 60
_W@@ 60
@JollyGoodman181: 60
SA@@ 60
MES@@ 60
DU@@ 60
@meltsch: 60
Who@@ 60
@persdevquotes: 60
@sintianiej: 60
folk 60
STUPID 60
SOUTH 60
CAROLINA 60
@David_Bossie 60
@JL@@ 60
arrogance 60
@AP: 60
substance 60
decision, 60
drinking 60
Taliban, 60
Neither 60
#Good@@ 60
Point, 60
ONE@@ 60
itions 60
WORLDS 60
#CPAC 60
coffee 60
Receiving 60
introduced 60
@realDBP: 60
lead@@ 60
@ShortCakesSheep: 60
Duke 60
gate 60
GC@@ 60
@Jan@@ 60
@Chris_@@ 60
kr@@ 60
actor 60
clout 60
forprez 60
greens 60
practical 60
@mooovin_on 60
performing 60
Stunning 60
@vic@@ 60
ure, 60
@TheRealZach49: 60
#Election@@ 60
@RowleyRhonda: 60
after@@ 60
@kerrygold1914 60
a,@@ 60
82 60
chase 60
Families 60
AC 60
image 60
panoramic 60
@vi@@ 60
planet, 60
mogul 60
tions 60
But@@ 60
heels 60
blaming 60
bound 60
groundbreaking 60
floating 60
Constitutional 60
@usopengolf 60
intelligence, 60
motions 60
born, 60
relative 60
ven: 60
ire, 60
stability 60
regional 60
tain 60
Melanias 60
Flint 60
flipping 60
tarmac 60
comments, 60
fawning 60
produc@@ 60
set, 60
scare 60
Appreciate 60
cooked 60
#NewYorkValues 60
stop@@ 60
negotiate, 60
potatoes 60
stupidity, 60
William 60
dirt 60
migrants 60
offset 60
Bird 60
crack 60
defensive 60
perpetrated 60
230 60
minerals 60
pilots 60
crowdfunding 60
Patton, 60
asked, 60
assignment 60
nightclub 60
coal@@ 60
insulting 60
new, 60
offer, 60
necessary, 60
running, 60
dilapidated 60
overseas, 60
messenger, 60
cetera 60
highways 60
incredible, 60
Yet, 60
Wealthy 60
journey, 60
agents, 60
abolishing 60
acy, 60
intend 60
networks, 60
oneway 60
somebody, 60
anybody, 60
cards, 60
devaluations 60
theyre, 60
NATO, 60
certainly, 60
provisions 60
everybodys 60
Mosul, 60
Assad, 60
order, 60
seven, 60
win; 60
televisions, 60
twoway 60
55% 60
against, 60
Francisco, 60
Services 60
hospitals, 60
five, 60
marginalize 60
half, 60
ramp 60
excavators 60
Applause 60
cookie 60
lesbian 60
radicalization 60
mosques 60
ethanol 60
$350,000 60
somebodys 60
60,000 60
Snake 60
anyways, 60
$45 60
plateau 60
dirty, 60
colonel 60
jihad 60
complicate 60
washer 60
Genesco 60
fbomb 60
nascar 60
remembrance 59
louisiana 59
nn 59
@vanityfair 59
@amspec 59
tahmooressi 59
wil@@ 59
l, 59
Records 59
pushes 59
Dustin 59
Guantanamo 59
agreed, 59
darkest 59
INSPIRE 59
Shel@@ 59
Ds 59
virtue 59
artist 59
raising, 59
RI@@ 59
Th 59
Louisville, 59
Walmart 59
fictitious 59
Hab@@ 59
thinker 59
assistant 59
pres@@ 59
milit@@ 59
$30@@ 59
Rebels 59
lers 59
EST, 59
Jewelry 59
Gowdy 59
CHAN@@ 59
deport@@ 59
@Jacob@@ 59
VIDEO: 59
48: 59
CANDIDATE 59
Correct 59
TALK 59
Eli@@ 59
helicopter 59
Eight 59
MB@@ 59
pper: 59
marketing 59
Shameful 59
Sing@@ 59
GOP, 59
dire@@ 59
Tops 59
CAMPAIGN 59
@ri@@ 59
spar@@ 59
Got@@ 59
os: 59
@mid@@ 59
Alert 59
relentless 59
younger 59
applies 59
ills 59
Including 59
Read@@ 59
kie@@ 59
beg 59
tournaments 59
gn@@ 59
ys@@ 59
Group 59
79@@ 59
Man: 59
Ku@@ 59
@gh@@ 59
manufacturer 59
stam@@ 59
id: 59
medicine 59
ctions 59
fix@@ 59
@HGswiney: 59
@Antonio_Annesi: 59
sty@@ 59
SPEAK 59
own, 59
threat, 59
low: 59
MONSTER 59
@TN@@ 59
ak: 59
Romney@@ 59
heart, 59
@Cool@@ 59
get@@ 59
start@@ 59
ass, 59
retribution 59
Headed 59
Lauderdale 59
canned 59
sl@@ 59
Sidney 59
Bay, 59
ridicul@@ 59
Designed 59
Colle@@ 59
saluting 59
targets 59
accomplishments, 59
@chicagotribune 59
sections 59
nt, 59
quot@@ 59
@NBA 59
homework 59
Natalie 59
@Rusty@@ 59
perfectly 59
uphold 59
illegally, 59
bankrupt@@ 59
unions 59
bomb@@ 59
itor 59
Dopey, 59
itthey 59
fantasy 59
manipulation, 59
dumb@@ 59
trips 59
fantastically 59
#FundAnything 59
@GoAngelo 59
$7,000 59
disappe@@ 59
pastors 59
Beada 59
sergeant 58
uranium 58
robert 58
franklin 58
b, 58
magazine, 58
diamond 58
ain 58
Caught 58
railways 58
PRIDE 58
Inlet 58
Station, 58
Riviera 58
Traffic 58
DEALS, 58
Collusion 58
Vetting 58
@TheLeeGreenwood 58
mann 58
all) 58
@NBCNews, 58
HEALTHCARE 58
Vegas@@ 58
Tillerson, 58
Food 58
deceived 58
Yard 58
earthquake 58
greater, 58
Governments 58
Proclamation, 58
nytimes, 58
Movement 58
VET 58
outdated 58
Lebanon 58
skipping 58
FIND 58
courtesy 58
make, 58
Server 58
watered 58
Sur@@ 58
News/Washington 58
Eyes 58
viewed 58
Kravis 58
Courts 58
conviction 58
machines 58
Reality 58
persona 58
Less 58
taxing 58
ight: 58
12PM 58
sno@@ 58
Medicare, 58
McQuaid 58
skill 58
dead@@ 58
believers 58
Graham, 58
ballroom 58
SPEECH 58
independents 58
WTC 58
@Ri@@ 58
survival 58
spade 58
747: 58
@Je@@ 58
@mitchellvii 58
choker 58
psy@@ 58
@just@@ 58
Kudos 58
boy: 58
sky@@ 58
LOL 58
world@@ 58
Loves 58
partisan 58
@kati@@ 58
mommy 58
TELL 58
7,@@ 58
@American@@ 58
nic@@ 58
@SpecialReport 58
Trump; 58
ll: 58
pur@@ 58
arm@@ 58
Mark, 58
@Luke@@ 58
Iran@@ 58
resul@@ 58
straight, 58
wh@@ 58
vation 58
ero@@ 58
56: 58
recipients 58
play, 58
ons, 58
@rod@@ 58
racists 58
surround 58
gli@@ 58
bidding 58
differen@@ 58
menu 58
qualify 58
lin 58
Greg 58
anne: 58
Wooden 58
whack 58
sands 58
Grill 58
ots, 58
@twin@@ 58
keys 58
@Queen@@ 58
KY 58
improved 58
ato: 58
RT: 58
flat 58
opportunity, 58
uk: 58
berg@@ 58
@danny@@ 58
classi@@ 58
MIS@@ 58
sex@@ 58
anta@@ 58
er1: 58
cc 58
1967: 58
Gonna 58
box@@ 58
@ste@@ 58
Dru@@ 58
inv@@ 58
sing@@ 58
carpet 58
Macys, 58
20, 58
supp@@ 58
@CahillForAG 58
cle@@ 58
idi@@ 58
_F@@ 58
stud@@ 58
PP@@ 58
switched 58
sensational 58
Cul@@ 58
consulate 58
structure 58
burned 58
Commander 58
tearing 58
ram@@ 58
WrestleMania 58
insur@@ 58
@Aberdeenshire 58
17, 58
Coppins 58
Dorals 58
hero@@ 58
secu@@ 58
suppress 58
outline 58
oppress 58
wallet 58
simulcast 58
5B 58
@AOL 58
Outrageous 58
singer 58
planes, 58
defender 58
wise, 58
lasted 58
Cause 58
SOD 58
@Deadspin 58
enforced 58
rushing 58
documents, 58
whatsoever 58
equipment, 58
$250,000 58
circumstance 58
dou@@ 57
bergdahl 57
dept 57
stern 57
pac 57
fivestar 57
ge, 57
#trumppence16 57
Football 57
distract 57
7%, 57
workplace 57
Ridge 57
Officer 57
} 57
renewed 57
disposed 57
vulnerabilities 57
@NYGovCuomo 57
Europes 57
colleagues 57
sinking 57
FNC 57
runners 57
Ballistic 57
Missile 57
Parker 57
madman 57
sights 57
Relief 57
Adam@@ 57
Strategy 57
45%, 57
24/7 57
vehemently 57
#ICYMI, 57
Joe, 57
slam 57
#NATO 57
servicemen 57
trafficking 57
@SenatorSessions 57
Hear 57
Ten 57
escape 57
56th 57
surgery 57
respectfully 57
unfriendly 57
clothing 57
organizer 57
Red@@ 57
@CharlesHurt 57
@JodiL792: 57
@JohnKasich 57
Blo@@ 57
perfection 57
pop 57
YES, 57
Lam@@ 57
Tu@@ 57
Candidate 57
777 57
Buzz 57
Wall@@ 57
DEAD 57
58: 57
humor 57
36% 57
event@@ 57
@jimmy@@ 57
Gr@@ 57
@Frank@@ 57
Atlanta, 57
Times: 57
OL 57
rep@@ 57
Zogby 57
fast@@ 57
5%, 57
vich: 57
participate 57
haul 57
tho 57
Club@@ 57
File 57
@Young@@ 57
Hyatt 57
Hy@@ 57
rus@@ 57
amaz@@ 57
83@@ 57
@ag@@ 57
Jones@@ 57
etz@@ 57
RN@@ 57
Illegals 57
ONES 57
admirable 57
far) 57
500: 57
regardless 57
Rod@@ 57
bot@@ 57
wiseguy 57
di: 57
come, 57
National, 57
RICH 57
@El@@ 57
rooms, 57
Dun@@ 57
Run, 57
Jour@@ 57
Pr@@ 57
experiences 57
98: 57
@hillarysusans 57
theirs 57
ro: 57
meister 57
@RealPro4Real 57
Liar 57
@Brad@@ 57
champion, 57
ess, 57
Bowe 57
Fun@@ 57
@nick_@@ 57
rell 57
Mexico@@ 57
broadcasts 57
illo@@ 57
GU@@ 57
E, 57
ei@@ 57
resolutions 57
#Donald 57
maj@@ 57
ago: 57
96: 57
Citys 57
residential 57
beth@@ 57
@SenScottBrown 57
deciding 57
torn 57
port 57
Taj 57
Mumbai 57
level, 57
Lucky 57
Finalizes 57
#USOpen 57
gy 57
Orleans 57
lobby 57
sat@@ 57
kers@@ 57
reality, 57
@Austin@@ 57
producer 57
Rod 57
waters 57
reveal 57
6,000 57
extort 57
primary, 57
loans, 57
disarm 57
aim 57
96 57
realizes 57
promoted 57
000 57
industry, 57
Sex@@ 57
label 57
daddy 57
deliber@@ 57
outsmarted 57
apology, 57
ade, 57
attacks, 57
regulate 57
governor, 57
cruisers 57
Queens, 57
hou@@ 56
cbs 56
tpp 56
pain 56
nato 56
ists 56
@realdonaldtrumps 56
@dmregister 56
hl@@ 56
ka 56
windows 56
ini 56
passed, 56
#TaxCutsandJobsAct 56
Lewandowski 56
highs 56
TROPHY 56
visit, 56
Deep 56
Bureau, 56
WANTS 56
unforgettable 56
implementing 56
CHAIN 56
MIGRATION 56
@SenateGOP 56
Program, 56
Hits 56
collusion, 56
TOGETHER, 56
ensuring 56
elevation 56
Johnson, 56
bailing 56
access, 56
leaps 56
fool, 56
salute 56
Rossello 56
tortured 56
Sports 56
prisoner 56
shel@@ 56
reimbursement 56
#Veterans 56
heroic 56
@ICEgov 56
protective 56
Exciting 56
modernize 56
liability 56
PATRIOT 56
USSS 56
program, 56
Whistleblower 56
Circuit 56
pointing 56
alarmed 56
neighbor, 56
engage 56
@PresidentRuvi 56
blocking 56
competition, 56
favor@@ 56
Bernies 56
instructed 56
purely 56
even, 56
mocked 56
album 56
laughter 56
qui@@ 56
istic 56
Crude 56
error 56
simplifying 56
Lawrence 56
bankrupting 56
op 56
today@@ 56
plane, 56
Fiscal 56
Virginias 56
85@@ 56
Dana 56
Poll@@ 56
Pay@@ 56
on) 56
primetime 56
AP 56
institu@@ 56
@marklevinshow: 56
LC@@ 56
masterminds 56
Bal@@ 56
@Captain@@ 56
corrected 56
With@@ 56
Hunt@@ 56
Iron 56
sharper 56
@clar@@ 56
Yorker 56
y) 56
Murray 56
lil 56
trump@@ 56
LE 56
anke@@ 56
@stra@@ 56
@Mitch@@ 56
ather@@ 56
Fla@@ 56
outta 56
ank 56
TS@@ 56
lied, 56
ind 56
rape 56
97@@ 56
vers 56
Hard@@ 56
Intelligent 56
account, 56
Servic@@ 56
attribute 56
@6@@ 56
six@@ 56
Fan@@ 56
speeches, 56
Failure 56
situated 56
#nhpolitics 56
@greg@@ 56
Inspiration 56
@TrumpVancouver 56
lac@@ 56
usa: 56
#Team@@ 56
lessly 56
@Sports@@ 56
@Maria@@ 56
@ColinSWood: 56
smo@@ 56
Golf: 56
nicest 56
stic@@ 56
@Daily@@ 56
dude 56
anie@@ 56
@SparkleAWin: 56
sle@@ 56
Buffet 56
wholl 56
Wise 56
substantial 56
Gol@@ 56
twisting 56
hall@@ 56
@pgaofamerica 56
fits 56
consultants 56
ped 56
backyard 56
@Irish@@ 56
aggression 56
JV 56
fled 56
@Aar@@ 56
democr@@ 56
San@@ 56
Eastern 56
@brad@@ 56
Danny@@ 56
Jupiter 56
roll@@ 56
sharks 56
systems 56
going@@ 56
hab@@ 56
Sheep 56
theater 56
charges, 56
#ObamaCare 56
copying 56
Joey 56
dom 56
Wireless 56
live, 56
raised, 56
paid, 56
environmentally 56
advisors 56
Hugo 56
1991 56
room@@ 56
move@@ 56
spree 56
husbands 56
handful 56
futures 56
counter 56
short, 56
competed 56
modest 56
conditioner 56
roadways 56
iranian 55
administrations 55
wwe 55
#c@@ 55
ann 55
transpacific 55
captain 55
charlotte 55
dor@@ 55
africanamerican 55
STR@@ 55
higher, 55
catcher 55
breakthrough 55
Jeffress 55
22,000 55
SG 55
#T@@ 55
Andrews 55
WEST 55
meeting, 55
Francis 55
counsel 55
Sisi 55
Orders 55
dwindling 55
HEART 55
Sound 55
Murdoch 55
Race 55
Independence 55
ruins 55
21% 55
overtake 55
stagnant 55
spur 55
linked 55
skilled 55
res@@ 55
Deb@@ 55
ky 55
Team@@ 55
older 55
@Ari@@ 55
@GlennBeck 55
@George@@ 55
Kellys 55
ina 55
PRIMARY 55
pieces 55
79: 55
Conservatives, 55
dummy, 55
200,000 55
o1: 55
ump@@ 55
Timing 55
crashed 55
moderators 55
refle@@ 55
Springfield, 55
@Mr_@@ 55
Johnson@@ 55
anks 55
3r@@ 55
@T_@@ 55
@ChrisChristie 55
wor@@ 55
Frank@@ 55
Jud@@ 55
316: 55
awesome, 55
@Lisa_@@ 55
HEAD@@ 55
RINOs 55
ffin 55
truth@@ 55
loudly 55
yl@@ 55
neighborhood 55
Mat@@ 55
Growth, 55
sare@@ 55
@jes@@ 55
Times@@ 55
ant: 55
@gene70: 55
ness, 55
#TrumpFor@@ 55
luck@@ 55
helpless 55
Yea, 55
sisters 55
ades 55
Gal@@ 55
audio 55
ust 55
@JordanSpieth 55
Matthews 55
regret 55
ong 55
eve@@ 55
trustworthy 55
delivery 55
hope, 55
iff@@ 55
ls 55
variety 55
drunk 55
Ok 55
ole@@ 55
operate 55
protection, 55
mens 55
Leg@@ 55
ower@@ 55
ud: 55
precisely 55
Walkers 55
hear, 55
Ja@@ 55
Colts 55
DD@@ 55
@mb@@ 55
@Jose@@ 55
jumping 55
presidents, 55
@TheEconomicClub 55
Church 55
fav@@ 55
ok@@ 55
shor@@ 55
Apply 55
suppose 55
fashioned 55
dislikes 55
@mike_@@ 55
automatically 55
83 55
Van@@ 55
@BenTrolling: 55
est, 55
@meenah83: 55
SHOWS 55
THINGS 55
Buffett, 55
proponent 55
Waikiki 55
demographic 55
charity, 55
Presidency, 55
pause 55
ure@@ 55
11/8/2016 55
victims, 55
#GOPConvention 55
Star, 55
100k 55
#VoteTrumpNV 55
grades 55
subsidizing 55
behold, 55
canceled 55
Coke 55
Scary@@ 55
espe@@ 55
trials 55
accounting 55
output 55
powered 55
subscribe 55
2000, 55
Zuker 55
Rebuild 55
asylum 55
deduction 55
Katherine 55
unleashing 55
motorcycle 55
iran, 54
harbor 54
dallas 54
airlines 54
@red@@ 54
swe@@ 54
hunt@@ 54
@danscavino 54
#america 54
fred 54
collection, 54
Drilling 54
ism@@ 54
Legislative 54
Scalise, 54
everyday, 54
F16s 54
imposed 54
troop 54
NBA 54
winding 54
nominating 54
outand 54
Capital 54
Effective 54
SecretaryGeneral 54
technical 54
cos 54
pes 54
FAMILIES 54
#StandForOurAnthem 54
Repealing 54
Replacing 54
Indias 54
storms 54
Spending 54
exonerated 54
rainfall 54
Spirit 54
Transcript: 54
Condolences 54
@narendramodi 54
renovate 54
posed 54
Penn, 54
anywhere, 54
MIGHT 54
#USSGeraldRFord 54
#BastilleDay 54
agriculture 54
#NoSanctuaryForCriminalsAct 54
Bills, 54
election) 54
Strengthening 54
bleached 54
WITCH 54
HUNT 54
Yesterdays 54
Climate 54
products, 54
responses 54
Advisory 54
early, 54
approves 54
(on 54
fo 54
tapped 54
77% 54
detained 54
reductions 54
Surges 54
bids 54
Deserve 54
Elect 54
habitual 54
considers 54
disrespectful 54
Bidens 54
simplify 54
ppers 54
diplomacy 54
@BarackObama: 54
bailed 54
lef@@ 54
steals 54
Rus@@ 54
@andy@@ 54
sovereignty 54
Blitzer 54
pizza 54
Plan@@ 54
CAP 54
Rules 54
Kudlow 54
bully 54
Bluffs, 54
gone@@ 54
lot@@ 54
Using 54
staged 54
Suppor@@ 54
lou@@ 54
pmE 54
03: 54
Liberty: 54
columnist 54
Sab@@ 54
sky: 54
Liber@@ 54
frightening 54
repor@@ 54
bad@@ 54
resonate 54
Premiums 54
Saying 54
ots: 54
More@@ 54
purpose, 54
Girl: 54
@realOllieTaylor: 54
Tower@@ 54
ope 54
@StrengthenTheUS 54
GOP@@ 54
Hit 54
@as@@ 54
How@@ 54
@ChuckTodd 54
@MarkSteynOnline 54
Ni@@ 54
bash 54
@lin@@ 54
cess@@ 54
antic@@ 54
ake 54
sm 54
@lady@@ 54
partial 54
ws 54
invasion 54
@billy@@ 54
@Zachary@@ 54
preference 54
Will@@ 54
bles 54
targeting 54
As@@ 54
WAKE 54
Trumped 54
#GotMyVote 54
@JP@@ 54
crush 54
Thomas@@ 54
pumped 54
oney@@ 54
section 54
dar@@ 54
izz@@ 54
Clu@@ 54
Issues 54
Sil@@ 54
persecution 54
apparently 54
cing 54
rug@@ 54
hubby 54
@pe@@ 54
CS@@ 54
Gru@@ 54
exhausted, 54
Swe@@ 54
fd@@ 54
anj@@ 54
Independents 54
President: 54
io 54
dearly 54
Favorite 54
King: 54
@anthonyjmyers: 54
touching 54
Took 54
nish 54
violently 54
striking 54
must@@ 54
ener@@ 54
@joel@@ 54
sad@@ 54
Pascal 54
as, 54
fro@@ 54
ately, 54
pledges 54
Ris@@ 54
limitations 54
drill 54
Conrad 54
@MikeBloomberg 54
@tri@@ 54
seven@@ 54
staffers 54
courses, 54
payment 54
Mid@@ 54
70: 54
sis 54
Wasting 54
tourist 54
@caleb2207: 54
suffers 54
Nasty 54
@SamJabbo 54
retiring 54
@Gfeorg: 54
healthcare, 54
enacted 54
sive, 54
19th 54
pm: 54
Robertson 54
Interest 54
@TedCruz 54
als@@ 54
flam@@ 54
ther, 54
$5,600,000 54
@NeilTurner_: 54
University, 54
speaking, 54
Belichick 54
finishing 54
Bye 54
manufacture 54
Chinese, 54
tests 54
aspire 54
Lol 54
@tdudz5: 54
setup 54
tattoo 54
harder, 54
plaque 54
overstays 54
nurses 54
auctioned 54
europe 53
msm 53
phoenix 53
wednesday 53
youtube 53
institute 53
@omarosa 53
@rnc 53
System 53
rage 53
Latest 53
1941 53
Economists 53
someones 53
naive 53
Diane 53
tot@@ 53
Ele@@ 53
Asked 53
special, 53
fury 53
officer 53
HER 53
stormed 53
Jackson, 53
lakes 53
organized 53
Industry 53
EU 53
100th 53
BEFORE 53
Enter 53
monetary 53
vibrant 53
improving 53
mentality 53
lays 53
dime 53
replacing 53
pressuring 53
antly 53
raving 53
pers@@ 53
sac@@ 53
UP@@ 53
75 53
@DonaldTrump@@ 53
RE, 53
Magazines 53
preach 53
@KatyTurNBC 53
@Deb@@ 53
@Pat@@ 53
TE 53
ozz@@ 53
relev@@ 53
trap 53
Den@@ 53
VISION 53
Street@@ 53
@Sandra@@ 53
26% 53
@nor@@ 53
@Henry@@ 53
Clear@@ 53
soooo 53
Readers 53
rek@@ 53
ali: 53
rebroadcast 53
weak, 53
ling: 53
@Angie@@ 53
@jenn@@ 53
Voice 53
atic@@ 53
CON@@ 53
mr@@ 53
2%, 53
ching 53
OReilly, 53
fans, 53
Aw@@ 53
rt@@ 53
Bol@@ 53
dered 53
microphone 53
@jan@@ 53
Thurs 53
@lucas@@ 53
@DennisRodman 53
coating 53
Parade 53
57: 53
Sav@@ 53
parent@@ 53
ose 53
Bishop 53
Sel@@ 53
pair 53
@tra@@ 53
ITE 53
@STL_Blonde: 53
Case 53
250 53
NYS 53
induc@@ 53
ster: 53
build, 53
anda@@ 53
Bridge@@ 53
@GolfweekMag 53
cool@@ 53
travelling 53
@MrMet41: 53
Gam@@ 53
how@@ 53
SOON 53
@WeLoveTheDonald 53
straight@@ 53
HOF 53
enny@@ 53
arrow 53
#better@@ 53
@Tyler@@ 53
Greatgood 53
@ben@@ 53
complacent 53
Bon@@ 53
@sassysexylove: 53
inte@@ 53
amaze 53
smash 53
@Ms@@ 53
FR@@ 53
Expo 53
(no 53
@cool@@ 53
@samcgirl 53
2012, 53
view, 53
#yourefired 53
Foley 53
EBOLA 53
@woofeous: 53
Inc: 53
Chicagos 53
lls 53
360: 53
jailed 53
apples 53
ISH 53
@Nicole@@ 53
$5B 53
offend 53
drink 53
abusive 53
tooooo 53
ys, 53
(except 53
frequently 53
ping 53
asses 53
Fund 53
compla@@ 53
stic 53
Thinking 53
#BillsMafia 53
Understand 53
Cook 53
@TheEllenShow 53
plastic 53
ving, 53
mer, 53
Independents, 53
Tiffany, 53
@MELANIATRUMP, 53
Randy 53
who, 53
NEVADA 53
ling@@ 53
@deesnider 53
etc@@ 53
yearly 53
level@@ 53
ugly, 53
market, 53
construction, 53
relatively 53
onz@@ 53
spying 53
$40 53
DonaldJTrump 53
firefighters 53
@Boeing 53
Dateline 53
inclusive 53
affiliated 53
schumer 52
ston 52
iowa, 52
orlando 52
mot@@ 52
amy 52
@trumplasvegas 52
pal@@ 52
wayne 52
moines 52
@60minutes 52
election@@ 52
center, 52
@joan_rivers 52
@msvivicafox 52
ward 52
pan 52
Yale 52
unexpected 52
responsible, 52
allegiance 52
bashing 52
crackdown 52
Franklin, 52
#OpioidEpidemic 52
News) 52
approvals 52
appreciation 52
miracle 52
#TeamScalise 52
Deductibles 52
legislation, 52
Merck 52
July, 52
Crowds 52
Rust 52
instrumental 52
Purposely 52
loyal, 52
flawed 52
ME, 52
plans, 52
aimed 52
DISHONEST 52
#MarchForLife 52
Inauguration 52
Fiat 52
Britain, 52
JANUARY 52
oun@@ 52
Cain 52
repa@@ 52
Boehner 52
ordering 52
Brotherhood, 52
Catch 52
begin@@ 52
andre@@ 52
cti@@ 52
wit 52
Gee@@ 52
Consult 52
@rupertmurdoch 52
copied 52
Spencer 52
Purchase 52
inger: 52
strugg@@ 52
Jindal 52
vic@@ 52
Rumor 52
comp@@ 52
life: 52
@CarlyFiorina 52
body@@ 52
lish@@ 52
Brand@@ 52
@CBS@@ 52
al_@@ 52
se) 52
bloated 52
@HuffPost@@ 52
@Chef@@ 52
los@@ 52
@mik@@ 52
Baltimore, 52
WAIT 52
@Linda@@ 52
asking, 52
@JayR@@ 52
Law@@ 52
appro@@ 52
@tam@@ 52
@V4SA 52
#Make@@ 52
clu@@ 52
Powerful 52
dem@@ 52
hell, 52
Change@@ 52
Anti@@ 52
bag@@ 52
TRI@@ 52
Kat@@ 52
Housing 52
@AR@@ 52
@Brit@@ 52
article: 52
Robin 52
@Highlander6700 52
recipe 52
tain@@ 52
IST 52
Mari@@ 52
DL@@ 52
@dx@@ 52
@Great@@ 52
#trumpforprez 52
butt 52
FORWARD 52
Haters 52
Theodore 52
Jim@@ 52
Margaret 52
rushed 52
STE@@ 52
CU@@ 52
LET 52
selected 52
best@@ 52
ACTUALLY 52
bes@@ 52
jay@@ 52
welldeserved 52
honorable 52
berg 52
@AyrshireChamber 52
Fa@@ 52
@JaayZen: 52
booked 52
#CPAC2015 52
UT@@ 52
900 52
@Algemeiner 52
Gone 52
solving 52
@Jerry@@ 52
@Lord_Sugar@@ 52
@TimboWoods: 52
fir@@ 52
joe: 52
12/@@ 52
COMMON 52
Lar@@ 52
coat 52
Announces 52
Vancouvers 52
spi@@ 52
hometown 52
@SteveDeaceShow 52
ken@@ 52
Bla@@ 52
Davis@@ 52
@PGAChampionship 52
DAMAC 52
Bucket 52
$250 52
downs 52
despise 52
Manning 52
obnoxious 52
@kenny@@ 52
recei@@ 52
#NY@@ 52
Tyr@@ 52
@Redskins 52
tri@@ 52
Face@@ 52
Kluge 52
adults 52
@kingsthings 52
equally, 52
Tomorrows 52
unreported 52
sooooo 52
nasty, 52
extending 52
taunt 52
deficits, 52
ARod@@ 52
continually 52
complaint 52
@ehasselbeck 52
@Fre@@ 52
26,000 52
Brande 52
shrinking 52
#CPAC2013 52
neighborhoods 52
missions 52
Christians, 52
upstairs 52
Caterpillars 52
council 51
jones 51
florida, 51
rep 51
abe 51
sheriff 51
illy 51
rom@@ 51
jack 51
apple 51
pga 51
@leezagibbons 51
alia 51
95% 51
confirmation 51
addiction 51
GROWTH 51
twelve 51
restraint 51
Emails, 51
import 51
merit 51
shattering 51
Lost 51
Officials 51
Exclusive 51
#StanleyCup 51
Inaugural 51
Killing 51
curse 51
@ChuckGrassley 51
3) 51
resigned 51
senseless 51
survivors 51
crossings 51
Approval 51
airline 51
Gov@@ 51
YA 51
Name 51
20K 51
poll@@ 51
talks, 51
swamped 51
worse) 51
acre 51
Brody 51
question: 51
ere 51
syste@@ 51
lords 51
Lockerbie 51
Ames 51
#NHPolitics 51
airtime 51
Black, 51
38% 51
rich: 51
@BornToBeGOP 51
dy: 51
genes 51
@Media@@ 51
@Ag@@ 51
Pat@@ 51
MUS@@ 51
rallying 51
Sean, 51
history@@ 51
piec@@ 51
Cast 51
ction 51
LD 51
TRUMP@@ 51
@Har@@ 51
PLAN 51
ony@@ 51
pal 51
Levin 51
@garyplayer 51
VT 51
inj@@ 51
Gaddafi 51
ign@@ 51
day) 51
digit 51
foul 51
player, 51
anti 51
accused 51
imagin@@ 51
ama@@ 51
sit@@ 51
Greenblatt 51
1971: 51
KING 51
AIL@@ 51
glory 51
kee@@ 51
carp@@ 51
@eb@@ 51
@fitsnews: 51
ri: 51
ODonnell, 51
@ev@@ 51
@Krist@@ 51
@Molly@@ 51
Mort 51
ford: 51
will: 51
listen, 51
progressive 51
@MELANIATRUMP: 51
@Wal@@ 51
Flashback: 51
speed 51
expecting 51
Sig@@ 51
touring 51
sB@@ 51
logical 51
Fine 51
prosecuted 51
bb: 51
% 51
sheer 51
@OwenTew: 51
@paul1994loan 51
op: 51
@MelRivers 51
BR@@ 51
ols 51
@South@@ 51
itd 51
thi@@ 51
spewing 51
Mah@@ 51
ST 51
@God@@ 51
vor@@ 51
fit@@ 51
@SAVEHICNO1: 51
cross@@ 51
et: 51
@mileswynn3 51
i_@@ 51
Osc@@ 51
Inve@@ 51
Sending 51
#IceBucketChallenge 51
Chal@@ 51
weakened 51
Make@@ 51
Costa 51
age: 51
announcers 51
(if 51
miller@@ 51
vy 51
@eminofficial 51
Carol@@ 51
overruns 51
outcomes 51
JOIN 51
scandal, 51
IRAN 51
deplorable 51
ch, 51
#MakeAmericaSafeAgain 51
recognition 51
75% 51
lowlifes 51
dummy@@ 51
buil@@ 51
Seals 51
Girardi 51
scrutiny 51
forgetting 51
1,200 51
Michele 51
Emil@@ 51
discount 51
subject, 51
governed 51
commissioner 50
japan, 50
bedminster 50
pot@@ 50
ffs 50
miss@@ 50
@peter@@ 50
walker 50
#asktrump 50
angeles 50
jeter 50
rev 50
stein@@ 50
lance 50
Thursdays 50
beside 50
DOSSIER 50
Quantico, 50
UNDER 50
Putting 50
highlights 50
Ungrateful 50
harassment 50
Yokota 50
PENALTY 50
DEMS 50
commonly 50
compliance 50
drafted 50
Indianapolis, 50
HCare 50
Edwards 50
authorizes 50
directed 50
Pharma 50
PRICES 50
bombers 50
spouses 50
dangerous, 50
Hamburg 50
Mika 50
Numerous 50
DANGEROUS 50
Gave 50
Yates 50
Ninth 50
SURVEILLANCE 50
ig 50
LOW 50
crafted 50
buildup 50
document 50
COMPLETE 50
plant, 50
Beck@@ 50
DC, 50
2pm 50
advis@@ 50
dom@@ 50
manipulated 50
ery 50
ms@@ 50
straw 50
Ob@@ 50
ac 50
ould@@ 50
pissed 50
@SC@@ 50
food@@ 50
ort@@ 50
cts 50
mary@@ 50
@USA@@ 50
eless 50
Gee, 50
add@@ 50
graph@@ 50
12:00 50
Rene@@ 50
augh@@ 50
BEEN 50
Lehman 50
ada@@ 50
Pos@@ 50
factual 50
Posts 50
Nav@@ 50
103@@ 50
recount 50
Op@@ 50
lian@@ 50
@HL3tweets: 50
summary 50
tuition 50
#Your@@ 50
Diller 50
HOW 50
10AM 50
scum 50
@ChrisCuomo 50
@colbertlateshow 50
Ties 50
nation@@ 50
intelligently 50
wished 50
ye: 50
ure: 50
athle@@ 50
@bdean1468 50
CL@@ 50
plu@@ 50
cat 50
SIGN 50
Alive@@ 50
il: 50
reduces 50
Chapo 50
AGREE 50
yy@@ 50
bowing 50
Collins 50
45: 50
@NYDailyNews, 50
Sham@@ 50
dol@@ 50
Completely 50
betray 50
#TRUMP@@ 50
azz@@ 50
@pat@@ 50
Mister 50
@PGAGrandSlam 50
aff@@ 50
furniture 50
@RockinJoe1 50
Hil@@ 50
Chi 50
atory 50
@Magic@@ 50
uck@@ 50
Ts 50
bland 50
@Ha@@ 50
Close 50
RE 50
#Doral 50
EPIC 50
Cent@@ 50
@catham11: 50
ticking 50
dressed 50
hood 50
@ThomasARoberts 50
@Christ@@ 50
pat@@ 50
Lea@@ 50
nastiest 50
@MMayer87 50
alone@@ 50
banning 50
Africans 50
Loeb 50
Recently 50
Doctors 50
GOTV 50
CA@@ 50
@McIlroyRory 50
JO@@ 50
wont, 50
iling 50
Doctor 50
Tha@@ 50
@star@@ 50
filmed 50
quality, 50
honesty, 50
effort, 50
remembers 50
National@@ 50
branding 50
special@@ 50
ouch@@ 50
bathrooms 50
oth@@ 50
rumor 50
Atrium 50
Yankee 50
@si@@ 50
ental 50
Cox 50
sele@@ 50
3pm: 50
Landing 50
vetted 50
cies 50
part, 50
quitting 50
physical 50
lic@@ 50
couldve 50
airplane, 50
intimidate 50
Virgil 50
hadnt 50
AM, 50
Carters 50
ven 50
owners, 50
Whitney 50
counter@@ 50
repeated 50
organization, 50
@anthonyweiner 50
finan@@ 50
@Omarosa 50
Ballroom 50
fighting, 50
bill, 49
beach, 49
vietnam 49
tennessee 49
arab 49
germany 49
july 49
hispanic 49
pat 49
scottish 49
cup 49
@stephen@@ 49
@thereal@@ 49
hourly 49
messages 49
Elephants 49
INCREASE 49
starts, 49
commend 49
matt@@ 49
Mothers 49
Event 49
Parks 49
chin 49
72% 49
IMPORTANT 49
moder@@ 49
Gaza 49
misrepresented 49
benefiting 49
Further 49
holder 49
defy 49
@tw@@ 49
@Carl@@ 49
berg: 49
@loudobbsnews 49
Ab@@ 49
@amazon 49
@Carolde 49
Wonder 49
essi@@ 49
Ann@@ 49
thu@@ 49
objective 49
Pastors 49
serv@@ 49
@char@@ 49
jl@@ 49
@WayneDupreeShow: 49
@mk@@ 49
managers 49
salvage 49
7am 49
Honolulu 49
lov@@ 49
neighbors 49
Supporters 49
unveil 49
Idaho 49
powerhouse 49
Online 49
@TheNewsClub_US: 49
#RT 49
#HBO 49
WANT 49
unqualified 49
@sean@@ 49
survey 49
AL: 49
Jeb@@ 49
sla@@ 49
@BernieSanders 49
a) 49
@JD@@ 49
@bdean1468: 49
vi: 49
atch@@ 49
@sw@@ 49
particularly 49
POLITICIANS 49
enu@@ 49
@sweet@@ 49
trad@@ 49
transform 49
2) 49
@kat@@ 49
golf: 49
unprofessional 49
Debates 49
Guide 49
Spanish 49
BUS@@ 49
gunned 49
NH@@ 49
remind 49
100: 49
Grand@@ 49
VICTORY 49
figh@@ 49
ol: 49
controlling 49
pretends 49
Keynote 49
overrated, 49
FIRE 49
tre@@ 49
87@@ 49
stimulating 49
Weak@@ 49
@chuck@@ 49
divide 49
@cal@@ 49
accepting 49
Waldorf 49
@Biz@@ 49
Pan@@ 49
ose@@ 49
COU@@ 49
OPO 49
ia: 49
luckier 49
recap 49
ito@@ 49
#b@@ 49
kett@@ 49
Woo@@ 49
ado 49
dev@@ 49
will@@ 49
@LeezaGibbons: 49
jan@@ 49
Jen@@ 49
ough 49
screens 49
Otherwise, 49
Skating 49
Vincent 49
school@@ 49
@Ab@@ 49
Bry@@ 49
@man@@ 49
foresight 49
havnt 49
Holly 49
Buffalo, 49
Know@@ 49
Briarcliff 49
@boonepickens 49
@Todd@@ 49
ella 49
Tiger, 49
Fracking 49
surely 49
aks 49
Welch 49
Rahm 49
heaven 49
Jer@@ 49
ugliest 49
fer 49
manager, 49
5/@@ 49
wipe 49
ou 49
overdue 49
red: 49
Killer 49
oma@@ 49
field@@ 49
h, 49
devote 49
fron@@ 49
ENCE 49
EARLY 49
reclaim 49
undecided 49
Cory 49
misconduct 49
Americanism 49
Joel 49
regul@@ 49
Maryland, 49
principle 49
Raising 49
anticipation 49
ingh@@ 49
mayoral 49
petition 49
70,000 49
reviewed 49
bank@@ 49
1849 49
fragrance, 49
Egyptian 49
@Bayojay: 49
diet 49
mugging 49
outlined 49
eighth 49
However, 49
ko 48
pearl 48
korea, 48
erry@@ 48
@foxbusiness 48
espn 48
coalition 48
rosie 48
tim 48
toronto 48
muslims 48
ray 48
paul@@ 48
macarthur 48
armstrong 48
irs 48
di 48
FOUR 48
@WhiteHouse, 48
overhaul 48
Hill, 48
despair 48
@GOPLeader, 48
GEN@@ 48
13% 48
GI@@ 48
plunged 48
fueled 48
Metropolitan 48
Proclamation: 48
Continue 48
unfunded 48
meritbased 48
Cryin 48
impe@@ 48
hoax, 48
#NABTU2017 48
Panel 48
(prior 48
notice, 48
@DavidMuir 48
swearingin 48
Rupert 48
Jane 48
Jackie 48
700 48
NBC: 48
oil@@ 48
Strait 48
resident 48
$17 48
Apprent@@ 48
TEA 48
Jose, 48
make@@ 48
#Miss@@ 48
@William@@ 48
POLL: 48
@2timeslucky: 48
@marthamaccallum 48
Pol@@ 48
uck 48
ey: 48
prom@@ 48
ler: 48
ced@@ 48
ali 48
@Barbara@@ 48
@laur@@ 48
pick@@ 48
thousands, 48
@dp@@ 48
accidentally 48
USA@@ 48
#N@@ 48
41: 48
questioned 48
bels 48
Carl@@ 48
ounded 48
art: 48
rec@@ 48
main@@ 48
@Kyle@@ 48
Sends 48
Ironic 48
extract 48
t) 48
Herschel 48
#American@@ 48
DOESNT 48
BS@@ 48
Bul@@ 48
Obama/@@ 48
@pa@@ 48
Econom@@ 48
amar@@ 48
FLASHBACK 48
ony 48
mediocre 48
#PresidentTrump 48
ER: 48
top@@ 48
Davis 48
xx: 48
cant@@ 48
@Sun@@ 48
beheaded 48
Dole 48
anne 48
@Joe_@@ 48
kick@@ 48
@go@@ 48
#donaldforpresident 48
aud@@ 48
presence 48
Em@@ 48
tracks 48
@in@@ 48
Floridas 48
ator: 48
phil@@ 48
2A 48
TAKES 48
ode@@ 48
staff, 48
ational 48
@wandacarruthers: 48
onM@@ 48
@oreillyfactor@@ 48
richest 48
teaches 48
bitter 48
arrives 48
LAND@@ 48
fave 48
MH@@ 48
@er@@ 48
FUN 48
DR@@ 48
;3 48
@Anthony@@ 48
tim@@ 48
Wearing 48
@It@@ 48
dela@@ 48
Dianne 48
@TMZ_Politics 48
mic@@ 48
@LaraLeaYunaska 48
describing 48
OS@@ 48
banned 48
writer, 48
Mogul 48
Fly@@ 48
mir@@ 48
simply, 48
Within 48
merger 48
w/a 48
reli@@ 48
precedent 48
reserve 48
Wind@@ 48
@Keith@@ 48
nold@@ 48
equals 48
Andretti 48
Fayetteville, 48
Maine, 48
Delaware 48
#TrumpRally 48
OFFICIAL 48
ising 48
revenues 48
ceiling, 48
Culpo 48
ses, 48
cartel 48
chart 48
ask@@ 48
Euro 48
wonders 48
2003 48
p, 48
@Macys@@ 48
$635M 48
@Beliefheals: 48
boats 48
globalization 48
motor 48
departing 47
moon 47
islands 47
richard 47
sessions 47
@trumpsoho 47
@george@@ 47
@cher 47
verdes 47
lombardi 47
camer@@ 47
@gi@@ 47
rating, 47
felon 47
Wallace: 47
1973 47
starving 47
TX, 47
ust@@ 47
aine@@ 47
Spain, 47
ready, 47
cer 47
Votes 47
Continues 47
protesters, 47
evils 47
communications 47
MEXICO 47
fired, 47
RALLY 47
flexibility 47
marching 47
Won@@ 47
(like 47
careless 47
@WOR710 47
Gingrich 47
Tough, 47
unreliable 47
Kiyosaki 47
Winery 47
monitor 47
$300 47
radical@@ 47
39% 47
unethical 47
@TGowdySC 47
007: 47
@sl@@ 47
Trey 47
postdebate 47
@Wayne@@ 47
backers 47
@FoxNewsInsider: 47
2012@@ 47
@Boston@@ 47
uli@@ 47
@Rockprincess818 47
DE 47
mouth, 47
YING 47
@gary@@ 47
hend@@ 47
WATCH: 47
pac@@ 47
scams 47
~@@ 47
@TheEconomist 47
negatively 47
Swa@@ 47
oper@@ 47
Brown 47
arriving 47
consultant 47
per: 47
Marcos 47
arre@@ 47
@CNN@@ 47
tive 47
@do@@ 47
awa@@ 47
itz 47
84 47
breast 47
stepping 47
nie: 47
@SenJohnMcCain 47
AMNESTY 47
ase 47
renewing 47
@ton@@ 47
unpatriotic 47
kir@@ 47
@CrainsChicago 47
Jean 47
AMA@@ 47
beholden 47
takeover 47
trademarked 47
que: 47
59: 47
Life: 47
bby@@ 47
#good@@ 47
Amer@@ 47
@liz@@ 47
bo: 47
sheet 47
primarily 47
@MiamiHerald 47
celebrated 47
eu@@ 47
#AskTheDonald 47
Jonas 47
illo: 47
@Er@@ 47
@Sh@@ 47
@2@@ 47
une@@ 47
talk@@ 47
ound 47
ounce 47
@M_@@ 47
#PresidentTrump2016 47
Pine 47
drug@@ 47
II@@ 47
CDC 47
2014, 47
bestseller 47
wind@@ 47
@espngolic 47
mock 47
character, 47
correct@@ 47
challenging 47
Age 47
@Ace@@ 47
dream, 47
disclose 47
damaged 47
@luc@@ 47
wards 47
advertisers 47
Spend 47
$13@@ 47
Ear@@ 47
gent 47
disarray 47
humiliated 47
Mosque 47
yan@@ 47
hater 47
@BravoAndy 47
Rob 47
5T 47
redistribute 47
AllStars 47
@NY_POLICE 47
draws 47
kate 46
gdp 46
wg@@ 46
proclaims 46
england 46
african 46
prayer 46
jeff@@ 46
kel 46
pper 46
stevens 46
kenya 46
yankees 46
@mittromneys 46
scope 46
2018, 46
@ShopFloorNAM 46
Code 46
Task 46
Prayers 46
NoKo 46
TRY 46
Files 46
consultation 46
Manufacturers 46
recordhigh 46
COS 46
Block 46
70th 46
evacuation 46
soon: 46
Mobile 46
Closely 46
125 46
defrauded 46
Ukrainian 46
quietly 46
INTELLIGENCE 46
@EmmanuelMacron, 46
Concert 46
promised, 46
surveillance, 46
Ps 46
Brought 46
OBSTRUCTIONISTS 46
Alu@@ 46
Order: 46
ably 46
@White@@ 46
spot@@ 46
Day: 46
Chevy 46
/gallon 46
@CNNSitRoom 46
@Israels 46
downgrade 46
elderly 46
FIN@@ 46
@Inside@@ 46
IR@@ 46
Blaze 46
Mom 46
NC: 46
@theblaze: 46
25k 46
gger 46
@politico: 46
ters@@ 46
shrink 46
Woman 46
lv@@ 46
At@@ 46
asleep 46
Burlington, 46
soft@@ 46
unwanted 46
mom: 46
Richmond, 46
gentle 46
@deb@@ 46
CBS@@ 46
#ask@@ 46
UK: 46
Sco@@ 46
GreatAgain 46
assu@@ 46
Shock 46
lion 46
ables 46
Besides, 46
@weeklystandard 46
PROUD 46
affects 46
Fran 46
freak@@ 46
07 46
ris 46
@NYC@@ 46
IMO 46
@Breitbart@@ 46
@njoh1234: 46
billionaires 46
03 46
conveniently 46
Truth@@ 46
Rand, 46
Playa 46
Gun@@ 46
36: 46
wee@@ 46
destination, 46
Royal 46
question@@ 46
@Nathan@@ 46
Ful@@ 46
succ@@ 46
das 46
ist, 46
Courses 46
@Lucky@@ 46
wives 46
classes 46
Sig 46
Besides 46
Gee 46
@Tal@@ 46
bday 46
stretch 46
@JackWitty: 46
Peale 46
@BlairKamin 46
depends 46
Jackson@@ 46
condition 46
250,000 46
3000 46
bend 46
Film 46
qualities 46
bothered 46
Ground 46
@KingdomMag 46
@maathewdavis 46
kins 46
environmentalists 46
acked 46
lookin 46
nett: 46
Sadly 46
NED 46
Anonymous 46
@10AJMcCarron 46
premiums, 46
@Martin@@ 46
batteries 46
God@@ 46
acies 46
Hamilton 46
Donny 46
620,000 46
Thunder 46
@nytdavidbrooks 46
Von 46
sil@@ 46
Sugar, 46
Scot 46
@Jeep 46
QE3, 46
doping 46
drones 46
puppy 46
ature 46
Commissions 46
diplomat 46
Spur@@ 46
that; 46
mcconnell 45
gala 45
ryan 45
broad 45
christians 45
estates 45
amen 45
pete 45
@lan@@ 45
@danamira 45
Human 45
basis, 45
Hillary) 45
told, 45
COLDEST 45
legs, 45
Campaign, 45
(Clinton 45
using, 45
DeSantis 45
OPEN 45
5000 45
POINTS 45
BIGGEST 45
ADDRESS 45
Kevin, 45
innovate, 45
evergrowing 45
good) 45
spent, 45
when, 45
retraction 45
equality, 45
could, 45
Democrat, 45
EVENING 45
foes 45
Harbor, 45
surviving 45
uniform, 45
95 45
Cutting 45
beliefs, 45
24,000 45
pipe 45
PASS 45
tha 45
Dealing 45
stadiums 45
creators 45
discredit 45
ideology 45
https 45
Rest 45
must, 45
lecturing 45
fruits 45
solve, 45
Throughout 45
sidebyside 45
Beijing, 45
IPO 45
H, 45
Bs 45
Laws 45
Champion@@ 45
Tomorrow, 45
it), 45
Priebus, 45
she, 45
getter 45
call, 45
Dillon 45
interviewed, 45
@Heritage 45
revive 45
Co 45
Southwest 45
beware 45
author, 45
Bedford, 45
racking 45
material, 45
Outside 45
complimentary 45
Maddow 45
Cowboys 45
booing 45
knees, 45
4our 45
testfired 45
haunt 45
thing) 45
challenge, 45
do) 45
conducted 45
magazines, 45
Category 45
@AmericanLegion 45
hearts, 45
Ward 45
so) 45
Publicity 45
RULE 45
unusual 45
produces 45
trail, 45
screamed 45
mission, 45
uproar 45
4K 45
Huntington 45
people) 45
fooled 45
(where 45
investigators, 45
arranged 45
mourns 45
shouldertoshoulder 45
eradicate 45
Safety, 45
notified 45
conflicted 45
FORGET 45
People, 45
Promise 45
consumers, 45
herself, 45
immediately, 45
disparaging 45
demeaning 45
232 45
Sergio 45
Trying 45
Santos 45
FM 45
frauds 45
Teachers 45
Minister, 45
Rexnord 45
inclusion 45
lasting 45
(especially 45
Condoleezza 45
trucking 45
Potus 45
roles 45
prisoners, 45
SICK 45
members, 45
bogged 45
EASY 45
shots, 45
Professional 45
arguing 45
energies 45
3,000,000 45
transferring 45
147 45
chiefs 45
infested 45
McDonald 45
#RepealObamacare 45
Claims 45
groveling 45
perhaps, 45
fools, 45
editors 45
SAW 45
scrapping 45
stages 45
knew, 45
Susterens 45
contest: 45
excerpt 45
lightwe@@ 45
accumulated 45
wrecking 45
ts: 45
tg@@ 45
moderation 45
WS 45
Hannity, 45
Record, 45
ploy 45
FoxNews 45
bom@@ 45
Marthas 45
cour@@ 45
credit, 45
CUT, 45
family@@ 45
12:35 45
ILL@@ 45
place) 45
middleclass 45
Gil@@ 45
circle 45
penchant 45
schlonged 45
lon@@ 45
CAR@@ 45
#Fox 45
spokes@@ 45
recruiting 45
@jonkarl 45
foot@@ 45
@kt@@ 45
Will, 45
HERE 45
Rove, 45
@MonicaCrowley 45
somethings 45
territory, 45
nowmakes 45
@Shelly@@ 45
328: 45
odd 45
OBAMAS 45
7:50 45
interest@@ 45
Whitehouse 45
sI 45
taylor@@ 45
Ah@@ 45
gger@@ 45
don: 45
Much, 45
OG@@ 45
@shawn@@ 45
IV@@ 45
@AB@@ 45
gging 45
@EricShawnonFox 45
Jake 45
watch@@ 45
ATING 45
4Trump: 45
LEADING 45
420: 45
WORST 45
seller 45
hd: 45
@Doug@@ 45
dust@@ 45
irresponsible 45
nur@@ 45
battle@@ 45
AU: 45
current@@ 45
SAYING 45
respected, 45
terrified 45
auditorium 45
ron: 45
@Desheay: 45
Mot@@ 45
Doubt 45
@Bane1349: 45
REALITY 45
Office@@ 45
Juli@@ 45
enforcing 45
Cap@@ 45
jaz@@ 45
2:00 45
b2@@ 45
@bk@@ 45
NH, 45
OAN 45
@juli@@ 45
chil@@ 45
Tweets 45
corn 45
git@@ 45
Clint@@ 45
LV 45
posing 45
spa@@ 45
,,,@@ 45
ght@@ 45
passes 45
ble: 45
thus 45
#Doonbeg 45
@Trump_@@ 45
last@@ 45
newsthe 45
nerve 45
ol, 45
Mack@@ 45
@bec@@ 45
@OreillyFactor 45
rip@@ 45
emb@@ 45
rown 45
@Tech@@ 45
surprised, 45
@Will@@ 45
@Lane@@ 45
Back@@ 45
leyR@@ 45
Whoa 45
exploded 45
amer@@ 45
@drew@@ 45
ite_@@ 45
ld@@ 45
poses 45
@Politi@@ 45
PRESIDENCY 45
1952: 45
displa@@ 45
@hel@@ 45
Screw 45
Thank@@ 45
registering 45
tt: 45
mour@@ 45
@MARGIE352: 45
blatantly 45
@KEEMSTARx: 45
kins: 45
One@@ 45
eas@@ 45
MOGU@@ 45
Steve, 45
resume 45
@BK@@ 45
stre@@ 45
personal@@ 45
@hufseyg: 45
101@@ 45
Lon@@ 45
AMERCIA 45
lled 45
habits 45
negotiating: 45
J_@@ 45
rick: 45
conclusion 45
@ann@@ 45
au 45
father: 45
#GDNY 45
35: 45
Patriotism 45
#DonaldTrump2016 45
@VeryOddDog 45
intended 45
personable 45
@CadillacChamp, 45
@some@@ 45
@KingJames 45
earth, 45
henry@@ 45
FORGOT 45
undo 45
@RockinJoe1: 45
BUSINESS 45
does@@ 45
@Andre@@ 45
capitalism 45
illa: 45
worker, 45
,I 45
@stephenfhayes: 45
brown@@ 45
@Doctor_Platek: 45
@JS@@ 45
dhm@@ 45
tle@@ 45
@pete@@ 45
Joseph: 45
or_@@ 45
@JamersonHayes: 45
doing; 45
energy; 45
prosperity, 45
eing 45
bragg@@ 45
commented 45
@tar@@ 45
jr: 45
triumph 45
ction, 45
LAD@@ 45
Gain 45
@TalkerNewYorker 45
brac@@ 45
@NJunger_19: 45
johnson@@ 45
mann@@ 45
AA@@ 45
@Sal@@ 45
Looked 45
liar, 45
@peterj@@ 45
runs, 45
Warhol 45
bro 45
object 45
chill 45
gladly 45
equilibrium 45
BILLION@@ 45
pitch 45
ickla@@ 45
pertains 45
farther 45
@VTDiva01: 45
success: 45
Calder@@ 45
radar 45
@BBC 45
s18: 45
Angeles, 45
Knowledge 45
@TAlcornVan: 45
inger@@ 45
AST 45
si: 45
hap@@ 45
@Gri@@ 45
Shelly 45
@Mis@@ 45
Gabriela 45
@her@@ 45
Donal 45
kins@@ 45
South@@ 45
THATS 45
You, 45
Kate, 45
maintenance 45
24th 45
@Can@@ 45
@Derrick@@ 45
@mariadomenique9: 45
dent 45
mul@@ 45
WILD 45
ingredients 45
@Lilly@@ 45
@barrman: 45
ones@@ 45
nothing@@ 45
President,@@ 45
Walt 45
Thing 45
Res 45
Hug 45
Premieres 45
Net@@ 45
saw@@ 45
@Scott__Marx: 45
@KaelaDianne97: 45
@CMILLE__: 45
ET@@ 45
@ForeverMcIn: 45
combo 45
Sydney 45
loyd@@ 45
@Im@@ 45
economically, 45
Rated 45
747@@ 45
ER, 45
Located 45
hammers 45
exec 45
ality 45
@REAL@@ 45
cel@@ 45
Scott: 45
Samuel 45
(30 45
(great 45
Isreal 45
Hagan 45
Fool 45
@ericleebow 45
@Ricolodean: 45
@ac@@ 45
oo 45
Pretend 45
havoc 45
1234: 45
plague 45
rob@@ 45
@montgomeriefdn 45
@Rock@@ 45
@MotivationIdeas: 45
@ScotlandGolf1 45
@Chaz@@ 45
barbar@@ 45
corrupted 45
@billywmerritt: 45
victorious: 45
Innovation 45
names, 45
@MikeTyson 45
presid@@ 45
RL@@ 45
Persistence 45
Destiny 45
reflected 45
Started 45
#amazing 45
ba: 45
insurer 45
manag@@ 45
Casino 45
#best@@ 45
barn 45
Ev@@ 45
@Hey@@ 45
discover 45
ber, 45
@AboutTheRock: 45
BRO@@ 45
Lucy 45
lier 45
@paranormalfact: 45
neglected 45
@keegster51: 45
Pennsylvani@@ 45
items 45
@RepLeadConf 45
(sort 45
@JoyceGoodman64 45
creative, 45
visits 45
CHAMPION 45
@IamSloany: 45
fronts, 45
@frankpro 45
Ultim@@ 45
owning 45
toss 45
itu@@ 45
Mets 45
mets 45
envisioned 45
though, 45
IO 45
@koos32 45
motivating 45
Row@@ 45
REST@@ 45
economize 45
brevity 45
rumpy 45
psychology 45
ely@@ 45
switching 45
@TheGrumpyHusky: 45
attendees 45
aptitude, 45
wealthiest 45
Cadillac@@ 45
Syracuse 45
@mckaycoppins 45
recovering 45
simple: 45
Ugandan 45
EST@@ 45
ap 45
mike: 45
assemble 45
Morales 45
Slim, 45
congratul@@ 45
@jeffzeleny 45
12:30 45
meantime 45
Riley 45
Obamacare@@ 45
#ObamacareFail 45
booths 45
Newtown, 45
widespread 45
rigging 45
peace@@ 45
ARIZONA 45
Benefactor 45
behind, 45
statistic 45
Heroin 45
fabrications 45
top, 45
conventi@@ 45
ily, 45
Raised 45
cheaters 45
incorrectly, 45
racist@@ 45
opponents, 45
raised/gave 45
Amazingly, 45
lookout 45
sickness 45
Brewer, 45
prominently 45
@Teamsters 45
Knight, 45
thrill 45
lost@@ 45
@RealSheriffJoe 45
loss, 45
Pella 45
jet@@ 45
substantive 45
seas 45
Massachusetts, 45
ration@@ 45
blasting 45
Attitude 45
sexter 45
writing, 45
boyfriend 45
kers, 45
York@@ 45
see; 45
doct@@ 45
evid@@ 45
dates 45
Afghanis 45
Falwell, 45
bility 45
des, 45
travel, 45
developers 45
downgrades 45
assets, 45
Euro, 45
iler 45
erode 45
attitude, 45
approaches 45
identity 45
commands 45
regulators 45
hour, 45
technologies 45
ideological 45
everything@@ 45
mall 45
Abedini 45
cold) 45
BEST@@ 45
#leader 45
IRS, 45
disciplined, 45
depend 45
3000: 45
frisk 45
_L@@ 45
slowly 45
Lil 45
smar@@ 45
Low@@ 45
wants, 45
abusers 45
signal 45
Building, 45
jokingly 45
LeBron 45
second@@ 45
sports, 45
nofly 45
Additionally, 45
Af@@ 45
@bluejoni 45
$13 45
@TMPLUSII: 45
responding 45
pregn@@ 45
wack 45
assume, 45
adopt 45
Brunei 45
position, 45
simplification 45
migr@@ 45
onerous 45
impose 45
$60 45
protections 45
prohibited 45
dumping, 45
mayor, 45
damage, 45
blot 45
Conditioning 45
$61 45
235 45
increase, 45
cages, 45
conflicts, 45
committee, 45
WTO, 45
Countless 45
cooperate 45
raided 45
stability, 45
warfare, 45
costs, 45
reckless, 45
modernization 45
slander 45
scorn 45
further, 45
struggle 45
page, 45
looked, 45
the, 45
endorse@@ 45
note, 45
defective 45
cookies 45
30, 45
lawyers, 45
debtor 45
Internet, 45
bothers 45
lightly, 45
subpoena, 45
16,500, 45
Soros, 45
depreciation 45
irredeemable, 45
bent 45
out; 45
migration, 45
missiles, 45
bah, 45
Secondly, 45
catastrophes 45
some, 45
competence, 45
tractor, 45
persons 45
manufacturing, 45
1290 45
worth, 45
economists 45
Nab@@ 45
excavation 45
Teds 45
congressmen 45
Deere, 45
paperwork, 45
Mary, 45
use, 45
Because, 45
snail 45
applaud, 45
Darling, 45
Norway, 45
killer, 45
deems 45
actions, 45
Wherever 45
solved, 45
Hows 45
sixyear 45
fringe 45
tremendous, 45
hangar 45
extent, 45
four, 45
bonded 45
militaristic 45
publicity, 45
divider 45
Singer 45
Schuster 45
Oreos 45
Kanye 45
McLaughlin 45
isolationist, 45
pledge, 45
airconditioners 45
omarosa 44
philippines 44
syria, 44
ga 44
christian 44
eth@@ 44
@dailycaller 44
carl 44
patton 44
doonbeg 44
rie 44
circuit 44
(all 44
Retail 44
Puppets 44
WA 44
Survey 44
Reporting 44
Wells 44
ECONOMY 44
shift 44
partner@@ 44
Mountains 44
Marshawn 44
dumb) 44
Tokyo, 44
arrival 44
(really 44
guise 44
spirit, 44
survived 44
repetitive 44
opioid 44
200% 44
Abdullah 44
fulfill 44
consent 44
ters 44
legalize 44
iron, 44
(despite 44
busting 44
(again) 44
Brave 44
SECOND 44
@VP, 44
recordings 44
winwin 44
foster 44
#G7Summit 44
HITS 44
REST 44
SCANDAL 44
109 44
4pm 44
Unaffordable 44
plic@@ 44
registration 44
robust 44
disgust@@ 44
tru@@ 44
sN@@ 44
Dum@@ 44
plainly 44
@wolfblitzercnn 44
Hood 44
@newtging@@ 44
lectured 44
lending 44
listed 44
fail@@ 44
Fol@@ 44
Iowa@@ 44
less, 44
CAREFUL 44
blank 44
@autumnandews08: 44
Mesa, 44
Clear 44
UFC 44
HARDER 44
tuning 44
viable 44
NR@@ 44
@cur@@ 44
diligence 44
kinds 44
@lee_@@ 44
Vet@@ 44
Globe 44
#BoycottMacys 44
integr@@ 44
@mi@@ 44
contribu@@ 44
tor, 44
@Katrina@@ 44
John, 44
SC: 44
Plus, 44
@bur@@ 44
@PizzaPartyBen: 44
avy 44
Lu@@ 44
@Pamela@@ 44
cke@@ 44
sv@@ 44
ribu@@ 44
exposes 44
DON@@ 44
@JeremyHL: 44
@mag@@ 44
SPE@@ 44
N_@@ 44
Epic 44
Fore@@ 44
Cardin@@ 44
Taken 44
Used 44
rr: 44
Ur@@ 44
Brother@@ 44
wrong@@ 44
@kyle@@ 44
lish 44
Wins 44
ASH@@ 44
Behind 44
aver@@ 44
mess@@ 44
foreigners 44
offici@@ 44
@br@@ 44
bes: 44
stories, 44
tons 44
CRIMINAL 44
portra@@ 44
ANG@@ 44
Yorks 44
~Donald 44
@bitch@@ 44
Wel@@ 44
sucking 44
Everywhere 44
ues 44
@Clare_OC 44
_ma@@ 44
EXACTLY 44
@WSJ@@ 44
stein: 44
@Candy@@ 44
ich@@ 44
Georges 44
gaz@@ 44
illa@@ 44
overregulation 44
Awarded 44
utmost 44
ough: 44
Malcolm 44
1973: 44
Invest@@ 44
ments: 44
e5@@ 44
Japans 44
backdoor 44
@littlevd23: 44
@bri@@ 44
#TrumpAdvice 44
@JoelOsteen 44
@AlexPappas: 44
@mind@@ 44
obsolete, 44
Michel@@ 44
@chingaling3: 44
stick@@ 44
Alex@@ 44
games, 44
CLU@@ 44
@ChrisCJackson: 44
Rodolfo 44
Rosas 44
@BethAndersonEsq: 44
even@@ 44
pid 44
Greatenjoy 44
@Scot@@ 44
amateurs 44
247 44
pract@@ 44
Beach: 44
Sports@@ 44
measures 44
#VoteForTrump 44
slo@@ 44
exciting, 44
Fair@@ 44
waterboarding 44
class@@ 44
star: 44
view@@ 44
sd@@ 44
illion@@ 44
tease 44
@Pre@@ 44
ged@@ 44
@PeoplesCompany 44
@eonline 44
@Trist@@ 44
Luke@@ 44
liec@@ 44
DAY@@ 44
813: 44
dramatic 44
@BBC@@ 44
sic@@ 44
advertise@@ 44
@WendyWilliams 44
ect 44
__: 44
@BeatsByRay: 44
,the 44
reason@@ 44
@DamacOfficial 44
ame@@ 44
blind@@ 44
80s 44
Men@@ 44
#3 44
@greta@@ 44
240 44
gifted 44
@AF@@ 44
@Perduesenate 44
andi@@ 44
residences 44
Hong 44
Kong 44
Pistorious 44
pil@@ 44
rown@@ 44
interesting@@ 44
#w@@ 44
Soci@@ 44
loosen 44
yd 44
LOSERS 44
@Michele_WV: 44
@Danny@@ 44
yardstick 44
Kerry, 44
site, 44
ph: 44
veteran, 44
Gray 44
EASTER 44
annoying 44
scoffed 44
seriously, 44
patient, 44
ities 44
announcements 44
equestrian 44
asp 44
Evangelical 44
Phil@@ 44
Geneva, 44
Roanoke, 44
unrest 44
insiders, 44
Port@@ 44
Fraud 44
ORDER 44
speakers 44
@Nat@@ 44
Kentucky, 44
Phone@@ 44
Adam, 44
Wichita, 44
(1/2) 44
panicked 44
Amend@@ 44
plunging 44
Lowell, 44
painful 44
@EricTrump, 44
Bike 44
killing, 44
@antbaxter@@ 44
puddle 44
cunning, 44
tions, 44
implement 44
@RasmussenPoll 44
recovery, 44
hotcakes 44
Unsustainable 44
Chen 44
Music 44
#Success 44
Restoring 44
outrageous 44
advan@@ 44
responsibility, 44
compete, 44
defin@@ 44
Schneidermans 44
tracking 44
@Ale@@ 44
:D 44
perver@@ 44
tenant 44
Trace, 44
affect 44
grandchild 44
bullet 44
2030, 44
decrease 44
visas, 44
bleach 44
cost, 44
ministers 44
raped, 44
66yearold 44
harry 43
pow@@ 43
jerry 43
lindsey 43
#obama 43
gen 43
christie 43
@kenyamoore 43
abraham 43
ira@@ 43
seth 43
detroit 43
lic 43
$5m 43
deceit, 43
Account 43
Cathy 43
crumble 43
misled 43
Locker 43
friendships 43
announce, 43
reset 43
rule, 43
Touched 43
Swamp, 43
anxiously 43
24, 43
Committee, 43
Electric 43
AL, 43
ALLTIME 43
1994 43
HOPE@@ 43
luncheon 43
righteous 43
few, 43
Bolling 43
Needed 43
reestablish 43
Texans 43
ground, 43
condemn 43
yourselves, 43
slate 43
revolutionary 43
Attack 43
dismissed 43
Brussels, 43
night) 43
#CashinIn 43
Arabella 43
libel 43
established 43
fading 43
connection 43
Reporters 43
Crimea, 43
20th, 43
tanking 43
1980 43
Hollywood, 43
@MeetThePress 43
Buil@@ 43
convenient 43
withdrawal 43
Tele@@ 43
adm@@ 43
Santorum 43
lowered 43
dictate 43
posts 43
reig@@ 43
Dollar 43
set@@ 43
increasingly 43
semi@@ 43
grants 43
ices 43
tion@@ 43
Page@@ 43
ask, 43
WERE 43
@u@@ 43
meaning@@ 43
Family@@ 43
CH 43
Pas@@ 43
43: 43
postpone 43
Randy: 43
TERRORISTS 43
NIGHT 43
Lights 43
ow, 43
Raleigh, 43
Cher@@ 43
LEGAL 43
123 43
@Be@@ 43
Buckeye 43
LL 43
HU@@ 43
@sherry@@ 43
ias 43
Spring@@ 43
@Joshua@@ 43
@FS@@ 43
@ColinCowherd 43
@jheil 43
5PM 43
amb@@ 43
@Michael_@@ 43
:30pm 43
Lives 43
@Bir@@ 43
pa, 43
burton@@ 43
ATES 43
times: 43
Vot@@ 43
corre@@ 43
#Co@@ 43
STAR 43
rifle 43
entitlement 43
Dill@@ 43
Cohen 43
@Cha@@ 43
chop@@ 43
FAIL 43
@PhxKen 43
gut@@ 43
TALKING 43
#AskTrump 43
@Ur@@ 43
@Schwarzenegger 43
Knows 43
ory 43
Bradys 43
@RoniSeale: 43
Wisconsins 43
fran@@ 43
distort 43
headache 43
BL@@ 43
@Ste@@ 43
si 43
ham: 43
my: 43
Words 43
itty: 43
undocumented 43
inge@@ 43
@RT@@ 43
retail 43
Edwards@@ 43
IES 43
18: 43
spine 43
#You@@ 43
@C_@@ 43
Ce@@ 43
kley: 43
liff@@ 43
media: 43
clubhouse 43
Dee 43
@Lou@@ 43
stumbling 43
PS@@ 43
1:30PM 43
LING@@ 43
manufacturers 43
ach: 43
@NotNotTildaSwin: 43
CUTE 43
ani: 43
@BJKizer74: 43
Goldberg, 43
Astoria 43
daily, 43
Campaigning 43
city@@ 43
wood@@ 43
@J_@@ 43
birthday, 43
#FoxNews 43
@RollingStone 43
igar@@ 43
Simply 43
@IndyBuffaloJim 43
bit, 43
Jan@@ 43
ft: 43
Advis@@ 43
facet 43
@jwil444 43
read, 43
isle 43
Scho@@ 43
Brian@@ 43
@RealityTVBliss 43
Imagination 43
LOT 43
Dropping 43
bus@@ 43
@Boss@@ 43
#yourfired 43
Nets 43
inat@@ 43
rag 43
#Dubai 43
visually 43
@Holly@@ 43
Competition 43
s:@@ 43
130@@ 43
@MI@@ 43
Presedent 43
@blakemharris 43
@Su@@ 43
aches, 43
Cable 43
Class@@ 43
stunt 43
bias, 43
Alexander 43
ures 43
@BillCassidy 43
Pick 43
ked@@ 43
96@@ 43
@kornegay_danna: 43
gesture 43
Park, 43
ater 43
cher 43
DOES 43
05 43
visions 43
SHA@@ 43
@Donald@@ 43
$250M 43
@tyler@@ 43
conference, 43
#NewYork@@ 43
Cahill 43
Beat 43
ghter 43
Cost 43
ceases 43
GC 43
@You@@ 43
Vince, 43
tell, 43
rog@@ 43
distinguishes 43
demise 43
@BillGates 43
bil@@ 43
Washingtons 43
DJ 43
Spectator 43
Ugly 43
Maarten 43
Chi@@ 43
$25@@ 43
#keep@@ 43
plat@@ 43
ets 43
swap 43
Moving 43
@PGA@@ 43
Citizen 43
Bun@@ 43
Entrepreneur@@ 43
Arm@@ 43
singlehandedly 43
rudderless 43
#CPAC2014 43
unfollow 43
raked 43
disdain 43
Development 43
CORRUPT 43
Greensboro, 43
won@@ 43
Ran@@ 43
@JerryJrFalwell 43
announcer 43
Sell@@ 43
@DavidWohl 43
cracking 43
@elizabethforma 43
GENERAL 43
initially 43
mathematically 43
w/out 43
Au@@ 43
@Salon 43
Communist 43
time@@ 43
roof, 43
mantle 43
wallets 43
investors, 43
iPhones 43
ret: 43
$635 43
dic@@ 43
property, 43
Palin, 43
addy: 43
Vattenfall 43
intimidation 43
has, 43
phys@@ 43
involves 43
paperwork 43
@BillMoyers 43
sme@@ 43
reinvest 43
conver@@ 43
tural 43
unity, 43
agreements, 43
tore 43
weaponry 43
reporters, 43
Univision, 43
bigly 43
55,000 43
Persians 43
sodomized, 43
$2,000 43
bestsellers 43
commanderinchief 42
sean 42
asap 42
graham@@ 42
london 42
nick 42
bs, 42
@golf@@ 42
#iacaucus 42
pacs 42
#chicago 42
#trump4president 42
@trumpnewyork 42
@trumpscotland 42
resolve 42
@lord_sugar 42
jan 42
warren, 42
solemn 42
Tel 42
Wray 42
investig@@ 42
AMERICAS 42
run) 42
Search 42
sho 42
#POTUSinAsia 42
Proclamation 42
plus, 42
storming 42
@NYCMayor 42
deranged 42
#JFKFiles 42
Qs 42
MAJOR 42
Value 42
Joining 42
Force@@ 42
progrowth, 42
projobs, 42
TEXAS 42
floods 42
elevated 42
GOPers 42
Forum, 42
Resolution 42
Nicole 42
sabotage 42
ICYMI 42
recess 42
slams 42
encouraged 42
Fitzgerald 42
Scalise 42
#MemorialDay 42
Arlington 42
Cemetery 42
#ObamaCare, 42
apologizes 42
@FoxFriendsFirst) 42
@ainsleyearhardt 42
#PassTheBill 42
#InaugurationDay 42
Lockheed 42
Detective 42
negligence 42
yst@@ 42
COLLE@@ 42
tree 42
function 42
Prote@@ 42
begs 42
misery 42
method 42
tenth 42
bling 42
Athletic 42
default 42
#TrumpRoast 42
@hughhewitt 42
exclu@@ 42
particular, 42
There@@ 42
EXCLUSIVE: 42
el_@@ 42
Patriot: 42
10:@@ 42
dadd@@ 42
@jas@@ 42
Congratulations, 42
55: 42
untalented 42
chanting 42
dec@@ 42
#FN@@ 42
ROCKED 42
Cash@@ 42
Pier@@ 42
THEIR 42
@redletter99: 42
@tegodreaux: 42
ul: 42
blue@@ 42
2B 42
@Po@@ 42
@LandmanMarius: 42
SUPPORTERS 42
500@@ 42
throws 42
@bra@@ 42
ong: 42
Bir@@ 42
apolo@@ 42
answ@@ 42
@97Musick: 42
swear, 42
@Iam@@ 42
@max@@ 42
90: 42
songs 42
resonating 42
Eminent 42
@Karentalk: 42
e11: 42
Fu@@ 42
Famer 42
Itd 42
Paper 42
Marie 42
highlight 42
TAL@@ 42
medias 42
appointee 42
attracting 42
Nominee 42
@GinHay 42
Amateur 42
CONTR@@ 42
obnoxious, 42
contain 42
@AmyMek 42
pulse 42
#GOP@@ 42
HER@@ 42
@cali@@ 42
resort, 42
work@@ 42
@MY@@ 42
cher@@ 42
bull@@ 42
SOL@@ 42
Cam@@ 42
fist 42
Immigrants 42
tempo 42
assure 42
TRUTH@@ 42
TON@@ 42
@we@@ 42
remark 42
@DurandSentinus 42
regularly 42
@pepsidaisy: 42
graph 42
@JeniferStevens: 42
109: 42
convincing 42
@champfor@@ 42
eh@@ 42
sau@@ 42
inc 42
ay: 42
ide: 42
ating@@ 42
1985: 42
Spielberg 42
PU@@ 42
_su@@ 42
Quality 42
ached 42
mming 42
tennis 42
unattractive 42
Met@@ 42
@richardbranson 42
video: 42
@marino_joanna: 42
@sammy@@ 42
oro@@ 42
@ray@@ 42
ational, 42
PUS@@ 42
court: 42
Buff@@ 42
@steph@@ 42
Hammond 42
solid, 42
#leadership 42
buzz@@ 42
card, 42
vaccinated 42
@Tha@@ 42
@Missy@@ 42
Heart 42
Proof 42
broad@@ 42
rie@@ 42
#team@@ 42
@Jer@@ 42
gou@@ 42
AV@@ 42
#SOTU 42
abri@@ 42
#NBC 42
game@@ 42
Smo@@ 42
555: 42
fearless 42
@Bravotv 42
smith: 42
Picasso 42
given, 42
InThe@@ 42
had@@ 42
Gor@@ 42
@Dun@@ 42
vis: 42
clue@@ 42
Hamp@@ 42
fried 42
OC@@ 42
97% 42
Hudson 42
POLAR 42
destro@@ 42
#success 42
involvement 42
0N: 42
josh: 42
,5@@ 42
cell@@ 42
coastline 42
Classy 42
FiveDiamond 42
appoint@@ 42
Anytime 42
Vera 42
Int 42
Eas@@ 42
sentences 42
discovery 42
cousin 42
@AS@@ 42
asha@@ 42
complains 42
@Emily@@ 42
awesome@@ 42
word, 42
IL 42
bats 42
irrational 42
flourish 42
@rhino848484: 42
worn 42
mers 42
Trump) 42
FLO@@ 42
mbers 42
cake 42
exist@@ 42
mentioning 42
components 42
787 42
terminal 42
mandatory 42
difficult, 42
omin@@ 42
experiencing 42
Fashion 42
cyber@@ 42
ided 42
Wife 42
mouth@@ 42
Novi, 42
@DiamondandSilk: 42
Blake 42
Khan, 42
regulation, 42
@Ausbiz: 42
@JasonDovEsq 42
ary, 42
complete, 42
upI 42
@PaulManafort 42
$150@@ 42
strictly 42
#NevadaCaucus 42
abo@@ 42
Canadi@@ 42
domain, 42
steady 42
median 42
Ruddy 42
crane 42
compet@@ 42
@MedvedevRussiaE 42
@ArsenioOFFICIAL 42
projec@@ 42
perverts 42
studied 42
din 42
Afghanistan@@ 42
Rezko 42
extremists 42
raiding 42
Breakfast 42
SOTU, 42
moneyand 42
inspect 42
WRONG@@ 42
Rutgers 42
Crocus 42
tattoos 42
Angel 42
@Hunterboss1996: 42
@wal@@ 42
#HOF 42
Dee: 42
@THE_OBM: 42
Paulson 42
Ole 42
eliminates 42
truly, 42
modernizing 42
enforcement, 42
Canal, 42
taxfree 42
arrivals 42
bidder 42
nationbuilding 42
deser@@ 42
Janet 42
Yellen 42
aligned 42
people; 42
enrichment 42
$200,000 42
dac@@ 41
bay 41
matt 41
kell@@ 41
jimmy 41
@fema 41
nj 41
jay 41
bush, 41
hr@@ 41
@thegarybusey 41
johnny 41
Unnecessary 41
Kirsten 41
SPECIAL 41
handed, 41
witnesses 41
miscarriage 41
virtual 41
129 41
Lady, 41
producers 41
RAISES 41
Participate 41
jail, 41
99th 41
Degenerate 41
Visa 41
Reach 41
BOMB 41
Called 41
czar 41
Viewers 41
denigrate 41
gunshot 41
GRATEFUL 41
HIGH 41
tested 41
delegation, 41
Govs 41
Storm 41
reasoned 41
Feels 41
WWI 41
197 41
overcoming 41
Stopped 41
@Cubs 41
served, 41
Manuel 41
Aetna 41
Mahmoud 41
rulings 41
Agriculture 41
ENERGY 41
slash 41
Josh: 41
peril 41
Boston, 41
searching 41
Leader, 41
Kellyanne 41
Affordable 41
fabled 41
Bahamas 41
sider 41
$9@@ 41
ning, 41
@Newsmax_@@ 41
Newly 41
execs 41
Italian 41
Hamas 41
was@@ 41
@AmandaTMiller 41
Box@@ 41
CAP@@ 41
humili@@ 41
observation 41
kin 41
@Hashtag1USA: 41
SC@@ 41
erman 41
Amaz@@ 41
VOTING 41
define 41
ative, 41
00,000 41
puppe@@ 41
@Sur@@ 41
progre@@ 41
Kas@@ 41
instances 41
99@@ 41
SS@@ 41
fig@@ 41
Periscope 41
commentators 41
ative@@ 41
@pbump 41
NYTimes 41
unbiased 41
TEN 41
Pros 41
reed@@ 41
ars: 41
#YUGE 41
(it 41
PROVEN 41
Years@@ 41
Dope 41
downside 41
fabrication 41
stabbing 41
@seanhann@@ 41
Speech: 41
CHANCE 41
Medicaid, 41
#Truth 41
agre@@ 41
FLASHBACK: 41
halo 41
representation 41
RS 41
Tyler 41
Social@@ 41
mold 41
gy: 41
@cody@@ 41
interviewer 41
TION 41
@Penny@@ 41
@Mid@@ 41
@Nor@@ 41
X, 41
too@@ 41
ism: 41
mp: 41
ASS 41
Suffolk 41
Pelley 41
marathon 41
cox@@ 41
inC@@ 41
@slone 41
hater, 41
@socalmike_SD: 41
Planet 41
atri@@ 41
300,000 41
buffoon 41
eyes, 41
Haha 41
Yup 41
sall 41
Dub@@ 41
Cole 41
Cameron 41
@fu@@ 41
EB@@ 41
Holly@@ 41
grandfather 41
reson@@ 41
JR: 41
primar@@ 41
alynn@@ 41
latinos 41
Hugh@@ 41
pissing 41
huff 41
Bear@@ 41
Marshall 41
inted 41
payroll 41
Ward: 41
fn@@ 41
greedy 41
disqualified 41
Ica@@ 41
#V@@ 41
@woodrowwinters 41
Lad@@ 41
paperback 41
ne: 41
#VOTE 41
06 41
@YankeeRunnerLV: 41
#PleaseRun 41
@1MuskyHunter: 41
b5@@ 41
PM: 41
invade 41
kak@@ 41
strive 41
@YankeeRunnerLV:@@ 41
Whis@@ 41
g) 41
@en@@ 41
@str@@ 41
sons, 41
76: 41
SU: 41
@Dra@@ 41
Living@@ 41
@TPPatriots 41
inclined 41
WW@@ 41
Duncan 41
@art@@ 41
HAPPEN 41
REN@@ 41
@jwt19723: 41
AGO 41
115 41
operating 41
@Bobby@@ 41
@SoyerJanis: 41
@KraftyWurker: 41
Lago 41
Dunn: 41
transformation 41
honed 41
gent@@ 41
fur@@ 41
icul@@ 41
Master 41
Kenne@@ 41
@RealityTVBliss: 41
Busey 41
Bill@@ 41
@HoganSeaisle129: 41
ese: 41
u, 41
dl@@ 41
ix@@ 41
aul@@ 41
highlighting 41
@Jamie@@ 41
@stkhlder3: 41
ito: 41
@gregg@@ 41
fiscally 41
MON@@ 41
SK@@ 41
That@@ 41
Louis 41
cameo 41
fru@@ 41
@jenny@@ 41
#you@@ 41
Airing 41
@Zack@@ 41
awaits 41
illegals, 41
Ok, 41
rude, 41
stir 41
unparalleled 41
dul@@ 41
idols 41
engages 41
@kalevans: 41
#Marine@@ 41
vin: 41
Kids 41
lifes 41
deserter, 41
@pu@@ 41
Awards, 41
ICK@@ 41
itor@@ 41
Gorgeous 41
beliefs 41
@KyleKissKiss 41
Kis@@ 41
condition@@ 41
decisive, 41
kno@@ 41
@william@@ 41
aren@@ 41
luxury, 41
endeav@@ 41
thoroughly 41
chie@@ 41
kin_@@ 41
lest 41
boxing 41
Featuring 41
ader@@ 41
Either 41
WNY 41
certificate, 41
campaign@@ 41
intentions 41
omes@@ 41
Reserve 41
Len@@ 41
Stern, 41
(10 41
oon@@ 41
decisions, 41
CASH 41
io@@ 41
exerc@@ 41
Agency 41
ania: 41
@johnny@@ 41
@TpGraf82 41
grammar 41
tom@@ 41
@thequote: 41
shire@@ 41
fuck 41
incredible@@ 41
Samsun@@ 41
@saintanselm 41
Eggs 41
intensity 41
binding 41
Hire 41
swe 41
backstage 41
Glenn 41
TM@@ 41
241st 41
TOMORROW 41
coordinated 41
had, 41
TA@@ 41
pressure, 41
timing, 41
1968: 41
component 41
LyinTed 41
Jared, 41
Becoming 41
Sky@@ 41
contrary 41
clin@@ 41
choking 41
Barrack 41
corruption, 41
wah, 41
twice, 41
Brig@@ 41
enough, 41
Visiting 41
ventures 41
@Randy@@ 41
Rodriguez 41
08, 41
misrepresentation 41
distin@@ 41
ctive 41
inflicted 41
Istanbul 41
@Hi@@ 41
mer 41
downturn 41
amazingly 41
governmental 41
tor@@ 41
astronomical 41
Clark 41
pollu@@ 41
dominance 41
pave 41
@NeNeLeakes 41
@Brock2120: 41
upside 41
pret@@ 41
institutions, 41
FINALE 41
cent 41
@StephenBaldwin7s 41
lost; 41
smuggle 41
minute, 41
moratorium 41
justified 41
Haiti, 41
portions 41
LAX, 41
catastroph@@ 41
environment@@ 41
forehead 41
@cbs 40
academy 40
#icymi 40
arti@@ 40
ford, 40
laden 40
aven@@ 40
roberts 40
@team@@ 40
thank@@ 40
spitzer 40
poorer 40
poised 40
Turning 40
strategically 40
watches, 40
flight, 40
SET 40
infamy 40
directing 40
suspending 40
committing 40
violent, 40
Modi 40
#HappyThanksgiving 40
Delay 40
upping 40
Comeys 40
BILLION/yr 40
Singapore 40
Hou@@ 40
appointing 40
WORKING 40
report: 40
LAS 40
Comfort 40
route 40
booed 40
saddened 40
Emergency 40
shelter 40
#TexasStrong 40
pardoned 40
Command 40
pard@@ 40
indictment 40
whereas 40
Markets 40
unbreakable 40
Steel 40
Bombshell: 40
CONGRESS 40
#GA06 40
beaches 40
[...]
